[PAD]
[UNK]
[START]
[END]
!
"
#
$
%
&
'
(
)
*
+
,
-
.
/
0
1
2
3
4
5
6
7
8
9
:
;
<
=
>
?
@
[
\
]
^
_
`
a
b
c
d
e
f
g
h
i
j
k
l
m
n
o
p
q
r
s
t
u
v
w
x
y
z
{
|
}
~
¢
£
¤
§
©
«
¬
®
°
±
¶
·
»
¿
×
æ
ð
÷
ø
þ
đ
ħ
ı
ł
œ
ƒ
ɗ
α
β
γ
δ
ε
ζ
η
θ
ι
κ
λ
μ
ν
ξ
ο
π
ρ
σ
τ
υ
φ
χ
ψ
ω
а
б
в
г
д
е
ж
з
и
к
л
м
н
о
п
р
с
т
у
ф
х
ц
ч
ш
щ
ъ
ы
ь
э
ю
я
ђ
є
і
ј
љ
њ
ћ
ա
բ
գ
դ
ե
զ
է
թ
ի
լ
կ
ձ
մ
յ
ն
շ
ո
պ
ռ
ս
վ
տ
ր
ւ
ք
օ
ֆ
ߦ
ก
ง
ช
ด
ต
ฟ
ย
อ
า
แ
ᄀ
ᅥ
ᆪ
ក
ច
ត
ព
ម
រ
េ
‐
–
—
‖
‘
’
‚
‛
“
”
„
†
‡
•
‰
′
›
⁄
€
←
↑
→
↓
↔
∂
−
√
∞
∫
≅
≈
≡
≤
≥
≼
≽
┴
╬
█
▒
■
★
☐
☒
♀
♂



the
of
and
to
in
for
or
be
on
by
shall
article
that
with
is
as
regulation
this
no
not
commission
from
ec
which
are
european
member
an
at
other
it
annex
union
council
may
its
states
decision
should
eu
oj
has
accordance
under
state
any
information
directive
following
all
products
have
where
than
into
out
referred
community
such
measures
their
if
was
provided
market
having
regard
been
paragraph
financial
those
particular
within
agreement
10
use
set
period
aid
used
down
2006
data
one
between
12
including
more
point
part
authority
authorities
requirements
they
conditions
case
also
each
application
2007
national
rules
parliament
provisions
must
system
eec
applicable
product
only
2004
2009
order
11
committee
2013
appropriate
will
necessary
time
made
these
when
date
apply
2005
non
services
2008
certain
concerned
number
relevant
third
ii
amended
ensure
force
basis
general
thereof
means
specific
were
up
after
therefore
competent
procedure
year
2011
december
implementing
30
2003
treaty
production
adopted
2014
account
level
type
value
control
20
amount
first
test
during
15
2012
public
articles
can
subject
management
official
eur
risk
without
concerning
new
pursuant
31
would
common
laid
countries
technical
total
activities
provide
parties
2010
country
available
based
reference
take
13
but
whereas
same
economic
code
respect
development
established
whether
costs
price
taken
area
goods
2002
two
eea
import
14
16
protection
implementation
report
service
considered
establishing
chapter
does
june
trade
section
vehicle
according
approval
least
specified
imports
before
required
assessment
related
support
21
law
security
25
republic
17
18
programme
purposes
additional
entry
january
above
there
health
day
less
export
equipment
international
maximum
form
2015
granted
per
july
through
22
replaced
19
animal
2001
standard
safety
group
procedures
request
done
food
journal
however
joint
defined
carried
rate
list
october
years
24
given
enter
transport
legal
containing
29
submitted
place
criteria
further
systems
iii
customs
prices
directly
covered
table
industry
animals
possible
interest
well
28
relating
persons
23
energy
brussels
2016
so
listed
company
name
1999
see
end
do
regards
intended
investment
2000
agricultural
credit
include
party
quality
weight
air
person
purpose
opinion
march
using
last
follows
cooperation
had
over
producers
capacity
investigation
applied
november
payment
27
organisation
mm
second
measure
26
april
being
framework
cases
capital
operation
vehicles
access
fixed
minimum
three
action
amending
water
approved
subparagraph
high
basic
origin
parts
sector
annual
issued
policy
agency
points
september
you
compliance
members
content
fishing
values
authorisation
material
view
materials
publication
due
could
assets
plan
de
duty
effect
against
power
operations
months
undertaking
them
substances
business
companies
position
administrative
make
both
functioning
areas
process
rights
exceeding
results
taking
authorised
until
free
internal
body
laying
who
different
standards
review
added
expenditure
court
tax
included
excluding
method
institutions
scheme
processing
special
similar
single
species
board
gas
president
2017
bank
50
regulations
office
february
since
term
work
own
territory
responsible
operator
days
either
certificate
united
active
instruments
category
document
performance
monitoring
documents
detailed
determined
sales
protocol
notified
line
dumping
binding
individual
contract
100
substance
cost
resources
situation
he
his
way
natural
plant
sugar
terms
kg
duties
million
entity
institution
heading
funds
act
received
central
cover
representative
result
reporting
average
existing
consumption
addition
undertakings
final
legislation
staff
designed
social
operating
obligations
published
tom
iv
budget
bodies
provision
regional
assistance
unit
human
exchange
limit
working
programmes
acid
analysis
obtained
below
light
vessels
applicant
research
need
insurance
manufacturer
applications
comply
training
markets
except
present
guidelines
text
arrangements
supply
financing
originating
paragraphs
increase
provides
indicated
treatment
fruit
communities
entities
fund
anti
calculated
declaration
equivalent
amounts
question
electronic
entirety
quantities
address
described
volume
methods
contribution
description
milk
notification
regarding
produced
net
limited
impact
network
significant
transfer
paid
project
guarantee
right
change
activity
field
scope
some
another
environmental
effective
decisions
accounts
waste
communication
full
contracts
identification
96
evidence
conformity
competition
exporting
adopt
direct
agreements
commercial
feed
current
cannot
oil
concluded
meaning
objectives
90
accordingly
did
operators
meat
exceed
levels
share
eligible
prior
relation
actions
cn
operational
prejudice
convention
kingdom
event
producer
payments
steel
92
government
effects
##s
long
contracting
evaluation
establishment
germany
marketing
reported
inform
tests
characteristics
manufacture
already
principles
normal
tariff
title
91
restructuring
fish
types
reasons
quantity
requested
nature
98
sample
private
storage
external
limits
95
changes
allow
exposure
about
emissions
40
comments
like
submit
regulatory
fuel
amendments
corresponding
engine
region
meet
stock
identified
vegetables
providing
main
unless
equal
establish
sufficient
aircraft
components
provisional
units
groups
objective
2018
projects
met
range
issue
elements
sale
august
registered
environment
acts
euratom
ecb
organisations
most
upon
local
domestic
licence
chemical
holding
director
found
verification
appendix
carry
mass
land
scientific
infrastructure
otherwise
example
reduction
93
inspection
delegated
quota
transactions
border
instrument
87
calculation
transmission
cross
checks
behalf
maintenance
testing
expressed
model
plants
airport
benefit
proposal
36
while
potential
risks
making
entered
device
low
derogation
higher
categories
balance
euro
reports
registration
class
mentioned
together
regions
involved
pressure
securities
tender
refund
surveillance
personal
france
fisheries
recital
what
status
obligation
circumstances
principle
60
letter
note
increased
temperature
interested
contain
speed
co
vessel
devices
overall
licences
applying
determine
accounting
fact
associated
because
matter
held
off
whole
94
small
adoption
loss
cas
requirement
grant
re
outside
size
thus
association
determining
revenue
essential
conclusion
resulting
require
items
proposed
paper
°c
metal
32
put
rates
original
tonnes
hereby
lower
waters
able
applies
extent
injury
codes
machines
whose
context
forms
road
35
technology
expected
sub
notice
continue
even
percentage
veterinary
annexes
users
then
classification
centre
repealing
profit
five
cfsp
statement
previous
examination
column
designated
separate
33
open
debt
holder
measured
notes
tasks
surface
give
periods
prepared
disease
contact
industrial
considers
item
actual
contained
employment
prevent
reduced
participation
raw
meeting
70
details
loans
several
how
wine
hereinafter
design
fresh
distribution
cash
investments
preparations
known
complete
later
97
needs
75
italy
initial
controls
zone
geographical
independent
implemented
standing
recognised
head
al
indicate
80
processed
foreign
definition
classified
accession
addressed
civil
very
45
benefits
four
combined
sampling
month
electricity
preparation
certificates
life
recovery
trading
vi
base
source
sea
hand
claim
fully
return
opening
french
agreed
claims
iso
interests
income
flow
placed
modified
informed
proceedings
incorporated
greater
structure
future
sheet
37
draft
includes
schemes
destination
compensation
people
ex
far
approach
specifications
shares
nomenclature
supervisory
measurement
kind
notify
decided
ensuring
exemption
construction
rural
function
imposed
refunds
allowed
factors
temporary
emission
deemed
sources
39
statistical
property
good
register
prc
34
efficiency
collection
longer
lead
condition
43
allocation
quotas
resolution
length
apparatus
negative
decide
loan
immediately
mark
large
movement
motor
1998
presented
every
funding
lays
shown
certification
intervention
governing
asset
contributions
chinese
en
pre
stocks
administration
allocated
machinery
duration
etc
statistics
response
traffic
banks
furthermore
beneficiary
65
flight
absence
audit
likely
determination
fibres
carrying
concentration
agriculture
48
box
setting
transitional
post
carbon
1234
methyl
side
constitute
liabilities
uses
laws
samples
exercise
01
facilities
short
birth
exported
exports
rule
granting
coordination
europe
relevance
cereals
completed
series
protected
ireland
manner
frequency
glass
former
six
extended
efta
via
adjustment
imported
losses
equity
component
sectors
transaction
target
linked
valid
strategy
solution
margin
military
adequate
medium
performed
important
1994
positive
china
installation
organic
46
1995
wood
implement
policies
1996
electric
sent
2020
assigned
recorded
derivatives
documentation
best
treated
falling
fixing
integrated
hours
incurred
accompanied
various
grounds
spain
practice
drawn
declared
practices
excl
functions
confirmed
electrical
submission
affect
medical
respective
passenger
consumer
south
mg
enable
latest
located
charges
85
justice
political
mean
accepted
reduce
assess
bovine
sold
un
matters
forward
contribute
heat
world
laboratory
mission
maintain
issuing
studies
placing
88
facilitate
currency
poland
key
figure
recognition
definitions
extension
still
professional
responsibility
transit
difference
stage
flag
ip
major
charge
textile
commitments
reasonable
chain
combination
avoid
moreover
clearly
works
physical
enterprises
exposures
amendment
remain
primary
directives
42
growth
plans
exception
supporting
assessed
inter
55
start
retail
ratio
consideration
emergency
guarantees
seed
needed
acting
written
estimated
00
once
38
signed
study
subsequent
participating
powers
connection
liquid
output
consisting
knowledge
nuclear
serious
compared
stated
89
possibility
economy
suitable
demand
sound
collected
##a
progress
derived
consider
repealed
numbers
agencies
1997
frozen
controlled
processes
supervision
advantage
invitation
pay
78
supplement
fair
thereto
check
issues
vii
delay
permit
crr
iron
clear
regular
white
alternative
compatible
close
indication
live
sustainable
among
load
instructions
port
respectively
experts
aviation
settlement
ltd
kept
purchase
requires
better
sum
specify
inserted
designation
recommendation
41
finance
building
presence
medicinal
enforcement
61
rating
poultry
improve
44
introduction
customers
personnel
space
justified
additive
she
72
indicators
additives
affected
sodium
49
selected
self
mechanism
fabrics
##e
conducted
netherlands
identify
nor
specially
deleted
please
packaging
romania
findings
fitted
99
railway
definitive
transferred
claimed
education
facility
achieved
achieve
uniform
importers
conclusions
developed
expiry
engines
towards
capable
conduct
followed
belgium
oils
68
judgment
innovation
copy
denmark
entitled
partnership
restrictions
414
site
advance
ground
66
gross
receive
tools
procurement
release
representatives
tfeu
51
holdings
promote
lamps
currently
experience
lodged
yet
format
positions
consequently
1992
me
arising
fat
delivery
budgetary
user
53
her
we
noted
executive
consultation
appropriations
takes
1993
expenses
operated
dry
km
back
reason
disclosure
rice
consumers
liability
requests
yarn
location
auditors
receipt
officer
my
aspects
manufacturing
obtain
02
ml
foodstuffs
factor
throughout
09
sets
course
seat
completion
fees
greece
lines
handling
phase
latter
family
verify
around
efficient
fulfilled
beneficiaries
might
become
indent
norway
concerns
disposal
measuring
permitted
52
67
recommendations
permanent
examined
itself
networks
labelling
scale
failure
particularly
ship
real
priority
stability
specification
79
existence
workers
73
fulfil
powder
negotiations
calendar
supplied
switzerland
107
width
home
amend
radio
discharge
said
cycle
records
premium
selection
64
commitment
record
czech
direction
north
butter
soon
references
language
validity
weighted
passengers
italian
alia
spp
normally
communicate
rail
meetings
distance
dumped
cotton
59
bulgaria
compounds
financed
words
lamp
prohibited
composition
certified
operate
owned
initiation
56
luxembourg
introduced
tenders
methodology
regime
dated
77
territories
harmonised
outcome
statements
called
remuneration
authorisations
57
keep
recitals
compatibility
58
labour
times
driver
approximately
guidance
consistent
remaining
money
47
excluded
adjusted
residence
aim
mode
significantly
conversion
participants
global
62
comparison
sampled
zones
salts
vat
your
profitability
travel
structural
index
dried
front
136
cooperating
covering
enterprise
brake
sweden
jurisdiction
norwegian
residues
communications
mandate
adjustments
fire
exporter
firm
wheat
cent
equipped
monitor
prevention
flat
role
importance
automatic
diameter
minister
opportunities
version
suspension
manufactured
appropriation
fee
300
tested
inspections
co2
provider
mutual
award
employed
##i
follow
exceptional
appointed
mixtures
ias
tsi
develop
population
delivered
assembly
la
fall
inclusion
schengen
solid
supported
maritime
cm
maintained
languages
71
pilot
beyond
providers
83
don
54
parameters
allowances
05
cause
containers
produce
come
rubber
minutes
contains
show
200
therein
duly
firms
updated
prescribed
partial
mechanical
attached
braking
cyprus
rn
writing
eggs
semi
steps
formal
sections
cut
ethyl
input
aluminium
crisis
notifications
reinsurance
consists
ships
portugal
offer
children
indirect
caused
heating
maize
arrangement
cells
train
participate
investor
liquidity
society
sentence
vegetable
pension
solely
extract
connected
recommended
viii
intra
affairs
him
04
proof
age
rolling
transparency
constitutes
verified
acp
swiss
names
ukraine
restrictive
know
withdrawal
agents
efsa
receiving
hot
82
identity
read
indications
sheets
perform
diseases
hungary
proposals
acquisition
preceding
competitive
banking
criterion
76
link
nations
consolidated
croatia
daily
mr
restricted
authentic
86
supplier
planned
yl
child
buildings
carriers
regulated
organisms
eusr
developments
demonstrate
criminal
coated
file
actually
go
underlying
subsidy
installations
soil
events
volumes
damage
543
63
initiative
technologies
summary
circulation
officials
undertaken
consignment
navigation
employees
thickness
call
interim
replacement
mainly
regarded
panel
involving
opened
latvia
taliban
reserve
chemicals
1991
whereby
hydrocarbons
interoperability
figures
proper
software
namely
lists
multilateral
gear
residue
internet
billion
exhaust
help
presentation
##0
dangerous
although
calculating
element
petroleum
province
exclusively
finland
offered
advisory
separately
differences
concern
grants
threshold
explained
cold
spot
m2
detection
authorising
supplementary
developing
reached
covers
revised
effectiveness
acceptance
lithuania
wide
majority
managing
sa
legislative
mechanisms
rise
height
collateral
previously
afghanistan
took
qualified
voltage
nr
digital
signature
techniques
beam
comparable
mixture
analytical
di
born
proportion
refer
climate
page
knitted
machine
secretariat
flying
birds
woven
label
alcohol
fishery
subsequently
transfers
appliances
satisfy
strength
variable
promotion
carrier
half
degree
03
website
mixed
substantial
nominal
suppliers
investors
nationals
comprehensive
safe
tier
integration
rear
transmitted
gases
themselves
81
synthetic
vertical
owner
slovenia
principal
specifically
now
seeds
conservation
lay
plastic
generally
penalties
1990
immediate
passport
media
tail
marking
increasing
german
rejected
continuous
mary
150
##o
austria
contractual
beginning
communicated
69
tubes
india
84
execution
defence
customer
letters
appeal
applicants
awarded
us
left
tonne
competence
judicial
run
interpretation
shows
situations
relationship
excess
accessories
swine
importer
sites
agree
draw
refers
expert
producing
planning
protective
red
crocheted
observations
wild
declarations
marine
managed
round
manufacturers
step
parent
ministry
sufficiently
confidential
premises
others
mail
closed
establishments
turnover
starting
selling
observed
track
formula
across
host
chloride
multi
traditional
fibre
rolled
driving
hair
fields
african
bear
especially
farmers
removed
catch
combustion
2019
division
want
advice
sis
finally
crew
entire
individuals
stipulated
catches
option
farm
reflect
500
ix
eurosystem
copper
protect
worked
template
early
deposits
renewable
removal
maturity
corporate
stored
repair
leather
film
manager
liechtenstein
adverse
modification
complex
decrease
deadline
citizens
103
difficulties
nb
default
east
holders
trans
plane
effectively
ability
correct
coefficient
importation
74
conjunction
clinical
##n
entries
extend
efforts
ifrs
promoting
strategic
update
demonstrated
horizontal
flows
299
card
measurements
spanish
delegation
colour
1107
secondary
breeding
ad
acquis
supplies
fundamental
imposition
et
withdrawn
nuts
optical
recent
floor
taxes
iran
transparent
reducing
many
next
fourth
cooperate
landing
decreased
##1
payable
route
branch
centres
crops
highly
visa
depending
assessing
computer
care
attention
neither
responsibilities
choice
situated
sole
here
indicator
subsidiary
authorise
estimate
row
headings
man
functional
micro
availability
biocidal
gen
plus
airports
smes
cultural
led
bearing
stay
108
commander
mandatory
monetary
axis
giving
influenza
indicating
generated
spread
problems
notwithstanding
facts
1000
hearing
solutions
rather
women
accompanying
targets
book
icelandic
structures
technological
forces
recording
argued
contrary
valuation
why
counterparty
avian
fuels
publish
blood
continued
instance
plates
dates
drawing
old
recovered
1987
satisfied
aimed
improving
allowing
deputy
highest
ryanair
tobacco
consist
preserved
printed
metals
eligibility
iceland
islands
opportunity
properties
agent
annexed
dispatch
indeed
confederation
released
representing
acceptable
examine
corrected
138
prohibition
sharing
correction
household
investigations
improvement
generation
multiple
twentieth
ncbs
lot
uk
cpa
secretary
bis
particulars
consultations
preferential
112
america
core
steering
charged
exceeds
creation
russian
relative
accuracy
represented
modules
relations
weighing
clause
bring
complaint
plastics
installed
meets
www
earlier
breakdown
database
questionnaire
suspended
committed
issuer
liable
mobile
portfolio
past
complies
classes
priorities
module
wire
send
consent
120
turkey
warning
imo
reach
conferred
complied
practical
coal
freight
relate
alloy
hereto
running
manual
nitrogen
models
06
sanctions
optional
##t
quantitative
##2
platform
skin
wheel
##r
package
mineral
lack
assist
greek
departure
invoice
appear
object
city
ecr
instead
accessible
along
des
calculate
artificial
rip
wines
invited
command
toxicity
loading
leave
nationality
black
russia
block
broken
television
understanding
district
weapons
restriction
concentrations
orders
intermediate
derogations
always
hydrogen
add
indicates
kw
incorporating
ownership
slovakia
exporters
korea
regularly
semen
car
hold
exist
resident
allows
represent
termination
foods
subsystem
aquaculture
eurostat
aquatic
printing
reply
tyre
much
signal
olive
voluntary
250
housing
acids
critical
preliminary
confidentiality
engaged
favour
young
estimates
fraud
burden
taxation
accept
cell
600
art
calls
consignments
brought
requesting
http
showing
estonia
guaranteed
guideline
ordinary
publicly
assurance
schedule
filament
pigs
amino
showed
125
preparatory
stands
proportionate
seats
concentrated
indirectly
entering
deficit
subheading
ignition
airlines
corrective
freedom
starch
mediterranean
federal
acquired
master
subsidiaries
vis
going
carriage
coverage
106
industries
department
ro
zero
police
affecting
##d
marked
exemptions
ncb
automatically
105
makes
yes
constitutional
territorial
greenhouse
allowance
uruguay
features
indicative
favourable
reviewed
variety
analysed
alert
participant
analogue
incompatible
yangon
tyres
organism
fine
belonging
104
mrls
##5
transition
west
paperboard
renewal
axle
consistency
intensity
pollution
alleged
lighting
partners
identifying
esma
shareholders
consulting
behaviour
changed
protein
chairman
subsidies
bonds
whom
offices
08
consequence
considering
ices
potassium
bound
malta
predominantly
strip
envisaged
reserves
dimensions
northern
paying
tables
exit
comprising
canada
cargo
viability
movements
composed
wholly
##3
conclude
wholesale
savings
effort
programming
excessive
reaction
nace
africa
chilled
collective
undertake
considerations
atlantic
rated
fittings
repayment
checked
container
borders
correspond
ce
infringement
appears
checking
performing
bilateral
inland
fixes
calcium
evaluated
footwear
beta
top
laboratories
created
define
great
occur
empowered
leaves
establishes
registry
finished
utilisation
egg
initiated
stakeholders
resistance
virus
wool
texts
remains
tuna
dioxide
again
precious
noise
bat
concludes
integrity
create
arms
dose
##4
chosen
reliable
extraction
alcoholic
proceeding
identical
density
biological
culture
withdraw
mitigation
oxide
raised
assisted
multiannual
filter
breach
compulsory
elsewhere
imposing
encourage
revenues
impose
bosnia
accreditation
thereby
lending
profits
salt
347
oversight
properly
recipient
alias
danish
ceiling
pending
prepare
genetically
herzegovina
notably
influence
leading
governance
unique
organised
exempted
reimbursement
associations
diesel
benchmark
1989
nevertheless
seven
secure
adaptation
cleaning
audits
forestry
residual
178
postal
575
101
dilution
limitation
strengthening
green
rescue
dutch
involve
week
dialogue
parallel
weeks
double
gdp
angle
polish
safeguard
advertising
detail
minor
st
upper
318
plate
reductions
strengthen
compound
team
chair
mobility
hazardous
sensitive
taxable
transported
procedural
dispute
07
outstanding
1308
solar
limitations
bureau
beef
cmo
task
innovative
profile
subjected
discriminatory
purity
routes
exceeded
complying
aggregate
message
exempt
fever
ports
##l
ensured
closure
dissemination
110
layer
door
nickel
cutting
exposed
calculations
relates
monthly
complainant
restraint
pieces
initiate
vice
character
democratic
jha
officially
2a
gmbh
oecd
outer
enhance
none
jointly
error
hr
footnote
conflict
options
governed
assessments
pipes
selective
separation
sulphur
stabilisation
substantially
continuation
sectoral
deposit
passing
asked
discrimination
margins
reform
maintaining
com
packages
marks
views
constructed
usa
du
school
grapes
consequences
ammonium
questions
portuguese
silicon
derivative
doubts
english
modifications
heavy
focus
inside
ms
borne
constituents
station
stainless
varieties
nm
atomic
designate
legally
slaughter
edible
160
1831
adapted
toxic
closing
##7
statutory
evaluate
validation
belgian
improved
xi
clients
ongoing
inn
acetate
conference
too
despite
replace
usually
396
tool
refusal
grape
tube
migration
remove
online
contents
crude
tribunal
gives
growing
400
##9
forming
boxes
sign
clearing
comprise
whenever
exclusive
conform
adopting
stop
constant
harmful
stable
alternate
never
corresponds
primarily
270
thresholds
esters
revision
confirm
ll
accident
initiatives
securitisation
survey
conventional
exclusion
eastern
stages
permissible
competitors
appointing
remained
approximation
caught
cooling
unrelated
correlation
entrusted
house
successful
fiscal
square
scenario
enabling
appointment
irrespective
##6
satisfactory
display
eib
client
conducting
consult
incentive
sized
clearance
provisionally
partly
fats
competitiveness
senior
zinc
sucrose
therefor
fax
requiring
sell
argument
job
chamber
welfare
##8
##c
exhausted
grain
taric
transmit
solvency
secured
just
extending
identifier
illegal
alloys
kosovo
easily
solvent
room
destinations
background
contributing
replies
opinions
139
occurred
relief
sheep
timely
coordinated
strong
forwarded
distillation
livestock
virtue
directorate
partially
rest
keeping
copies
354
absolute
finding
hour
retain
157
eradication
justification
reasonably
independence
municipality
represents
aims
difficult
administrator
hard
coming
102
feedingstuffs
qualify
vol
es
divided
obliged
listing
smaller
difficulty
abovementioned
agenda
xii
exploitation
belt
intention
μm
ceramic
institute
expertise
achieving
468
counterparties
pricing
min
bars
1782
xiii
suffered
brazil
increases
prohibit
trailers
lease
destruction
coupling
true
started
cream
el
qualifying
premiums
farming
dimension
edf
tank
ingredients
hydroxy
living
cohesion
specifying
eight
adapt
autonomous
get
closely
irregularities
decree
compartment
1784
skills
dossier
oxygen
alpha
segment
simple
ancillary
statute
mounted
pakistan
pure
refuse
marketed
thermal
awareness
designations
exists
peak
chemically
injection
ten
undue
europa
exchanges
often
ban
trend
slovak
arguments
deliver
insufficient
achievement
flights
indian
likelihood
concept
branches
dynamic
telecommunications
disclosed
510
managers
proportionality
circuit
ovine
strategies
icao
torque
europol
hazard
343
urban
1605
coast
contested
entitlements
insert
deduction
legitimate
harmonisation
japan
describe
authorization
employee
arise
pumps
pass
sought
foreseen
spare
reasoned
useful
justify
qualification
seek
repeated
manage
boiling
fatty
id
##y
rev
cpc
fruits
preventing
directed
individually
fleet
resource
retained
regardless
quarter
organization
video
bulk
raise
tanks
admission
largest
driven
beans
123
levy
capacities
assumed
thereafter
supplementing
symbol
telephone
crop
candidate
m3
face
rapid
auction
offers
180
committees
del
consulted
rolls
federation
contamination
deducted
specialised
institutional
ph
vaccination
approvals
biodiesel
##00
failed
separated
shipping
furniture
alone
182
thailand
signalling
dairy
analyses
cereal
potatoes
governments
114
introduce
1151
intervals
estate
links
banknotes
columns
foot
adjusting
courts
pig
western
excise
think
capability
cod
confirmation
pulp
350
men
calibration
circuits
commodity
heads
1580
540
late
generating
universal
visible
rapporteur
trailer
threat
cuts
signs
vote
1260
cars
simultaneously
cycles
diagnostic
moment
wto
places
##u
deployment
intellectual
nutrition
3223
999
doors
118
scheduled
terrestrial
funded
voting
wheels
caprine
distort
examples
approving
detected
terminal
blocks
seventh
shape
tendering
##es
unlawful
insolvency
periodic
embryos
exclude
ucits
armed
chapters
fattening
serve
temporarily
145
scrap
simplified
pool
larger
river
qualifications
ante
referring
cif
aware
commodities
115
obtaining
purchased
rods
185
poultrymeat
aeroplane
##m
cocoa
creditors
coffee
arrival
spaces
forest
lost
spectrum
headlamp
ve
109
cylinder
dedicated
terminated
wall
vacuum
210
hence
macedonia
wet
suspend
fulfils
##er
156
transportation
occupational
permits
translation
126
indonesia
partner
meal
pipe
zz
1a
objects
pet
147
expression
hybrid
incl
grade
organisational
800
fix
serbia
clarity
game
horizon
equidae
trends
inventory
poly
xvi
distributed
interface
opposition
drive
mutandis
mutatis
forecast
becomes
ensures
authorized
intends
sirene
hs
malaysia
1255
turn
precise
recycling
departments
targeted
wife
integral
accurate
218
demonstration
didn
blue
owners
broadcasting
understood
par
supervised
accommodation
yugoslav
beverages
visual
am
approve
concession
ethylene
forthwith
continuing
140
dimethyl
evolution
visit
gains
reflecting
signals
extracts
ambient
mesh
search
coating
candidates
fulfilment
split
refused
reflected
ratings
stamp
adequately
oral
##en
clean
cm3
##ing
offal
infringements
certainty
band
goc
pathogenic
standardisation
errors
freezing
introductory
scrutiny
technically
hygiene
distortion
conditioning
packing
licensing
principally
pesticide
cap
vary
annually
initially
merger
supervisor
130
quarterly
completely
guinea
966
mid
pump
businesses
mercury
validated
corporation
directors
assumptions
enhanced
mhz
asylum
actors
compliant
historical
relatively
filled
involvement
preparing
vinyl
distortions
veterinarian
117
deficiencies
satellite
wording
121
web
shareholder
appoint
polymers
cheese
countervailing
stations
files
butyl
jobs
undercutting
humanitarian
sg
buyer
multiplied
suspected
yield
engineering
whichever
controller
tolerance
subheadings
farmer
radiation
ask
mouth
civilian
discount
eco
image
documented
formed
expire
tenderer
pensions
ready
unable
continuously
falls
observation
addresses
say
xv
fabric
productivity
impregnated
occurrence
linear
problem
crime
cumulative
concrete
hungarian
standardised
elimination
stress
consolidation
comment
fifth
propose
advanced
occurs
batch
beet
auxiliary
fractions
particulate
safeguards
almost
longitudinal
fit
constituted
clothing
servants
airspace
magnesium
chief
lowest
2658
traded
surplus
taiwan
122
recalled
airworthiness
reliability
1988
barriers
sustainability
1249
moldova
monitored
1h
visits
buy
play
na
retention
magnetic
variation
edge
res
hoc
thread
spirit
college
recover
wastes
gold
objection
find
visibility
sweet
recipients
119
debtor
equine
20th
books
aerodrome
static
recognise
peace
swedish
tell
feeding
portion
representation
barley
conforming
wind
constituent
libya
subperiod
cellulose
seen
buffer
confidence
collect
decides
approaches
exercised
molluscs
113
000
skimmed
entitlement
explain
submitting
finds
urgency
salmonella
sulphate
settled
##g
xiv
tert
staple
csd
households
observer
trust
posts
uncertainty
explanation
sides
116
express
built
bus
configuration
dust
activated
ring
audiovisual
conflicts
expired
reserved
importing
farms
yellow
arbitration
853
litres
offences
whilst
extra
gender
shared
dependent
montenegro
aqueous
refined
serial
slaughtered
cast
disclose
spatial
messages
smooth
carcases
undergone
124
brig
death
enhancing
piece
grains
##k
controlling
leaving
street
reception
credits
piston
col
moved
potentially
protocols
renewed
eafrd
crossing
nitrate
captive
consigned
phosphate
aeroplanes
minimis
230
challenges
intelligence
near
counter
sme
deadlines
deterioration
examinations
gaseous
enough
valves
facilitating
respected
returned
came
charter
kilograms
operates
deal
missing
choose
hydraulic
1980
glucose
complementary
1975
admitted
tissue
unloading
liquidation
nothing
attributed
novel
2913
composite
san
penalty
heard
science
sanitary
chloro
equivalence
learning
effected
formalities
infrastructures
combat
privileges
compression
flour
signing
occasion
though
channel
ag
holds
apparent
grid
issuance
le
proliferation
oxides
depth
coordinate
3a
boards
incorporation
moving
obd
pattern
deviation
genetic
horse
surveys
frontier
inputs
incentives
netting
fertilisers
valve
220
depreciation
ece
recapitalisation
passed
337
specimens
128
tractors
interference
improvements
foundation
injurious
select
flexible
metres
moisture
restrict
mining
finalised
doing
textiles
1907
187
impacts
advantages
exceptions
ceilings
citrus
circumvention
msc
transposition
tunisia
trafficking
explanatory
##b
bse
iccat
treaties
coastal
inorganic
sixth
aids
dc
path
differ
subparagraphs
variables
belarus
corrections
automated
memorandum
advances
aromatic
solidarity
648
word
raising
roots
washing
propulsion
slightly
initiating
creditor
corporations
##ed
resulted
switch
transhipment
trial
176
let
served
offering
remedy
appendices
216
manure
pollutants
aggregated
tso
pgi
minimise
protecting
merely
clarify
similarly
offset
downstream
insofar
pdo
laminated
entirely
nine
systematic
abu
officers
farmed
packings
declare
move
fails
repeal
234
concessions
joined
unscr
georgia
mexico
executing
independently
aung
root
registers
111
268
cables
circular
flexibility
biomass
frame
girls
wish
127
certifying
channels
equally
bottom
charging
specimen
prove
subjects
missions
severe
sweetening
stating
steam
absorption
intermediary
eric
introducing
conditional
seconds
syria
ray
302
##h
profitable
drying
generate
prudential
165
fraction
denominated
panels
alerts
log
activation
labels
tourism
168
receives
broad
pln
proportional
consignee
ruling
saint
balances
cards
auditor
governmental
radius
ash
necessarily
pt
acetic
dual
strain
viable
continuity
employer
iia
sports
pointed
trains
morocco
spent
surfaces
tariffs
distributors
collecting
vulnerable
buying
demonstrating
random
reproduction
1833
accredited
structured
sums
cease
dob
stone
litre
labelled
remote
coins
respond
deck
explicitly
combating
esa
platforms
algeria
cancellation
venture
2454
comes
dprk
finnish
se
publications
constraints
store
vacant
881
247
modes
negotiated
bone
carbonate
deep
encouraged
ending
craft
terrorism
preservation
trials
conventions
converted
discretion
juice
radioactive
save
precision
eliminate
phenyl
updating
press
sensitivity
preventive
compensatory
accidents
der
retirement
1985
few
164
ccp
simply
vapour
correctly
dealing
incorrect
impossible
supports
became
adjust
purchasing
salted
temperatures
quarantine
sense
creating
miscellaneous
possession
yearly
greenland
supplemented
privacy
delegations
eye
fight
county
gave
night
nox
outbreak
pesticides
pharmaceutical
son
motors
novads
141
951
balancing
catalytic
exportation
unlikely
addressing
interinstitutional
window
142
macro
incremental
susceptible
marketable
assemblies
headlamps
parking
illicit
152
psc
leverage
currencies
##p
reading
batteries
pursued
break
flavouring
minus
chairperson
bicycles
syrup
1986
proceeds
watch
danger
electromagnetic
gauge
twice
depends
involves
167
med
shell
irish
sewing
certify
screening
soluble
131
fulfilling
pursue
newly
explosive
nets
148
adding
methodologies
reverse
purchases
outbreaks
belts
ocean
powders
satisfying
accounted
intermediaries
affixed
1970
characteristic
phytosanitary
161
ecological
generators
reinforced
violence
doesn
sudan
1303
debts
stand
206
constituting
variations
lodging
297
heaters
syrian
connections
geographic
residents
bar
disturbance
membership
subtotal
kpa
notifying
parameter
328
earth
recurrence
liquids
ol
submissions
defining
ict
satisfaction
traders
limiting
veal
romanian
concentrates
ethanol
fr
benchmarks
congo
endo
divisions
mother
cooked
gained
hydrochloride
economically
subsidised
suitability
bond
flowers
bad
frames
transformation
1224
israel
gravity
skins
cable
interconnection
129
dental
estimation
ghz
oc
211
sequence
acute
laser
spring
intake
2200
prohibitions
prospectus
construed
substitution
assembled
observers
delete
diversity
van
##f
349
sickness
benefiting
commerce
ecli
straight
alternatively
judge
1967
rely
polyethylene
build
disputes
endorsed
digit
populations
170
pellets
tissues
colours
administered
broadband
profiles
expansion
satisfies
exact
frequencies
isolation
notices
winding
silk
cultivation
phosphorus
uranium
facing
169
bid
chickens
particle
substantiated
tar
cited
felt
sowing
specifies
explosives
iraq
arm
formation
australia
ali
adaptations
adhesive
bags
southern
1290
curve
max
clarified
comprises
foil
pneumatic
waiver
eeas
reaching
segments
192
248
degradation
zealand
session
mackerel
causes
cr
egypt
electronically
hazards
observes
modify
tin
harvested
travelling
classical
minute
verifying
albania
applicability
durum
swap
143
158
bluefin
vocational
answer
ac
affects
interior
liver
sending
tel
tenderers
882
cameras
1829
analyse
1982
280
contracted
flask
season
semiconductor
understand
courses
155
believe
executed
gallus
ice
scenarios
5a
cooperative
rows
expense
gain
incomplete
coordinating
forum
powered
terrorist
launch
da
exchanged
deferred
infection
austrian
consignor
guide
strictly
epidemiological
mix
subordinated
hz
typical
actively
sensor
experimental
cabin
forecasts
impairment
rounded
cadmium
instruction
roaming
pacific
radar
sealed
evaluations
humans
readily
coverings
fitting
liaison
mrl
overseas
target2
258
adjacent
consecutive
timetable
##in
bases
ammunition
engage
cf
cumulation
entail
528
collaboration
acquire
subsystems
combinations
distinction
wagons
brakes
drawings
our
away
epa
screen
investigated
motion
median
coherent
unauthorised
hydroxide
traceability
dispatched
isoglucose
locations
paris
convergence
axles
bridge
drivers
educational
reviews
borrowing
harvest
subsection
practicable
telecom
announced
potato
amounting
impurities
mohammad
grown
usage
strips
technique
208
salmon
extracted
hybrids
phases
224
659
filters
little
rental
327
invoked
journey
ova
colouring
offence
sex
shipment
appropriately
amounted
ether
considerable
roll
256
432
bananas
dexia
supplying
boys
metallic
youth
administrations
consumed
exercising
cement
298
strict
ones
remarks
si
verifications
1972
reservation
websites
184
207
338
documentary
leasing
confer
remainder
weather
135
changing
negligible
usd
oxo
marginal
nn
smart
pp
acknowledges
interfaces
maj
209
fur
judges
battery
les
750
airline
assume
seal
timing
titanium
naphtha
chromium
tonnage
brine
correspondence
1977
baseline
bromide
eurojust
inspectors
recruitment
transferable
bought
write
equality
ingredient
urgent
adr
periodically
adequacy
195
contacts
outermost
unece
barrier
haqqani
infected
nearest
amazon
gbp
infectious
degrees
incident
rye
venue
violation
apple
arab
tsos
010
possibly
detention
jordan
ops
prevented
lock
1301
133
amongst
contingent
ends
acceleration
serving
weights
gap
tea
whatever
connecting
inner
kyoto
usual
incidents
lifting
belong
irb
μg
251
tp
returns
642
sparkling
671
ester
philippines
seems
223
easy
meters
worker
copolymer
pro
repression
adult
tree
continues
cylinders
minerals
revocation
silver
undersigned
zootechnical
1493
drop
flakes
permanently
unbound
digits
identifiable
theoretical
cape
crustaceans
drinking
toilet
onto
320
coherence
genus
today
cane
pm
slaughterhouse
alarm
coloured
implications
goats
ways
173
ecolabel
4a
matching
iiia
vision
counted
seating
examining
lt
eg
interval
ppm
tractor
2021
resistant
boilers
137
trader
definitively
mon
attributable
inclusive
earnings
catchment
mind
switching
2201
attachment
peer
diluted
pursuit
salary
153
depend
jrc
american
rectangular
hedge
172
map
aiming
promptly
apart
typically
253
1958
strasbourg
groundwater
polymer
preferences
visas
brand
kwh
sky
qualitative
reflects
tomatoes
xx
pages
190
secondly
enjoy
halogenated
10000
eba
foreseeable
petrol
refining
systemic
177
adversely
ca
corn
partnerships
##000
foregoing
1333
symbols
destined
program
competences
evaluating
1272
175
ben
bands
cb
contributed
invalidity
tv
nutritional
auditing
judgments
detect
estonian
photographic
argues
aside
pays
freely
originally
contaminated
turkeys
1037
1978
something
compensate
drinks
honey
belongs
ball
intangible
corrigendum
repaid
vietnam
163
audited
broadcasters
bulgarian
particles
innrg
vald
pan
causing
characters
mixing
objections
transnational
seeking
terminate
anchorages
unknown
193
clauses
rendered
computerised
went
feasible
occurring
resin
myint
smoked
##us
abdul
deployed
restore
displacement
possibilities
camera
medicines
altmark
bankruptcy
coefficients
vaccinated
132
meals
1976
firstly
guarantor
look
municipalities
families
146
capabilities
reimbursed
aeronautical
trees
162
174
essentially
malt
patterns
179
britain
complexity
134
endeavour
edition
surgical
warehouse
depositary
leads
organs
reforms
aif
b1
1500
argentina
mohammed
timber
accumulated
resins
demonstrates
mali
rent
residential
fines
invest
allegedly
internationally
freedoms
preferably
prison
complaints
corruption
got
allocations
subpart
366
lots
portable
290
cosmetic
granules
substitutes
biodiversity
deductions
ecsc
grinding
ranges
subdivision
vitro
2371
false
processors
unemployment
licensed
ruminants
oncorhynchus
seconded
rigid
toys
922
herring
nos
adapting
authenticity
sovereign
elections
passive
##ly
255
isolated
baltic
hatching
para
registrar
blank
fluid
226
benefited
dihydro
teams
disproportionate
doubt
respects
kinds
middle
privatisation
seasonal
templates
biofuels
games
interpol
onwards
°f
cat
comparative
markings
reportable
dsm
inncn
db
proceed
diversification
molecular
rapidly
drilling
enters
headquarters
mw
tranche
ceased
threats
fi
144
asia
escb
otc
diplomatic
fill
asbestos
fermentation
loaded
dealt
goal
male
149
lateral
processor
aifm
insured
proven
simplification
somalia
expressly
flax
obstacles
compartments
directions
ia
latvian
lpg
revoked
ion
worldwide
und
plated
tsp
201
bluetongue
sec
m1
municipal
donor
incineration
unnecessary
macroeconomic
drc
brassica
fog
recourse
comparability
overview
precautionary
tiles
abuse
aggregates
carries
cis
envelope
kazakhstan
305
complement
filling
laden
oriented
databases
mortgage
smoke
mt
saw
successive
166
325
distinct
lakes
altered
expiration
percentages
425
additionally
filed
humidity
rd
trigger
feasibility
probability
pulse
putting
replied
remedial
t2s
statutes
chassis
contributes
fail
organise
798
metabolites
originate
204
ams
factual
latitude
cancelled
garments
lebanon
revealed
defines
gears
generic
restoration
sp
volatile
inspector
neighbouring
questionnaires
researchers
treatments
183
finishing
proteins
1898
balanced
invite
186
a1
displayed
fodder
porcine
sure
##ne
grading
apples
assignment
laundering
undergo
alignment
reagent
unpaid
factory
picture
recently
windows
alternatives
harvesting
impaired
int
propelled
reciprocal
resale
star
##10
coke
coupled
365
outlined
rotation
harm
hedging
permission
151
levied
mounting
projections
backed
angles
circle
acted
avoided
thereon
usable
competing
cote
ornamental
228
commonly
killed
pcbs
1974
260
characterised
recycled
whey
addressees
determines
leakage
verifier
1964
consortium
confirms
corrosion
players
produces
runway
emas
n1
speeds
transferring
positioning
181
carcasses
existed
win
history
sgei
tropical
bottles
erdf
identifies
weighting
myanmar
1973
1b
decimal
functionality
organizations
ra
decitex
forced
clad
hides
pertaining
principality
combed
equation
gatt
healthcare
malfunction
358
pigmeat
##ia
hectares
secret
substantive
workshops
zimbabwe
pob
sensors
mortality
polyester
yarns
leader
mpa
removing
ratios
aspect
exceptionally
seller
384
female
sorghum
foster
manganese
ordered
prudent
drugs
secrecy
avoiding
modalities
runs
strap
die
ft
inherent
layers
trucks
count
updates
accessibility
instalments
brucellosis
converter
shift
island
c1
rooms
strike
treasury
313
470
resolutions
sovereignty
enlargement
majeure
expires
phrase
computers
patent
empty
preclude
quickly
thematic
lithuanian
characterisation
really
accompany
beneficial
disabled
legality
survival
traction
attend
mfis
240
graphite
bed
diligence
##on
548
eat
mirrors
mutually
spa
planting
attributes
park
dead
handled
191
refinancing
1306
1966
enables
poverty
agglomerated
perspective
olives
solvents
missile
father
milling
prima
eyes
village
abroad
sizes
immovable
cellular
playing
undermine
appearing
notifier
deriving
stationary
flocks
mitigate
rape
jackets
marker
horses
pdf
##v
231
muscle
159
alter
inflation
presenting
t2
assign
inventories
launched
wider
distinguishing
ventilation
##z
anticipated
describes
loads
madagascar
catalyst
assumption
contractor
grades
##is
packaged
gni
subsidisation
synergies
anything
climatic
floating
discussed
issuers
residing
encouraging
expectations
iec
islamic
magnitude
submits
cleared
drug
fault
informing
unused
fast
successfully
blades
dividends
easa
isomers
saving
university
vaccines
1979
victims
vinegar
aforementioned
consistently
versions
coils
214
1182
mohamed
supplements
eagf
tehran
cattle
deliveries
tips
##x
1380
fermented
wherever
au
saudi
destroyed
governor
olaf
cork
grams
longitude
1968
differentiated
recognising
stake
duplicate
tape
discipline
dissolved
japanese
necessity
discontinued
grand
quotations
discussion
lining
maltese
octs
stemming
gulf
fao
leg
reconciliation
swaps
196
283
projected
309
5000
bio
implies
bean
begin
emitting
guard
interpreted
ministers
thought
238
challenge
goes
repurchase
sediment
##te
dd
damaged
decreasing
drum
isn
notional
distilled
wishes
##al
coordinates
isofix
syrups
tranship
wages
lasting
uptake
volatility
disciplinary
lens
neutral
regulators
simultaneous
failing
formally
salaries
wagon
ahmed
232
cultures
rotary
tac
dca
ng
packed
efficacy
landings
stipulates
waterways
boats
crimea
acrylic
inward
leaf
wafers
clarification
propyl
premixtures
1291
replacing
subsidiarity
meter
287
700
fly
incorporate
photometric
2h
emerging
fusion
intensive
##na
assuming
transmitting
tsis
frameworks
rich
irregularity
locking
milled
wear
199
hire
mol
things
363
rose
towing
tolerances
acquiring
alkyl
contrast
invoices
minced
ageing
bringing
goals
189
236
471
confirming
formats
domain
heritage
albumin
berlin
derogating
formulation
https
meteorological
professionals
supervisors
391
319
discussions
invested
plain
simulation
compete
windscreen
attestation
levies
modernisation
substrate
unwrought
aoc
formulae
lift
maung
purely
ahead
bearings
bin
ecu
tungsten
2b
egf
fed
stones
1924
ammonia
arrange
deciding
dr
intend
mono
descriptions
pic
slovenian
carboxylate
deposited
gibraltar
sport
188
drink
email
171
261
450
grouped
town
194
900
explicit
tv2
295
democracy
london
madrid
preserve
284
irisl
behind
commercially
deviations
investigate
preference
significance
ultimate
employers
nok
retro
waterway
225
lapse
prevailing
saturated
seriously
upgrading
wash
406
andorra
baggage
disc
inspected
1307
papers
pl
crystalline
drawback
peas
phone
accumulation
dioxin
narrow
poor
shorter
students
surrounding
221
allocate
electrically
presidency
239
frankfurt
hosting
mammals
routine
314
357
acquisitions
heated
iaea
alcohols
decline
respecting
hemp
insulated
acknowledged
ended
responses
compressed
palm
attacks
named
235
shock
ccps
maintains
prime
wax
203
340
filaments
habitat
assay
emitted
toxicological
311
environmentally
looking
spray
var
883
voice
wage
479
steady
281
aged
appliance
endorsement
fighting
quoted
sugars
globalisation
nafo
rotterdam
carefully
realised
shoes
wheeled
##an
tse
1766
considerably
desirable
indents
niger
sludge
atm
dominant
winter
##ta
anhydrous
carded
baby
deceleration
disposed
eaggf
subsistence
astm
bag
852
rocket
suggested
fossil
hardware
ie
prospects
wishing
cooperated
dye
parliaments
recalls
portfolios
stringent
switched
mechanically
parcels
recognized
unduly
wanted
1984
enclosed
312
heater
judgement
methoxy
patient
forth
furnaces
verde
welded
custody
gloves
spices
wavelength
yyyy
admissible
flame
hospital
imi
told
hellenic
shapes
##ra
gradually
reject
appropriateness
terminals
waxes
yard
extensive
logo
pose
render
titles
arabia
newcastle
parliamentary
presents
reg
348
boundaries
explanations
savivaldybe
biogeographical
contingency
cy
vitamin
2081
campaigns
disaster
luggage
seals
335
oie
ovens
habitats
occupied
unchanged
275
votes
154
bituminous
completeness
helicopters
kitchen
##w
fell
hc
pollutant
accrued
expanded
genuine
vector
fillets
himself
pile
352
airways
flavis
economies
mention
org
ramp
roller
stressed
1095
950
ci
fowls
roasted
neighbourhood
308
disasters
hong
215
conferences
ferrous
kidney
originator
ski
1971
sake
domesticus
metric
precisely
provinces
roof
viscosity
olympic
stream
urea
numerical
realistic
servicing
brief
ir
causal
reproductive
westlb
317
defects
delegate
lifetime
scales
bacillus
firearms
formerly
linen
repository
subscribed
treat
immunities
perpendicular
relationships
315
exhaustion
receipts
seem
dna
sleep
disability
ivoire
ceramics
comparing
indices
summer
1774
eliminated
1983
receivable
854
appearance
cessation
faced
interaction
cipac
salw
glycol
hereafter
logistics
owing
lng
minority
onions
supreme
trustee
217
appeared
payer
212
pest
topic
331
847
broadcast
chocolate
dogs
eucap
likewise
remedies
royal
768
avoidance
carcase
im
khz
wooden
50000
aerial
canadian
electro
hectare
ordinance
reactions
293
election
deems
flavoured
outlet
profession
snow
spirits
arc
lodge
luminous
regeneration
reinforce
therapeutic
violations
commencement
oxy
reactor
ue
233
failures
landed
243
cab
completing
consultancy
distinguish
gminy
presumed
1698
388
dog
revaluation
307
378
fructose
peel
1225
arrest
brown
feet
attribute
terephthalate
ukrainian
322
army
arriving
cooking
hit
344
welding
differs
nl
pitch
xxi
2847
enrichment
obligor
discs
1083
pests
engagement
excludes
invitations
knives
won
bt
flammable
straw
aggregation
cooperatives
logic
od
accumulators
citizen
lights
describing
forests
goat
liquefied
clock
ores
armenia
benzyl
cows
logbook
3000
539
seamless
unfit
musical
plot
sometimes
argue
spouse
282
analysing
bi
carbide
100000
1981
confers
lettuce
quantification
ratification
rs
vaccine
1257
acoustic
detergents
offshore
rabies
suits
436
777
accruing
disturbances
escape
mauritius
axes
polypropylene
bounded
chronic
whiting
301
absent
bees
securitisations
widely
concluding
tensile
organising
referenced
sexual
unlimited
273
exercises
undertakes
263
healthy
speak
uppers
esf
precautions
stresses
ozone
reared
starts
consensus
enzyme
generator
prosecutor
serum
269
colombia
iranian
inlet
psr
shortcomings
atmospheric
capture
damages
pears
sci
towed
agri
bleached
casting
chicory
ing
soft
suffering
bb
extreme
kong
minsk
transporting
524
dem
opposed
adjustable
extraordinary
trained
unprocessed
interventions
leadership
investigating
lime
publishing
401
po
receivables
reproducing
549
bids
layout
pipeline
205
images
sewage
shaft
threaten
coe
goodwill
mustard
orderly
ratites
dissuasive
ever
feathers
indoor
largely
mfi
phenol
sncm
cheeses
embedded
reiterated
revoke
unacceptable
424
coordinator
diet
aligned
paints
valorem
vin
attractive
brushes
infants
292
deutsche
dipped
dividend
furnace
341
952
friendly
ministerial
orange
caribbean
frequently
hens
mill
pa
bg
concepts
disodium
facilitation
feedingstuff
totally
1049
3846
distillate
parcel
pv
appeals
222
333
derive
soya
metadata
misleading
sponsor
confirmatory
deposition
differential
feature
retailers
transverse
chicks
projection
weaknesses
##j
1254
affiliated
ducks
lenses
lithium
overcompensation
publicity
197
386
enzymes
oct
turned
receiver
tangible
##ic
concentrate
hl
sahel
therefrom
facie
filing
flora
ink
surcharge
weekly
probe
244
cd
cleaned
preserving
turbines
fibrous
gum
liberalisation
portal
propane
ropes
doc
equivalents
goi
prolonged
casein
edges
excellence
plasma
ballistic
chile
delays
backing
breed
bureaux
experienced
ifp
nominated
physically
sernam
vb
centralised
iuu
orientation
approximate
british
ees
1501
denomination
discounted
eupol
infant
sorting
suggest
distillates
imputable
singapore
615
bones
efficiently
ipa
missiles
teu
bill
enabled
occupation
rock
variant
##50
lv
traces
uv
emphasis
movable
outcomes
consular
ha
roads
259
positioned
vine
198
commissions
seafarers
267
resolve
constitution
peru
ombudsman
advised
aka
smoking
declares
dyeing
kva
microbiological
shipments
wireless
dossiers
entrepreneurship
natura
shipbuilding
trawls
apparel
fluorinated
remit
wrong
7a
decentralised
locomotives
##le
regulating
shield
395
a2
wheelchair
262
cathode
doses
seminars
agrees
architecture
bodywork
complainants
crucial
modelling
spark
264
breaches
converters
exploration
jet
latin
accepting
graphic
296
boundary
discuss
operative
patients
molybdenum
qaida
revise
secondment
cabbage
disinfection
melting
chambers
dg
targeting
worth
ecodesign
extremely
202
budgets
clay
flavourings
attesting
compressors
refugees
xylanase
321
404
contractors
matrix
outdoor
sulphonated
trip
handle
sun
torso
venues
yemen
lesser
waive
bread
1785
cfu
fished
sand
virgin
lastly
sao
war
376
443
a4
atmosphere
compensated
naturally
reaches
distorts
grass
proving
assisting
love
selecting
vertically
priced
reservations
serological
xvii
1043
dioxins
fostering
interruption
strawberries
trace
254
declarant
duplication
gradual
institutes
sterile
summarised
unfair
carboxylic
cobalt
grouping
motorcycles
areva
campaign
exterior
pressures
selectivity
bicycle
borrower
peaches
quarters
synchronous
316
ceases
legible
sk
dk
joining
herds
juices
proximity
stopped
peaceful
bidding
pods
pour
stecf
warrant
310
emirates
readmission
regularity
subtype
429
couplings
discounts
paint
revisions
tuberculosis
upstream
boiler
cylindrical
distinguished
insoluble
lump
countervailable
immigration
meant
dietary
discharged
mere
nitrated
repay
stem
velocity
vesicular
systematically
550
azerbaijan
enforce
securing
societies
765
compare
disruption
preferred
debit
nitrosated
709
accelerated
basin
encountered
glasses
hu
kilometres
roles
safeguarding
676
deficiency
photovoltaic
posed
securitised
coatings
pharmacologically
piglets
rough
stakeholder
additions
believes
hydrocarbon
license
numerous
proved
715
artificially
daughter
fan
married
negotiation
ranging
329
cherries
discharging
ecosystems
invertebrates
345
contaminants
drums
favouring
becoming
lisbon
mapping
spinning
850
rare
##os
229
245
bird
eif
monitors
shaped
crystal
designating
kandahar
kv
locally
substitute
tunnel
catalogue
delivering
recoverable
schedules
supervising
wadding
continental
eppo
oranges
1965
arises
facto
photographs
switches
662
counting
instalment
leased
medicine
reagents
delayed
pursuing
finances
attach
believed
bench
cs
mi
sticks
strains
adhesion
cm2
foam
irregular
match
oats
secretaries
shareholding
vitamins
cloth
rejection
success
ta
ceuta
founded
ssp
266
exchanging
talk
vivo
proficiency
schools
cats
compilation
durability
adopts
meaningful
mushrooms
twelve
1005
numeric
recorders
specialist
ties
try
accommodate
b2
uncooked
1969
hake
rajono
sliced
unladen
advise
big
consultant
fasteners
impactor
sunflower
willing
2500
equilibrium
glazing
luxopco
285
anchorage
attained
doctor
soap
##as
ccamlr
consolidating
grazing
monoxide
sealing
styrene
slaughterhouses
telecommunication
extensions
melilla
regimes
benzene
compiled
designs
dimensional
enclosure
guaranteeing
hedged
lubricating
slight
unlawfully
437
726
834
downward
ee
inhalation
lasers
dividing
greatest
ib
interoperable
parents
restraints
starches
tied
ultimately
lighters
muhammad
settle
enhancement
numbering
older
citizenship
inappropriate
epizootic
fitness
n2
ref
tramway
transmissible
accountability
tunisian
hollow
insulation
investing
methanol
molasses
progressive
controllers
earliest
feedback
kn
memory
peppers
persistent
seas
simplify
terry
afghan
cz
powdered
sectional
arranged
enforceable
compensating
diagnosis
garlic
ma
mmf
altitude
ascertain
weightings
wound
methane
opposite
formulated
intergovernmental
silent
worst
650
tomorrow
##ine
spreads
alteration
permitting
dishes
proprietor
refrain
symptoms
warranted
audio
collision
distributor
herd
kenya
lgd
tracing
227
multiplying
reasoning
valued
align
bark
brackets
lifts
pair
336
hops
imply
mirror
analyser
expect
favoured
glucanase
interchangeable
masses
obstacle
preceded
recognises
##20
2s
boston
outline
rings
serves
solids
acquirer
hydrogenated
injections
reuse
806
cng
furnished
gaps
harmonized
presidential
thein
twine
1093
killing
displays
everything
lawyer
legs
outflows
posted
sulphuric
welcomes
boneless
diagram
italia
korean
pantograph
passage
prescriptions
scrapie
1963
680
bivalve
contacted
immunity
252
304
3h
cet1
stores
authorises
brother
bsca
chains
cultivated
elected
grassland
grey
suspending
tracking
personality
roughly
thousand
wp
allowable
embryo
hfsf
thin
wants
warnings
289
294
fertiliser
3s
burning
intentionally
payee
possess
fluctuations
repeat
s2
1060
1069
deceased
headgear
associate
detector
390
arable
etcs
iupac
justifying
pads
productive
recommend
signatory
sri
threatens
tow
10a
213
impede
lie
miles
print
unjustified
bit
percent
propagating
recreational
hsy
ppas
requisite
tg
375
dark
dropped
eures
illumination
sustained
desired
execute
purchaser
2030
automotive
disabilities
forordning
mountain
optimal
pastes
spongiform
gathered
278
circ
launching
shipyard
liberia
propylene
1106
272
decommissioning
facilitated
inquiry
manually
324
330
abnormal
soybean
249
attain
auctions
fewer
fluids
exhaustive
mip
representations
shelled
spraying
bay
iter
robust
bottle
detecting
railways
flux
irrelevant
tun
vibration
decisive
electoral
flours
moulds
proprietary
1200
cities
derogate
employing
reinforcing
soles
synthesis
241
accepts
authentication
coding
neck
scr
##01
219
mortem
sentenced
commence
foodstuff
hear
naphthalene
screws
ar
deletion
disinfected
imaging
imbalances
insulating
overhead
tanning
za
arrive
fuelled
strengthened
surrender
291
attachments
ferro
pf
slate
bandwidth
butadiene
dynamometer
rag
ventures
1961
confiscation
isopropyl
pelagic
presses
thirds
turbine
banknote
bonus
chart
observe
utilised
pyrotechnic
reactive
repositories
306
buses
substituted
##90
##ate
galileo
pcr
reciprocally
spreading
translated
402
croatian
suspicion
tourist
weighed
workshop
360
bath
confectionery
cord
cracked
nutrient
pipelines
proposes
##um
ab
defendant
integrating
##re
donors
homogeneous
hydrochloric
rata
competitor
music
passes
refractory
subdivisions
commit
exhibition
hague
millimetres
repeals
909
ge
turtle
2r
broader
crushed
exactly
fluoride
obligatory
quantified
cbs
chromatography
coin
dkk
gel
inclination
severity
subscription
tr
wires
3b
closer
presumption
sas
progressively
407
absorbing
chairs
etias
graduated
inflows
mills
purse
workforce
botswana
ru
viral
2771
calibrated
refrigeration
societal
focused
instances
prohibiting
unavailable
watches
274
303
hub
liqueur
reviewing
suggests
utility
chlorine
il
adsorption
asi
cow
crm
gnss
joints
worn
1006
entails
rulings
subcontractors
tubers
271
362
licensee
plenary
provincial
whatsoever
342
poste
prosecution
redemption
advisor
c2
frequent
lactose
promotional
springs
terminating
banka
caps
colonel
livers
logistical
minors
tacs
373
467
melons
moulding
257
increasingly
lies
played
probably
1244
beer
geneva
paste
reimburse
shore
277
detectors
fauna
htm
meo
causation
focusing
gdynia
marino
walls
audible
networking
shipped
uncoated
276
carcass
clocks
complementarity
participated
receivers
t5
thence
##one
convert
films
indigenous
jeopardise
pools
rapex
965
ets
inc
strongly
1st
absorbed
connectors
intensities
specificity
zirconium
maximise
reduces
relied
allocating
reveal
##ka
drafting
lactic
refinery
346
60°
disadvantaged
helicopter
misuse
placement
prolongation
288
accountable
gate
sardinia
withstand
berries
enforced
prescribe
trichoderma
cigarettes
1484
diamond
geese
reciprocating
sieve
slabs
c4
fluorescent
helping
sawn
tir
toll
algae
aperture
credited
lobster
negotiate
496
ef
flock
imf
interfere
mortgages
279
adds
cfp
coupon
eit
explains
focal
repairs
arsenic
filtration
friction
sace
382
alkaline
implements
migrants
planted
retroactive
eeg
gc
monday
reproduced
herbal
socio
hospitals
mobilised
solubility
topics
trawl
obvious
peroxides
donetsk
1305
declined
definitely
lanka
mine
overnight
pallet
seychelles
af
compromise
deliberations
extruded
remission
dyes
oven
rim
rtp
tetrahydro
waived
averages
chaired
financially
illuminating
pi
disclosures
inadequate
influenced
regulator
supervise
442
addressee
aero
disregarded
recall
underlined
unmanned
##no
794
declaring
aa
copyright
negatively
sadc
aye
basel
bred
modulation
quotation
yesterday
boron
citric
convened
determinations
electrodes
peroxide
conciliation
ethers
hplc
364
barium
began
forged
preparedness
safely
##ol
canary
extinguishing
irritation
plywood
unfccc
administrators
azo
incidental
inulin
spinach
332
accurately
diodes
filtering
judiciary
mostly
pins
smbv
withdrawals
10th
den
hotel
unbleached
265
616
accorded
artikel
cogeneration
pine
soils
calling
geometric
instantaneous
mines
reflector
slag
yeast
attract
din
freeze
highlighted
hydro
lives
logs
8a
feel
females
shells
buyers
c6
ek
hoses
travellers
5°
conforms
gmos
headed
hsh
hypothetical
mobilisation
refugee
tri
uf6
csa
swaziland
twenty
c3
refrigerating
solas
415
boring
thorough
demarcated
euci
madeira
sprouts
berec
streams
transformers
tubing
1342
balls
cci
herbs
indonesian
maps
minimal
passports
pharmacovigilance
prevalence
679
stipulate
underground
warehousing
bears
dbm
happened
shops
unemployed
isced
newspapers
occurrences
rectified
shut
stranded
381
arrived
eutm
imbalance
participations
peat
sciences
capped
foundations
houses
penetration
viruses
##da
355
lean
tuber
wave
burdens
confined
copying
gsp
ies
rod
sur
tranches
385
abolition
annulled
regulate
660
awarding
carpets
codified
manipulation
overcapacity
benzoate
cancel
manifest
proposing
toxins
1606
collateralised
gaap
gmo
polyesters
rationale
861
breathing
casing
correcting
guards
iris
kyaw
procuring
1r
bulb
ecosystem
feral
flower
suspect
cinematographic
storing
stricter
246
containment
plums
avenue
claimant
negligence
roadmap
seeks
716
purification
revolutionary
turning
deprived
sphere
triggered
##11
##ar
440
amortisation
ethoxy
hop
metre
returning
sensing
tris
353
internally
probable
stroke
t1
acyclic
contagious
kilogram
##0000
1957
appraisal
das
diethyl
dosing
weak
2092
2nd
merged
vital
512
chp
religious
##la
533
artichokes
autonomy
collectively
csds
defective
diamonds
owed
smallest
trousers
493
aerosol
pairs
1011
1154
1370
chips
friends
jan
rwanda
abolished
beings
bricks
dispose
552
cambodia
indelible
invalid
lifelong
offs
oxidation
ruled
silica
##th
babies
coarse
expand
flasks
frontal
rendering
ribs
1960
4b
incumbent
preservatives
##ni
flue
linking
lorries
pepper
taxed
verifiable
242
409
begins
clarifications
react
rhine
1954
evacuation
##berg
767
annum
dressing
ertms
futures
hose
lose
occasions
registries
relocate
respiratory
1913
consisted
detrimental
einecs
omitted
realisation
2377
aifs
assurances
libyan
mullah
ranking
span
ticket
varnishes
2022
dressed
haddock
happy
luxscs
prevents
reactors
rotor
societe
dilute
fishermen
fl
formaldehyde
husked
unsc
379
advantageous
bacteria
bissau
buckle
delta
groats
planes
shop
repayable
standby
toy
509
fdlr
haji
lactobacillus
questioned
reorganisation
replaces
tackle
waiting
electron
eventually
hydroxyethyl
retractor
slide
spacecraft
announcement
contest
experiment
glycerol
numbered
sintered
transferee
weigh
distances
expressions
shwe
accidental
commencing
cotonou
fft
moderate
morning
student
suspensions
020
flags
iva
ou
sharp
identifiers
lemons
pressing
rearward
μl
##de
complemented
makers
pens
propagation
referral
reputation
tension
wing
##ch
2111
intraday
jute
satisfactorily
323
chicken
fingerprints
geometry
peninsula
remunerated
3a001
integrate
news
phrases
privately
promoted
suppression
torture
574
609
comprised
exclusions
jewellery
refusing
shelf
a3
congestion
debate
dummy
keys
numerically
shoulder
spacing
turkish
1882
428
earmarked
omar
##30
##ide
attractiveness
elisa
nearly
scotland
settings
outputs
seine
therapy
underwriting
xxiv
1520
constantly
dell
methacrylate
performs
restoring
stamps
transportable
392
outlets
rio
enjoyed
fans
induction
mediation
metabolism
pillar
soe
surname
traps
vicinity
##ti
796
bemp
diol
illuminated
khin
locks
recast
trips
334
canal
benzo
binder
classifications
conferring
deteriorated
heart
straps
thunnus
umbrellas
661
c8
died
durable
elapsed
everyone
inert
resolved
seq
alterations
idle
iodide
universities
237
413
849
amro
av
booked
breaking
c5
forage
glassware
illustrated
measurable
relocation
undergoing
unsaturated
668
antibiotics
associates
c7
cypriot
grow
pertinent
thrust
weaned
amine
mandated
modern
nv
populated
renew
vulcanised
1311
horn
instructs
objectively
repayments
361
ascertained
brigadier
denied
kilometre
manufactures
wait
##se
claiming
computing
happen
tt
596
attack
bleaching
blend
celery
692
dichloro
dissolve
ibrahim
knows
leases
meip
notion
reconstruction
shale
20000
2343
abn
approves
lei
loop
op
ordering
pd
1273
bv
injected
precursors
trout
volunteers
warehouses
452
cracking
inconsistent
john
methodological
monofilament
proves
286
426
concerted
platinum
370
cermets
csdp
prospective
screw
commenced
expensive
experiences
homogenised
nautical
rec
ic
stimulate
fixtures
fluoro
stateless
steaming
angular
engaging
essences
fcl
html
outsourced
threaded
601
accused
arrested
capitalisation
clothes
gov
imitation
lamb
toluene
tons
treating
##et
514
administering
deliberate
moulded
nutrients
reality
recommends
unsuitable
2799
accede
airborne
purified
11th
1600
639
club
crimes
defect
ethical
fmc
pasta
quite
rearing
responding
variants
542
connector
esi
locked
quasi
redress
successor
tanned
tomato
unforeseen
football
generalised
injured
saa
994
biscuits
join
lowering
pain
presidents
washed
differentiation
idea
mate
specificities
tracks
339
480
517
capacitors
discretionary
ecai
evident
hydrolysis
illegally
literature
pact
indispensable
psf
restricting
sar
1334
508
annulment
carbonyl
cc
collectors
flash
owns
transboundary
button
compelling
explaining
pabedan
stopping
unfavourable
unrestricted
accelerate
acknowledgement
array
dam
ethics
hunting
invert
leaders
polishing
retroactively
warm
yields
1024
aoe
parental
pigments
reglamento
cabinets
centrifugal
cool
dominican
dyed
lined
nm3
plaster
quick
asian
assumes
incur
mauritania
overcome
vienna
##to
analogy
antigen
az
faith
handed
hardness
liner
renewing
teaching
varying
dan
ecall
lu
trap
undercut
515
deduct
fungi
hooks
linguistic
resettlement
wrapping
combine
hormones
hvdc
investee
ketone
chlorophenyl
counterpart
combining
exploit
mental
nlb
stamped
на
acknowledge
cleaners
copernicus
hf
liberation
performances
valuable
416
anhydride
boat
catering
peeled
powiat
signatures
thick
collector
dione
euros
gadus
jurisdictions
pin
prompt
spending
tickets
traditionally
tried
##ie
6a
821
alkali
cushion
drawbar
ethane
gasoline
mergers
ncas
occupants
pg
terminology
voyage
ahmad
couldn
embargo
monaco
1000000
breeds
corrosive
counterfeiting
diagonal
easier
threatened
upgrade
apricots
att
chargeable
ene
intersection
qualities
regression
damascus
dosage
palestinian
pink
refrigerated
sick
wares
wiring
525
ecuador
electronics
hijra
instrumentation
nylon
trolley
wasn
connectivity
dismissed
dublin
lessee
2023
anymore
credible
distribute
employ
folded
hat
plots
suitably
undesirable
326
anyone
gelatine
infrared
manages
mitigating
replaceable
takfir
absorb
accountancy
diffusion
disagreement
float
intrinsic
paraffin
bills
cleansing
deem
eighth
revolving
upgraded
vhs
486
coil
coniferous
gathering
grace
timeframe
474
blending
cecaf
feedstock
governors
lit
opcw
tablets
athena
cen
disputed
diversion
garden
gaza
helps
om
rescuing
rm
793
ago
comoros
outward
predicted
reliance
von
060
abd
cartridges
d2
deferral
equitable
photo
polyamide
tankers
372
hearings
ppp
rope
academic
lawfully
9a
confusion
cranes
exits
informs
725
abs
assured
c0010
handles
medicaments
negotiating
plaice
releases
sacks
tableware
1268
1701
fiji
germ
impartiality
inedible
rails
seines
tertiary
assistant
disadvantage
insurer
polyamides
taste
zanu
zoonoses
custom
navigational
someone
underwater
ups
##rs
399
boned
isk
mobilise
occasional
propan
violent
walking
attempt
biodegradable
c12
deteriorate
domestically
intelligent
pathogens
rebates
restored
arithmetic
dans
ess
gradient
investigative
overheads
351
611
christmas
offsetting
socioeconomic
453
algorithm
convertible
cured
faroe
flavour
hands
harmonise
##or
arbitrators
benzoic
bonded
calorific
gut
library
1451
azores
communicating
ease
mollusc
nitrates
propionate
racing
unworked
york
ans
banana
mammalian
mountings
por
proportions
recoveries
royalty
vines
arrays
linings
metering
monopoly
nca
needles
nut
rational
attainment
corridor
informal
interview
minima
succession
trimmed
2535
at1
dealers
demands
gambling
pedal
renovation
resort
sps
staying
1150
blends
hydroxides
sc
withdrew
##ca
1251
2131
antenna
era
gazette
litter
stabilised
393
domiciled
fraudulent
organ
withdrawing
1235
asking
assembling
circulated
conditioned
deals
emff
mandarins
metallised
microphone
oenological
769
actuarial
batches
declining
distress
envelopes
redfish
##ium
ballast
fighters
gfcm
modifying
rabbit
voor
abdullah
nozzles
recovering
1300
analysers
departing
incidence
knew
sharks
suffer
##va
antibody
assimilated
o2
ply
propellant
skill
teacher
cucumbers
distorted
filamentary
hamburg
nectarines
replicate
tufted
equals
ingots
interchange
pasture
unexpected
binders
creates
curves
rabbits
stamping
substrates
356
btwc
shark
thousands
webs
withheld
afforded
divestment
effluent
ghana
indemnity
rpm
##ers
371
bidders
broadly
creative
intent
n3
rehabilitation
slope
462
biodegradability
enriched
gabon
honour
inertia
leipzig
masters
resistors
rotating
thoroughly
unlike
victim
ae
allegations
chicago
cup
encephalopathies
hassan
marc
1s
998
brix
equities
og
overalls
readable
remark
removals
binary
coaches
hourly
abatement
else
induced
juridical
melamine
resilience
seemed
sic
virtual
891
alitalia
cordage
d1
enquiry
guns
leguminous
optimisation
rain
aided
aifms
bamboo
blocking
circumvent
eel
ihn
imperative
obsolete
shortage
threatening
tight
tunnels
witnesses
##ce
1947
595
accessing
besides
brokering
faces
iiib
panama
repeatability
tartaric
viewing
##yl
downwards
fallen
growers
overlap
thirty
##ja
choices
classify
dollar
gdansk
looks
ninth
pallets
phenols
undertook
25000
balkans
copolymers
disseminate
gm
hpai
membrane
sentences
starbucks
1408
carbides
splitting
thanks
tiers
weapon
catching
cw
glues
isotopes
organoleptic
bidder
conservative
disarmament
environments
interpreting
substantiate
1702
367
capita
dermal
dsb
isin
laundry
materially
ore
transformed
viiia
1073
1223
folding
ga
sounding
tale
uzbekistan
commissioner
learn
qualifies
redundant
transposing
5b
bavaria
holy
manuals
portions
spun
ssr
vendor
viewed
##40
##co
585
england
iodine
sanction
somali
stcw
surfactant
tall
undermining
upwards
versa
001
bast
closures
maltodextrine
migratory
reliably
reside
vms
##ion
374
enzootic
gsm
harness
intervene
pocket
projectors
unreasonable
1962
breakdowns
endanger
guided
imminent
lignite
rectification
reinforcement
368
714
addendum
authorize
burma
buttons
kgb
metallurgy
nfe
optimise
reglement
seafo
shortfall
trades
varied
zaw
2160
608
675
antibodies
bridges
cfd
hope
packagings
que
val
xviii
cultured
enyl
insignificant
matched
originated
polished
roasting
agar
bioethanol
discovered
faeroe
recurrent
427
842
carboxamide
centrifuge
iib
kernels
omission
practically
ruminant
11a
822
detriment
endocrine
rank
subarea
tanker
##q
931
cavity
golf
milan
namibia
phased
phosphates
renting
saccharomyces
sight
971
acceded
discrete
drainage
ethnic
unconditional
unsecured
visited
635
breeches
emphasised
nonwovens
principe
seagoing
antimicrobial
enclosures
hedges
parsley
pearls
seriousness
sister
thai
##ts
articulated
expressing
irgc
looked
mozambique
neafc
pictures
purchasers
sierra
uncertainties
##at
1422
423
482
bayernlb
bore
discarded
metabolite
tachograph
widespread
797
865
884
adhesives
fairly
impair
lawful
proxy
remember
center
combustible
communicable
connect
eo
eurocontrol
preservative
rms
willingness
1159
assad
challenged
conductors
enquiries
harmonization
opt
resume
varies
669
aerodromes
clubs
coli
evasion
geological
mandates
methoxyphenyl
removable
unginned
889
amsterdam
gamma
intermediation
sausages
sudden
unregulated
behavioural
dollars
inadmissible
reportedly
retired
soda
ultraviolet
##io
61°
cxl
disbursed
expects
ineligible
lid
molar
rhineland
rome
wt
amplifiers
carrots
drafted
herbicides
outlook
retrospectively
638
adults
balkan
erasmus
merging
mn
programs
subscriptions
surfactants
trifluoromethyl
forwarding
landscape
punishment
slow
359
affixing
costa
crl
duck
endangered
fob
hole
kraft
lake
quantify
retaining
sludges
##ma
archives
aspergillus
friend
inaccurate
merits
nationale
plaiting
positively
sachsen
sessions
takeover
##nt
1191
arbitrary
atcc
insects
keeper
originates
situ
tif
810
biogas
bp
bulkhead
consultative
getting
hull
piracy
rca
shirts
sporting
sulphide
ware
412
blazers
guiding
matches
nitro
phenomena
scomber
summaries
witness
amortised
cancer
cccme
correctness
microbial
receptacles
variability
auto
bic
cores
duferco
experiments
firing
granular
horseradish
insurers
interpretations
irrigation
liners
mattresses
prefabricated
swimwear
alongside
exploiting
ffhg
halibut
sells
strands
2025
405
boy
ideas
lane
photograph
suited
##12
advisers
ama
calves
disseminated
earned
emergence
entrustment
fluorine
frf
gsc
pcdd
reconstituted
3rd
500000
abbreviations
attitude
cef
commented
contests
corrugated
cumulated
extends
ling
manikin
valencia
200000
3r
867
alternates
careful
emphasises
iberian
instant
maternity
oo
tower
trlis
612
acetyl
asks
brazilian
della
lrcalc
petfood
recruited
ssm
trusted
vegetation
##able
7b
auxiliaries
crown
discharges
duchy
kits
reflectors
rue
##el
##ng
communes
dl
extinguishers
fennel
housings
multiplication
ni
przez
quartz
rays
signatories
tome
vfr
##ment
422
anonymous
belize
busy
consolidate
gluten
hinder
insertion
nonetheless
soldering
15000
5r
captured
esrb
fares
haemorrhagic
hcl
imposes
physiological
pleasure
pooled
retailer
themes
viscose
appreciation
b3
biggest
commensurate
estimating
evidenced
expenditures
planed
simulated
stops
utilities
2571
codex
condensation
deliberately
entertainment
filtered
fragments
ifrss
lambs
m23
meta
pilots
tennis
cruise
furskins
lifted
ris
severely
unsatisfactory
ifb
mica
oilseeds
perforated
sows
##21
1013
ate
charleroi
fencing
gene
gr
loose
occupant
palatinate
repeatedly
transponder
uniformly
beams
bolts
dielectric
discrepancies
elapse
irr
itu
militia
outsourcing
ppe
rising
uganda
unanimously
zea
alphanumeric
ats
bacterial
beverage
cages
thing
transmissions
wrongly
##sa
581
785
acidity
aerated
bih
crossings
esc
psa
regrets
servers
unaltered
##ki
##ur
4h
auctioned
capsicum
inhibition
lender
lessons
licensor
player
accessed
accord
appreciable
carcinogenic
journeys
ngos
packs
stems
##ri
arbitrator
blended
combus
comfort
corps
discard
fertilizers
finish
microwave
plays
slip
stuffed
##60
##ga
32014
389
alumina
antarctic
contractually
corsica
etsi
freshwater
hierarchy
negotiable
yugoslavia
040
411
agl
allyl
boarding
chance
decreases
ensembles
intending
sncb
taiwanese
validate
403
blade
blankets
cerevisiae
feeder
holes
holidays
investbx
oem
osce
paraffinic
porcelain
shoe
standstill
subcommittee
##ness
biosecurity
broccoli
digestion
ferry
sr
sulfate
turbo
936
compile
jail
justifies
lawyers
polyurethane
santa
sms
tenacity
autumn
cvs
differing
displaying
efsi
incoming
knee
skagerrak
tip
v1
absorbent
aliphatic
brace
cooled
distributing
iotc
jointed
lengthwise
needle
prevail
shorts
spv
turns
unavoidable
1100
300000
acceptability
disadvantages
injuries
mwh
ns
poppy
resides
rvr
rwa
toxin
30000
authenticated
castings
converting
embarkation
equatorial
fatigue
fired
pas
tour
washers
designates
golden
rat
recorder
retreaded
tapes
artemis
cabinet
isotope
polychlorinated
1071
1950
activists
administer
bib
depbs
figs
hydroxyphenyl
pcb
shareholdings
shipowners
tap
trademark
transhipped
tread
utmost
ward
369
dimethylamino
ecdis
lengths
silage
ti
##ro
377
4s
807
allegation
deductible
deformation
eiopa
interactions
krill
manifestly
mays
minimising
sips
corner
sinks
sourced
acrylate
euam
fixture
holiday
optimum
residency
rugs
sellers
tunas
unaccompanied
451
affix
anaerobic
app
bending
denatured
eniac
hotels
infusions
interrupted
pellet
sanded
speaking
vatican
warrants
565
acetone
career
highway
reproducibility
roses
server
bitumen
candles
cigarette
elect
hahn
inf
inhabitants
instruct
lcd
leak
raspberries
vats
worms
1198
buffalo
giant
ifric
intervening
lfc
rayon
skates
taxpayer
582
589
balloons
##ii
ambassadors
consequent
distorting
eating
eliminating
exerted
glazed
interconnected
mainland
predetermined
proofs
shafts
##st
674
cakes
ep
mrad
rectangle
settling
spc
thirdly
tincture
tribe
undermined
windscreens
1946
cans
cites
debtors
deflection
dryers
facilitates
install
instructed
isle
ungulates
030
844
alfa
councils
defatted
incorporates
ne
obviously
repo
taxpayers
touch
aubergines
bahrain
cook
elaboration
handbook
rotational
subordinate
travelled
410
athens
fixation
groundnuts
misconduct
pta
380
511
bangladesh
leone
oblast
seizure
subareas
tag
yolks
433
domains
downturn
encourages
indexed
inertial
irrevocable
neutrality
pack
parks
peripheral
receptacle
sensory
unions
unusual
##amine
aujeszky
charcoal
diagrams
hectolitres
invoiced
macao
marriage
microeconomic
noting
walk
zhejiang
1258
439
droge
nice
nitric
pastry
phasing
regolamento
sitting
stronger
subcontracting
tubular
723
748
934
calcined
germinal
illness
peanuts
printers
radiological
swift
1126
answers
cabotage
choosing
devoted
expectation
ja
ke
managerial
regulamento
stocking
trays
verordnung
versus
virtually
689
c10
caseinates
ch
deducting
eradicate
eulex
ferries
oblige
separating
volumetric
478
a7
activist
afford
angola
coolant
foresees
govern
helped
imprest
origins
ps
1955
472
6000
esas
hlaing
implied
partition
pooling
757
bladders
closest
colostrum
corporates
fowl
glyphosate
ifr
nervous
premixture
registrations
theme
1036
504
beautiful
catalogues
categorised
fluorophenyl
fused
shipyards
tracers
560
arr
cryptographic
landfill
subsectors
untreated
vineyards
μs
aas
activate
aegean
architectural
cwc
displaced
h5n1
lethal
reservoirs
superstructure
tick
unity
##ko
2037
877
bromo
categorisation
citrate
colourless
fabricated
kt
npv
pulses
reunion
shrimps
1210
denominator
fertility
fractionation
fragmentation
friday
knitting
multinational
statistically
troops
withdraws
32015
boots
crs
immunological
kivu
linii
rivers
sad
ultra
workplace
577
abuses
awards
cage
demonstrators
deviate
emergencies
expresses
millet
neuwoges
pen
pierre
regenerative
smuggling
vu
##ge
##il
ai
cloud
detergent
developmental
entrants
intestines
mathematical
mmfs
priip
proportionally
stoppers
swordfish
telephony
trainers
trying
unloaded
alike
colloidal
degraded
dma
endorsements
entrust
furnish
ig
indefinite
likes
scientifically
sprat
supposed
tajikistan
te
trichinella
trimmings
verifiers
##of
adviser
desk
floors
hiring
hydroxymethyl
score
tenth
387
biofuel
coach
detained
drift
insecticides
lying
prohibits
reflection
rollers
stood
suction
vests
2342
bandoola
configurations
discards
isolates
kiln
metabolic
mittens
oman
perceived
swimming
tackling
505
bee
civilians
dichloride
differently
districts
dwelling
helmand
notifies
rockets
1001
2580
adi
beforehand
benchmarking
commits
crystals
defaulted
directing
disbursement
eb
hazelnuts
pct
plug
reclassification
township
voluntarily
biometric
coordinators
draws
ear
heavily
limestone
lisa
nomination
pharmacopoeia
pigment
rafah
808
briefs
curvature
decorative
dish
entrance
halides
integer
introduces
nras
plutonium
satellites
1331
473
8528
assesses
benin
comparisons
embossed
enforceability
fashion
gather
jeopardised
merit
minimised
nord
reflective
reveals
shanghai
suez
upward
1271
1956
1c010
458
admissibility
asparagus
ceta
domicile
faster
fate
mayor
readings
vectors
##amide
005
1316
4r
alpine
arbitral
entailed
entso
etva
hydrolysed
infringed
interbranch
liberty
loi
monohydrate
oak
pe
qadhafi
reads
seamen
subtilis
suggesting
1760
461
biosafety
broadcaster
collections
dispersion
edp
geo
horsehair
invasive
merchant
obtains
pick
predefined
regionalisation
relying
safa
seniority
slurry
##19
##80
1059
3072
974
advocate
alien
butoxycarbonyl
coded
competencies
esdc
infections
loins
reversed
sliding
venezuela
weaving
459
depository
h5
haven
kill
overs
provenance
spite
superior
televisions
trioxide
warp
xix
465
4th
aerosols
attaching
carbendazim
collagen
pulsed
pyridine
ron
sd
void
1250
abolish
antimony
arthropods
cabbages
certainly
clupea
dhl
globe
hearts
kics
modal
orally
spouses
tech
udi
ultrasonic
va
embroidery
explosion
guatemala
hsc
ilo
maturing
postpone
pressed
rr
1008
32011
558
ccs
contributors
differentiate
lex
maha
meantime
mistake
prominent
promised
super
##ya
050
1949
851
aren
bias
damaging
groupings
nationally
patents
repetition
suckler
tails
teeth
tired
watertight
acceding
attendance
catastrophe
chronological
coconut
cyclic
garnetted
ij
males
monomer
presentations
tether
uncertain
valley
vested
10b
abandoned
bnfl
centred
conductivity
dealer
dec
fardc
inspect
marpol
outflow
practitioners
professions
ratified
rcf
rp
tses
utc
zonal
1791
acrylonitrile
aromatised
caraway
lever
neutralisation
plaited
till
truth
twill
##00000
abx
apiculture
bioliquids
demersal
ers
exhibitions
particulates
porous
sandeel
seniunijos
stomatitis
2024
556
achievements
biphenyl
colony
fin
functionalities
gauges
piping
race
##ene
1725
consuming
conversely
corridors
ghg
haircut
oilseed
overriding
theft
tieliikelaitos
totalling
wearing
3500
assure
cake
chlorides
counters
counties
cp
dispersed
leukosis
survivors
##91
606
advisable
bonding
cameroon
cartel
casinos
cu
dismantling
enshrined
impartial
milking
pendulum
phytase
routing
wells
2446
633
capitals
dubai
induce
mayotte
nil
odour
usama
488
cashew
certifies
chamois
compiling
discrepancy
ed
furnishing
harbour
itl
plugs
shoulders
thura
unspecified
wyznaczonej
zoonotic
32010
biodegradation
carnet
designing
posting
postponed
responded
##tion
460
730
commissioned
danube
defer
discovery
pau
phosphoric
rhumb
triazine
1051
45°
729
amber
bas
cluster
icing
incubation
lessor
mitts
procured
reess
sativa
sit
##id
1002
1953
420
coats
correspondent
deficits
directional
eff
fairs
granicy
loire
mesta
nozzle
pathogenicity
propellers
respondents
rodents
says
sensitisation
tantalum
wired
408
713
breakfast
compressor
cosmetics
eee
est
losing
motorised
pvc
pyongyang
registering
respondent
separators
surrendered
textured
towelling
910
bulkheads
compact
fleets
forecasted
pineapples
precedence
seated
squares
booking
bulbs
cactus
euribor
flowing
gram
pregnant
pzl
tokyo
vas
watts
14a
butane
clarifying
exhibit
guides
horizontally
periodicals
pledged
stomachs
trimethyl
vineyard
##bach
collaborative
cucurbits
distributions
eltif
flowering
generates
gone
methylene
nato
raja
s1
transistors
tuning
zur
##za
485
580
brands
catalysts
committing
derives
drops
dwellings
er
imputability
paediatric
pnr
sevastopol
trainees
1951
625
779
cycling
evolving
gmes
materiel
posing
ramie
resolving
retains
sesar
triazol
ts
viiib
1169
4000
438
809
9a004
ata
classifiable
complaining
crises
cyano
doubted
oef
pcn
phenylenediamine
sulphite
til
##99
40000
792
afterwards
demographic
intentional
logical
prioritisation
quarrying
rendelet
seized
sweetcorn
verordening
1881
2185
610
753
chemistry
extrapolation
learned
lent
outreach
sweeteners
tanzania
trackside
2283
607
9h
attempted
c0020
correos
costly
intangibles
ivory
kuwait
microscopes
monte
observance
opacity
openings
refineries
shrimp
silico
17029095
airbag
anywhere
encompass
factories
maleic
monies
popular
psychological
refunded
refuses
settlements
specialists
spelt
machining
sharply
stolen
##ba
arts
attribution
bpn
eurodac
exploratory
feathered
htay
oslo
ote
scanning
answered
centrally
dolomite
elaborated
functionally
hv
immersion
mangoes
nation
practitioner
resignation
retreading
sek
##dorf
##ry
##ung
1540
555
agha
breaks
dogfish
esterified
extradition
inducement
unforeseeable
492
531
6a005
756
aliases
atfm
blast
cl
computed
drill
haul
reassessment
relies
за
##ina
1094
arose
ba
beryllium
blanks
changeover
clementines
comp
dataset
fuses
heifers
specialisation
1800
619
almonds
brain
cers
cloths
con
gimped
linseed
rationality
scouring
stockholm
viid
viiic
0207
1602
1935
aggressive
copps
disposable
elan
fs
segmentation
shortly
subdivided
th
yeasts
1010
2135
32012
435
hoists
interconnections
liberian
mains
oxirane
polymerisation
prospect
underlines
unreliable
##°
21a
emoluments
feeds
forwards
fragile
gb
hynix
invoicing
ml8
nec
pef
physico
psychotropic
readiness
roadworthiness
whtc
622
696
achievable
aerodynamic
banned
carriages
entrepreneurs
llc
poses
programmable
rectify
reversing
sleeves
stabilise
αριθ
balloon
checklist
conglomerate
construct
deter
distinctive
fertilisation
fiducia
hectolitre
historic
hloro
nose
prescription
reprocessing
servant
spend
##02
acidification
arion
hurtigruten
marseille
opposing
payload
quorum
so2
spirituous
supplemental
##ity
1905
536
978
appellate
blocked
borrowed
crushing
diploma
em
gi
inability
lugansk
push
simplifying
undenatured
withholding
3002
501
649
656
ais
burst
chenille
cherry
disparities
excellent
girl
gutted
lubeck
overrun
pole
procure
randomly
releasing
saxony
sleeping
spherical
subcommittees
vanadium
xxviii
##ation
##ve
3600
abrasive
aerobic
albeit
chlorinated
curtains
decreto
distortive
fora
horticulture
intact
judged
lipid
outboard
ovag
programmed
saithe
stunning
utilization
abnormally
adherence
bare
dtt
egnos
ey
licenses
pace
reservoir
texture
vast
wales
##do
##heim
770
alcoa
boost
disseminating
foundry
kabul
mosaic
nc
ncimb
nobody
painted
skirt
talking
watermelons
963
avail
decks
dplp
footnotes
isic
mould
politburo
puree
remedied
representativeness
shipowner
solanacearum
swe
unilateral
394
430
biocides
cepol
circulating
compensations
convene
conveyance
depression
fishmeal
grubbing
habitual
investigational
kbc
ought
paddy
pb
prosecutors
saleh
tapping
underpin
398
8b
claimants
compromised
concise
frontiers
horticultural
inoperative
kinshasa
leisure
methomyl
pistachios
propeller
qatar
raises
reintegration
strengths
worse
1062
686
abdallah
apa
auctioning
author
briefly
burners
complained
deuterium
emulsion
flooring
lived
nru
pharmaceuticals
pullovers
restaurants
##70
1098
brigade
classifying
copenhagen
donation
fagorbrandt
frr
gpa
kaolin
kj
mislead
pane
privileged
skipjack
strand
surge
towels
475
ccipb
compositions
concurrent
everybody
hams
loudspeakers
malleable
overlapping
reallocation
screens
siliceous
skirts
style
wealth
477
approx
bedding
bundle
divide
fid
herein
indexation
legacy
materiality
oat
plc
smell
staging
1927
795
belfius
casings
headform
malaysian
meslin
objected
precipitation
prunus
rebate
roes
xxii
afraid
algorithms
aliquot
averaged
ducts
explore
finger
generations
kattegat
lander
larvae
las
methionine
motivated
narcotic
nurseries
ran
rum
shabaab
spin
victualling
1221
blouses
casino
circumference
cumulatively
daytime
edps
forthcoming
inquiries
irritant
reversal
rica
rmg
sawing
sprfmo
yourself
1737
605
975
artistic
bdb
beds
bitter
cgd
citadele
dependence
examiner
fractional
globally
intermodal
invoke
ips
polystyrene
quaternary
radiators
rejects
replicates
secrets
##ke
##li
cellulosic
consultants
dimethoate
dvb
elementary
ethiopia
grapefruit
impracticable
kitchenware
milestones
pyjamas
stepping
subscriber
une
uniformity
##mide
1959
annuity
baghdad
bogyoke
bracket
diplomas
diverse
fibreboard
formulations
inactive
reconstructed
scientists
sne
sv
##ted
150000
383
551
59122
adf
adria
census
duct
excessively
flaked
metrology
perception
periodical
simplifications
syn
telex
wake
##me
1830
541
b5
conducive
denominations
gainful
incapacity
lightweight
reclassified
remotely
som
stimulating
1467
1490
1c
atalanta
baseload
deploy
hla
niobium
painting
ras
reciprocity
rented
rovings
stabilisers
unfounded
unfunded
xml
57°
613
atc
endless
innovations
node
objectivity
onboard
outset
phenoxy
reptiles
##man
469
597
boeing
buffers
c18
cds
depart
exploited
gowns
gun
halle
litigation
v2
##15
0401
attending
breast
competitions
diameters
easyjet
evaporation
fires
flashing
hexane
lubricants
manioc
sentinel
slaughtering
triazin
uninterrupted
2026
665
908
axens
celf
chooses
detonators
endorse
enlarged
expanding
nsa
overcoats
segregation
sjb
slips
swr
trinidad
vertebral
444
573
acs
dbb
depuration
df
hydrotreated
justifications
lactate
margarine
pots
reminder
salad
saremar
silencing
slowly
viie
vincent
weee
##13
##ns
1718
513
alphabetical
bits
borrowers
centreline
cubic
cyber
deactivated
disinfectants
goatmeat
huf
improves
ko
mussel
pantographs
psos
sequential
sustain
timeliness
trouble
worded
32016
czk
detailing
endurance
fuelling
lace
leniency
mexican
monocarboxylic
pyridin
solve
unreported
0404
604
ambitious
bolivia
carnations
depleted
eurl
grenadier
localities
mature
nimes
och
organo
psychoactive
safer
shortest
slides
squid
suspects
teachers
##ze
20°
417
774
9a104
arrears
corresponded
cypermethrin
evaporative
isobutyl
maulavi
minorities
phenomenon
rectangles
rtd
sands
shirt
authorizations
bran
cfds
contour
cotes
evenly
ifs
instituted
interviews
lumpy
mile
opens
oppose
paths
triggering
##ny
1929
2777
520
593
blinds
degrading
denotes
disk
dissolution
enjoying
footprint
hiv
implicit
lap
meranti
necrosis
roma
transporter
##je
15°
affiliates
alloyed
banque
basins
branched
cleaner
participates
reforming
reiterates
unfolded
1623
1952
corners
enjoys
epoxy
ferrets
fiche
nordic
overtime
rapeseed
rid
transpose
utilising
##31
570
913
alarms
analogues
attempts
carcinogenicity
circumstance
cosme
gypsum
haircuts
ironing
isa
jars
lighter
nga
nt
nucleic
omega
recalling
soundness
tend
togo
unambiguous
vaccinium
##ting
603
a8
b4
barcelona
brandenburg
carbonates
erus
ghs
gt
hygienic
iattc
mentions
mino
optimised
phenolic
searches
sheepmeat
simulator
wam
##22
620
630
670
anode
camp
drain
fungicides
hardened
kernel
leaching
memories
micrometres
misused
mj
mutation
parex
pedestrian
pillars
prolong
triplicate
undrawn
##ha
530
826
alive
arisen
coccidiostats
colourant
creditworthiness
eupm
impurity
investigator
jelly
jihad
journals
motorway
promotes
scheduling
starter
sweetened
tailored
titre
urges
voc
afs
cabled
deactivation
dihydroxy
ei
engineer
fesi
freshly
homes
junction
kyrgyzstan
merluccius
nigeria
pathways
propagated
realise
theory
twisted
464
59°
affordable
alkaloids
assays
avas
bonuses
clusters
dimethoxy
finalisation
halogen
lien
orthopaedic
potash
printer
sanco
securely
siemens
translations
umbrella
visitors
16a
421
732
appointments
centrifuges
conveyors
dgca
dt
entailing
subscribers
valle
##ea
24a
ast
australian
aux
bgb
bundles
cope
counterfactual
envisages
mou
pea
recurring
restocking
sensitised
skilled
subcategory
thorium
tj
trajectory
valuations
woman
1948
2447
544
brush
cariforum
fpap
geographically
institut
levying
nepal
norms
pyrene
spectral
subsector
tampering
tract
warming
2042
9b
acidic
alternator
bakery
coriander
crab
fissile
hate
keyboard
restaurant
restructured
sapard
sera
stays
tobago
804
alleviate
alternately
amplitude
colorimetric
dignity
exchanger
expiring
handicaps
heel
heights
hessen
jerusalem
landesbank
licensees
lufthansa
multimodal
pollen
saarbrucken
##ble
##ite
1239
62°
adhere
attestations
bold
certificated
commanders
czesc
disconnected
fingers
forks
nitrites
studied
taps
transient
1309
32013
788
904
apparently
codend
courgettes
encephalomyelitis
forfeited
graph
h2o
lettuces
mouse
polluting
powiecie
ul
##lo
466
894
abbreviation
ave
disposals
icm
kem
kp
monsanto
recordings
slots
stadium
steadily
surveying
titration
wildlife
wovens
1592
684
anaemia
blind
cassette
cept
dioxo
hundred
hussein
hydroxypropyl
motions
octane
phthalate
salmo
sb
suit
symmetrical
turtles
wfa
wouldn
3448
abundance
bathrobes
cbi
conditioners
cuttings
depths
dinner
elevation
eujust
focuses
inflow
irregularly
journalists
lubricant
naing
nitrite
pointing
##line
002
1178
1528
2309
advertisement
aeoi
basil
derecognition
distilling
eufor
faeces
freezer
honduras
ipcc
isomer
optically
provisioning
robbery
serotypes
vans
##14
070
631
652
885
alto
beads
bind
camping
colleges
commune
complementing
crane
credibility
demanded
demonstrations
dong
elongation
erosion
flange
gums
lbbw
nic
punishable
refrigerators
ri
terrain
431
basket
cncm
egyptian
elastomeric
electrolytic
f1
foresee
lids
logging
lunch
matured
sour
swim
tsg
vulnerability
1025
10°
1187
2226
561
acrylamide
aniline
br
brings
ciu
conveyor
eci
employs
foregone
insect
rahman
sat
scan
sourcing
allied
capitalised
engineers
improvers
khan
morhua
obstruct
personally
petrochemical
quote
swabs
therewith
vulgaris
5h
707
855
anchovy
berth
chromosome
descriptive
dies
diversified
foreground
info
ionising
noec
połozona
r2
revalidation
structurally
unrealised
viiid
080
1313
ah
chip
coc
condensed
disclosing
download
elevators
emulsions
initialled
insulators
ministries
missed
punching
purifying
pursues
pwn
ratify
slot
srl
statuettes
1077
972
airbaltic
assessor
bam
bigeye
e1
instructor
lathes
medicated
outright
reused
shake
sncf
synonym
15a
audience
avocados
begun
cinema
conductor
empowers
epidemic
fore
fox
hydrochlorofluorocarbons
ida
inks
inoculum
methylphenyl
native
prophylactic
subsp
voyages
1507
691
abou
axial
bathing
castor
colonies
conducts
easterly
encryption
encumbered
experiencing
fold
hidroelectrica
knots
pso
puts
rt
sheeting
thiazol
tuesday
unitary
walloon
zweibrucken
562
805
973
accomplished
algiers
baths
bonnet
captain
charts
darfur
externally
groundhandling
hook
ics
infested
lenders
magazines
myanma
notifiers
omissions
pot
pronounced
purebred
relatives
ribbed
riding
sequences
shed
spawning
stayed
veneto
westphalia
743
colza
commanded
competency
courier
delivers
drives
eori
hicp
holland
implantable
mutagenic
n°
proportionately
safflower
tunis
unexposed
vietnamese
voucher
1431
614
737
archiving
billing
clays
crankcase
eau
fatal
grave
incomes
ineffective
insider
liquorice
milkfat
originals
panes
polar
queen
rationalisation
restructure
selenium
serotype
shot
sorry
truck
variance
wmd
##land
502
7th
als
beaker
electrode
eutl
fc
het
husbandry
infringe
liberates
mauritanian
nedc
redundancies
vanilla
491
asphalt
capes
cutlery
destructive
erasure
hurt
ilva
inviting
khalil
lend
lowered
lvl
magnesia
outgoing
protests
reopening
smp
stirring
subset
εκ
1839
agvo
amends
belarusian
brazing
cartons
complements
erroneous
familiar
faults
foremost
fruiting
geometrical
hide
lambda
maker
mit
mm2
pow
redundancy
resultant
seabed
singlets
studying
transform
##mine
1050
1488
734
advisors
convenience
herbicide
liberalised
outweigh
reward
rind
seniunija
socket
soldiers
spectrometry
tetra
viia
1296
1925
780
cress
derecognised
lux
mats
obstruction
octanol
persistence
string
teq
##si
2400
590
alsace
asa
bsi
cubes
decontamination
deloitte
diclazuril
exim
ford
forging
gluconate
pdp
peoples
possesses
pressurised
satcen
shears
unilaterally
vacancies
villages
ylmethyl
##ei
3821
445
angry
childcare
chlorofluorocarbons
constructional
ethylhexyl
inconsistencies
lading
lawfulness
lesions
markers
odourless
origination
parchment
provence
radiated
separator
subcontractor
wished
##ling
##zine
65°
banco
builds
burner
carbofuran
carp
clerical
correlated
coumarin
ctbt
doi
fn
hall
ims
moroccan
nacional
pathogen
pledge
pursuance
registrant
religion
unintended
walnuts
welcomed
arrow
baden
burdensome
crossed
discriminate
earths
elbows
exempting
gillnets
grill
kale
kfbg
kinetic
limes
liquor
manifold
mcr
mepc
meshes
no2
optic
oxera
pencil
pr
quercus
reesei
replacements
roadside
spindle
tailed
thessaloniki
tm
zona
1046
532
814
916
aocs
assistants
bankrupt
cru
ct
customary
detectable
electromechanical
eubam
inactivated
isolate
nodes
officinalis
predictability
rainbow
rosin
seiners
specialities
subcategories
sulfonate
totals
trail
##it
1014
13a
791
anoraks
auspices
broker
cements
constructing
crosses
drained
eumm
fih
fireworks
hgaa
idling
kerosene
lc
masks
massive
mild
mowers
phenylazo
saturation
sauces
silicate
ss
tendered
triangular
vino
##au
637
811
atoms
basically
chestnuts
ela
endpoints
extrapolated
ide
interactive
internalised
permeability
searching
shah
surpluses
##ies
32009
495
527
761
agreeing
albacore
anhydrides
canned
caviar
cmr
curtain
e4
foils
gauze
grip
incorrectly
isotopic
latha
libraries
refuelling
socialist
surviving
taf
unclear
487
6a002
bait
carbamate
consumables
cyanide
dehydrated
demolition
digitisation
encumbrance
facial
facsimile
irmm
lemon
linearity
mistakes
multimedia
newspaper
nyunt
pictogram
plating
repatriation
roe
vtan
wrote
1282
1400
1601
1722
2073
a6
anglo
bovines
cones
doctors
eller
fiat
horns
notifiable
ocular
saws
1012
987
attracting
automobile
bigger
cranial
ctp
drew
elderly
freezers
gps
hoods
modernising
narrative
np
offspring
persist
polycyclic
repressive
shoots
stripped
temporal
theatre
towers
weft
yards
yei
##ter
945
cider
delegates
djibouti
drafts
fsih
genera
geodetic
injunction
kyrgyz
nominate
occasionally
onward
optionally
phosphide
reproducible
seaweed
stowed
synergy
tallow
totality
unified
0201
absolutely
advocates
arguing
attaining
blackberries
bps
climb
cloaks
comm
delle
grenadines
gw
herself
immobiliser
martin
probation
reversible
rinse
underpinning
##71
1266
1591
1627
7d
aeo
baking
conclusive
crates
flesh
greatly
ima
irradiated
kreis
loaders
logistic
p4
suggestions
tartrate
taxi
##weg
1304
1509
694
820
aerials
breeders
broke
depositors
dictionary
grapevine
hosiery
iasb
ions
lard
migrant
moves
oro
prisoners
quotes
reformed
relaying
riad
understandable
##he
1031
2100
657
911
anthracene
biology
circulate
favours
ferrocene
formic
hydrazine
inhuman
kit
liberties
oxalic
pit
polo
roofing
simulating
spaced
underselling
unmounted
xylene
accelerators
adige
cde
coasts
deer
deprivation
eunavfor
exchangers
foca
graded
hired
keeps
kids
pc
pear
pumping
rosemary
royalties
subtracted
urine
volunteer
##dine
0202
1901
2903
397
760
accelerator
aldehydes
answering
borrow
creosote
cruel
efficiencies
egtc
fun
fvcs
liaise
mwth
navigating
ornaments
prop
recalculated
rinderpest
shellfish
shifting
smith
strengthens
visually
bip
c16
clutches
coll
counterfeit
cvt
economics
fbn
hi
husband
malagasy
malathion
mixes
mkr
rightholders
trophies
от
##tes
##ton
2286
519
diaphragm
drills
enzymatic
estimations
flowered
gherkins
ignored
installing
lycopene
munitions
narizeni
palestine
parathion
quarries
reproduce
satsumas
strasse
sulphanilic
viiie
2075
584
8000
certificado
chopped
dextrins
disrupting
equations
fa
grew
guyana
harengus
incompatibility
okoume
preexisting
shoot
soak
toxicology
wrapped
##ski
2204
463
960
armoured
authors
bridging
computation
constraint
desorption
enforcing
haiti
hats
inspecting
metalaxyl
radishes
redeemed
regolament
rescheduling
shaping
sorted
surgery
suriname
trainose
##®
447
6b
collateralisation
disappearance
flegt
hay
imprisonment
landkreis
myself
oleic
prs
shallots
shopping
specialized
succeed
tripoli
##51
576
benzyloxy
convex
conveyed
countercyclical
extrusion
foreclosure
goa
irreversible
piperazine
polluter
predominant
pwc
quinoline
sinosure
ssn
toughened
transferor
ttber
uae
waivers
2320
250000
446
afforestation
amplifier
baselines
bei
benelux
dismissal
jsc
maria
maturities
mya
pipette
pomace
reaffirm
shouldn
utilise
##nd
0402
1673
5s
828
agro
atom
biphenyls
biscay
breached
contravention
currants
dei
ecj
envc
ethanediyl
gangway
housed
lbb
montreal
nails
organized
pcc
phenylene
ride
seekers
speaker
thinking
toe
##05
##16
##ad
##ir
##ul
##wa
1238
56°
735
923
absorber
altitudes
antistatic
brokers
chilling
crucible
deterrence
disturb
favorite
gravel
heterocyclic
los
lysine
odoriferous
preamble
salvador
separatist
shelter
suffice
tec
##25
##81
1186
677
analogous
bent
biotechnology
brochures
caravans
clasps
drag
eritrea
fch
hermetically
marrow
mixers
motifs
oxidising
rejecting
roman
sccs
slit
soybeans
successively
technicians
bioaccumulation
bright
ccm
dispatching
drams
enumeration
grease
interesting
intragroup
lb
lieu
mainstreaming
pencils
solea
stabilising
15th
2533
641
abrasion
aml
calcareous
carcinogen
cheaper
circumvented
colli
convinced
dichlorophenyl
emerged
extracting
hubs
indelibly
lucerne
mushroom
octyl
origine
p2o5
pretty
rib
spectacles
stardust
sunday
uncovered
090
1177
1423
1452
578
aarhus
acc3
bow
chipped
coat
countrywide
cv
defense
jack
methylethyl
navy
northlink
nts
ofis
peaks
plausible
plucked
refrigerator
seised
spill
steels
tex
triangle
unsuccessful
##03
1035
1080
655
addiction
biochemical
capsules
circumventing
delegating
diagnostics
dispensing
empowerment
extraneous
fcr
fe
fingerprint
ftp
gaskets
jean
passion
prawn
precipitate
preferable
racks
relieve
replanting
screened
suspicious
tetrachloride
##41
##ised
2710
747
872
896
basmati
bawag
collars
deaths
ductile
flaps
genotype
gooseberries
illustrate
lsd
magnets
marble
opted
parafiscal
peroxyacids
pinus
radish
senegal
summit
unfermented
του
##les
1385
766
aacc
alghero
alstom
artists
clutch
coconuts
coteaux
deleting
dihydrate
frogs
ill
infringing
inject
lentils
memo
mismatch
naphthenic
propellants
sowaer
stationery
sterols
tags
transposed
trisodium
vie
abrogated
caledonia
couple
electrostatic
erc
eventual
finite
greaves
guilty
interpolation
methylamino
millions
photosensitive
radial
sesame
sfts
sl
tha
valuer
voltages
##33
##lla
##ou
3c
448
980
backs
banca
finely
ginger
guavas
handbags
impacted
indole
ppa
predictable
proton
shadow
traveller
vitis
##ov
1141
778
allotment
altering
blower
borrowings
cant
codification
diphenyl
dithiocarbamates
exposition
glands
installer
invites
prerequisite
sailplanes
sown
tapestries
wcpfc
640
733
akhund
alba
biomethane
bov
cabs
consulate
desire
earthquake
essence
flooding
insolvent
possessing
predict
qasem
quantitatively
radiator
rodenticides
sheikh
tb
trademarks
typhimurium
usda
validating
##ak
2076
572
683
beetroot
discontinue
enamels
equ
f2
fairness
forecasting
forequarters
graduate
hydrofluorocarbons
interpipe
lra
meanings
mobilcom
numerator
phaseolus
pistols
propionic
psi
ptfe
rearmost
reeling
seabream
shower
stripe
tetramethyl
unwanted
violated
10059000
817
actuators
anise
asterisk
c20
decomposition
develops
donations
dress
formate
formulate
fss
jiangsu
laminates
mopeds
msg
o3
officio
polyvinyl
revolution
saved
tonight
whisky
widest
##61
##di
##ise
##ning
106a
400000
accelerometers
actuation
attorney
condenser
detached
divergence
diyl
eeb
flown
fundamentally
humane
ionic
paving
promise
retrospective
sardines
snake
speeding
turkmenistan
yttrium
1216
1287
969
996
abcp
asses
atco
bucket
chad
congolese
cyhalothrin
eni
forbearance
fte
influences
leaflet
lieutenant
lsa
motorcycle
mules
nevis
palissandre
subjecting
subscribe
trentino
vouchers
zt
##go
boning
breakage
campione
cg
contacting
decimals
homogeneity
insulin
intrusion
iorp
islandsbanki
kiwi
malfunctions
melt
miquelon
mtf
n2o
obliges
turnips
1085
allotted
anthropogenic
benzoyl
cie
coincide
convicted
cra
dagon
disciplines
disregard
folder
hydrate
lp
observable
pensioner
reproducers
sterilisation
succeeding
ylamino
##ac
1454
2050
2106
958
apportioned
assigning
autonomously
bakers
byte
cartagena
chest
crackdown
curd
deoxy
dorsal
draught
enamelled
enoate
escherichia
frog
fvc
kcal
motorways
radioactivity
ratp
resumed
seasons
shandong
sorbitan
strawberry
transports
waistcoats
1202
1518
1628
664
centrifugation
cop
dac
diamine
dow
efsd
fare
firearm
fortified
gis
glycine
nurburgring
pari
projecting
story
supernatant
uso
varietal
##35
2250
adjudicating
aels
afternoon
ahf
angouleme
antilles
coking
disputing
dissolving
dough
dressings
encephalopathy
enterococcus
fabrication
lam
legislations
li
lighthouse
ml7
modulus
monolithic
pollack
rounding
synonyms
throughput
wurttemberg
##idine
##value
1110
2031
546
710
actor
advertisements
aforesaid
collapse
contraction
fifteen
highlights
infra
juveniles
manoeuvre
nchz
sf
sintering
solomon
squared
tc
threads
zambia
##σ
2220
308c
866
ages
awaiting
bonamia
broadcasts
cfl
crd
cumin
deny
diammonium
ec50
filtrate
firmly
flagged
flg
flughafen
hre
icc
khalid
liquidated
melitensis
nano
ovis
perfectly
prizes
r1
repairers
reset
resonance
sml
thaung
violet
yielding
##oxy
##ut
bruxelles
counterparts
cracks
flood
grids
haute
jurisprudence
kitts
knowingly
leaved
levelling
methiocarb
outturn
p1
parrot
prediction
sender
tltro
0°
12a
2988
634
bashar
belief
bristles
conflicting
consortia
cranberries
curia
directory
gearbox
hinges
hpc
morbidity
pixel
pixels
pos
puerto
remediation
sandwich
schonefeld
snails
suidae
tales
understands
volts
##and
1104
affiliation
aflatoxins
campsite
channelled
chartered
commissioning
crimean
diode
dispensers
eaw
energies
founding
harmonising
iacs
incapable
intensify
kic
king
lag
outwards
perspectives
propapier
qc
repairing
rf
shallow
thyme
translate
unannounced
vacancy
waiving
wednesday
##ability
##ska
7000
718
9th
badges
blown
chewing
circa
custodial
eps
faecium
fitd
gets
haccp
hafnium
legislator
originators
photography
preconditioning
rac
slovene
sockets
song
spotted
underwent
younger
419
802
920
990
aeration
aib
bcf
boosting
cfc
dihydrochloride
forget
glucitol
lwin
mmd
movie
optimising
periodicity
rats
refresher
scoring
slicing
swelling
tangerines
1165
13th
651
745
8c
accelerating
acquires
alternating
attended
benefitting
caustic
coral
dds
doubled
fraport
hsw
increment
ingestion
onset
pbs
psk
renumbered
resilient
retractors
rhinotracheitis
salim
simulations
standardization
tangential
tolls
trawlers
uncontrolled
vertebrate
wattage
015
628
7c
breeder
brokerage
butyrate
cac
coincided
conceptual
destroy
dicalcium
disposing
externalities
gmp
insecticide
kpmg
legibly
pagasti
pecuniary
plantings
renewables
repute
rests
shahid
solo
stoves
suicide
tolyl
trityl
##88
##ica
##nes
481
526
673
720
871
9000
cholesterol
consume
dh
disconnection
ebitda
fme
jacket
jellies
magnet
matrimonial
necks
nitrophenyl
plantarum
shearing
spla
vom
##72
##ec
1314
acetamiprid
actuator
alanine
amines
bison
bref
burn
caramel
ch4
charitable
descending
fms
heligoland
ideally
interpretative
leafy
livigno
mas
membranes
personalised
prerogatives
propaganda
pyrimidin
quinces
rechargeable
rtgs
sulfide
thank
underpants
vigna
17a
499
6s
accruals
distant
dp
factually
fertilizer
fiduciary
flagship
foliage
gaining
interpreters
kilowatt
monochrome
nicaragua
orphan
recirculation
typing
unavailability
##methyl
##res
1944
3166
aqsa
automation
buttermilk
dibenzo
dmso
dynamics
grooves
inclined
longliners
prefer
retrofit
stockings
traced
volcanic
zakład
##ria
1445
1874
568
aerospace
alimentarius
arabic
bolt
boot
commands
downs
enp
equalisation
flushing
goose
hb
ladder
linkage
mattress
mutagenicity
refurbishment
saying
semester
severally
socks
speciality
tie
twist
wavelengths
##55
##ceae
418
537
862
carboxymethyl
clover
compulsorily
constructions
cuba
daphnia
decorated
diffuse
ea
eeag
guests
hrs
huge
imputed
luminance
mac
necessitate
nederland
pelleting
reinsurers
sawdust
siminn
streamline
susceptibility
twin
vs
##69
##ee
1906
1942
academy
arrete
backup
cit
disappeared
embassy
eva
incurs
ingoing
interregional
jose
lumbar
lychees
maximising
mfn
monograph
quantifiable
repaired
sol
superconductive
urgently
vib
vigilance
yours
##mi
880
assertion
bdz
bonn
botanical
buckwheat
bumper
bw
depletion
disaggregated
emollient
encompasses
foaming
peter
recruiting
regenerated
spectrometers
##ive
554
617
8521
863
admiral
argentinian
avr
cet
compasses
echinoderms
emulsifying
faroese
hardly
hypochlorite
impermeable
ind
interbank
invalidate
iraqi
napkins
pad
passu
sirajuddin
slack
sorbitol
spelling
tacitly
unborn
1589
1945
2080
2759
557
ael
azabicyclo
boiled
comparator
conversions
cutter
developer
downloading
ftc
h7
lacquers
methamidophos
methylthio
ningbo
privilege
pull
robustness
stitch
10051090
1017
1040
1183
1453
1516
484
4c
5a002
758
812
bioconcentration
cec
conical
cytotoxicity
dealings
diene
dock
fork
fracture
gateway
influencing
intentions
lombardia
metallurgical
naphthyl
paraguay
presente
reader
rodent
rooted
stabilization
straightening
submersible
superseded
tongue
transducers
transformer
transmitters
vladimir
##ci
accrual
agendas
ascorbic
benomyl
constructive
euthynnus
handkerchiefs
intercalibration
latex
logbooks
methacrylic
moderately
modernise
msf
oh
overfishing
pork
sends
sir
sponsors
visiting
watching
##23
##92
2270
490
494
empower
endosulfan
fenced
gallium
glutamic
highlighting
hp
intense
interception
jams
k2
laurent
malawi
mongolia
null
overseeing
pineapple
propelling
pyrenees
recognize
rents
scottish
taxa
##43
10011000
10019091
1338
2c
571
717
721
armour
carcinogens
cpas
crews
dishwashers
dodecyl
e2
eia
ethoxylated
gastropods
glanders
granulated
listen
opposes
perfect
potable
resumption
s2r
seawater
segregated
survivor
switchover
wholesalers
955
acetamide
castilla
celeriac
compliances
demarcation
evaporator
fear
germination
illustrates
knife
microorganisms
propiconazole
pu
renders
sicily
swiftly
terni
tumble
umts
unanimity
veracity
workload
xxx
##75
##mycin
907
buds
caging
coincides
convey
decoration
ex10019099
haulage
helaba
homework
hrf
intercultural
kim
klasse
knit
manned
polska
polycarbonate
rennet
sdr
seasonally
##ana
##un
1122
1299
bologna
burundi
caesium
corneal
dactyloscopic
disagrees
dresses
enacted
exert
fungicide
inasmuch
irradiation
l2
liqueurs
plantations
risky
scrubbing
tal
tricycles
uniquely
usefulness
wilkings
1°
2e
824
amphibians
betting
businessman
decent
disinfectant
epcgs
eurostars
falsified
kid
minimize
modular
mp2
organiser
ration
redeem
referendum
spheres
sss
tocopherol
trifloxystrobin
turnip
##39
##52
##ms
##zone
1259
599
aflatoxin
arranging
briefing
calendering
cinnamon
contributor
divestiture
doped
examiners
fenugreek
gearing
hatch
longest
lorry
malfunctioning
midlands
mont
nea
pearly
pollachius
pupils
repetitive
rivets
seaports
sleepers
soups
spontaneous
sul
syndicated
tradable
wai
wonder
yams
1868
1918
2040
626
790
acidified
anguilla
aro
bass
believing
bicarbonate
biegnaca
bottling
briquettes
broilers
buckets
charger
cheques
empowering
filler
grindstones
h5n8
inconsistency
knock
lymph
microphones
nad
o4
systemically
telematics
upfront
weakness
3d
658
860
admit
advising
affiliate
allergic
birthday
cushions
endpoint
falsification
funnel
glossary
hidden
impending
inefficient
inflated
invalidated
ixa
modafl
nutmeg
oyster
percentile
productions
recognisable
refillable
repercussions
sanctioned
scombrus
somewhat
steered
και
##63
##que
##zi
545
5th
aspx
ass
budapest
calibri
cam
datasets
deplete
dewaxed
gelatin
irrigated
lands
lees
merchants
naval
paktia
petticoats
pregnancy
pseudomonas
restraining
staffing
stearic
upheld
##04
1099
1900
521
cauliflowers
ctbto
deliverables
dietetic
digestibility
discourage
distinguishes
entitle
firefighting
forbidden
fugitive
husks
implying
lacking
magazine
pathological
pome
pushed
quetta
reimbursements
reinsurer
scf
sequentially
strive
swallowed
tents
teracom
tres
uruzgan
##95
##ck
1138
12th
1321
874
analysts
berry
costing
dependants
dissostichus
divestments
font
hamper
inflatable
infringes
lin
maybe
milligrams
nova
particularities
plasticisers
sapote
sprinkler
spt
struck
tilt
unaffected
yielded
##ek
1236
1553
2494
483
acknowledging
advertised
altogether
baker
budgeted
chlorpyrifos
coaxial
dispersions
ebrd
eets
eio
friuli
hatched
hatchery
hundreds
icty
inception
injector
internaliser
leu
localisation
makhlouf
norm
panties
revising
rubus
swedes
thiamethoxam
##1000
##18
##gen
1067
476
563
aberrations
appended
assignments
confidentiel
elaborate
expulsion
ferric
flint
h1
insein
inspectorate
kiribati
mobilising
pale
pm2
poles
polymeric
races
ranged
rbms
resold
talks
tomean
violate
wearer
yaw
2800
a5
accumulator
collaborate
defaults
deploying
deterrent
dolls
echa
ewes
gul
inequalities
kinetics
lifeboats
normative
observing
papua
polishes
porto
recreation
sheathed
staples
stupid
taxon
verifies
waterproof
wien
yi
1081
1222
782
agglomerations
avoids
crust
curcuma
eaten
elh
hinnies
homeopathic
kurdistan
landsbankinn
legume
ligneous
muscles
operable
pans
persists
piraeus
relieved
speech
subordination
±0
##amino
##burg
##isation
##oc
2094
666
ame
amylase
antimicrobials
century
dangers
discomfort
dishwasher
duma
elemental
epoxide
espana
glutamyl
happens
impression
jerseys
komid
lac
monumental
moral
musts
precursor
sailplane
shaker
silkworm
sovereigns
titular
trim
ui
underwritten
unsafe
##ji
700000
8705
actuated
aggregating
argo
backbone
chloroform
coco
composting
corp
deltamethrin
emu
erased
evening
exploring
favourably
ff
genotoxicity
guest
identities
illustration
improper
km2
l1
messaging
mitigated
nurses
pol
poorly
presently
prospectuses
securite
tallinn
ur
##am
##ls
2027
26a
3030
3149
aaus
boar
boric
cartridge
chairmanship
ciudad
continually
deficient
exotic
formetanate
granite
header
indebtedness
insecure
kibbled
lapl
mask
multiplier
pizza
practised
produits
rapporteurs
rifles
seafarer
sharpening
spinal
sprouting
surroundings
upright
usti
voivodship
yellowfin
455
667
abandonment
adaptive
brussel
chloroethyl
dash
ecx
etat
evo
flounder
fx
interfering
kinematic
mgo
mice
openness
perimeter
scores
stowage
subspecies
##rin
##ten
1152
740
azoxystrobin
bogies
burgenland
burned
composites
confused
cyclamate
deutschland
deviates
earthworms
electrophoresis
eou
highlight
k2o
ketones
ood
ordonnance
otter
pluralism
polytetrafluoroethylene
postage
prawns
punch
ranked
reintroduction
sch
stars
summarising
thc
transhipments
unbundling
uncleaned
undergoes
регламент
##em
19a
60000
7004
731
801
858
amyloliquefaciens
anchor
b6
builders
butylene
cee
chose
cloves
comext
cyclical
dibromo
disguised
disorders
etre
hulled
moscow
mrn
ostreae
ovi
reusable
riot
sailing
sativum
silicates
sorbic
speculative
sprays
spvs
ye
##ler
##ow
1215
17025
1857
5700
749
751
917
achieves
annexation
approaching
awnings
benefitted
bottlenecks
clarifies
conductive
consignors
cyclohexane
developers
divergent
foundries
francaise
galicia
giti
gna
habitually
hasan
hucho
perishable
podlaski
rfmo
riga
shooting
similarity
spe
sts
##09
##idae
##lin
0406
1203
1227
2074
20a
2°
bonito
cancelling
corse
denunciation
doubtful
dvd
equus
eurofer
fstd
gardens
gwh
imi2
inferred
jersey
lady
parity
pasteurisation
pazundaung
postponement
prague
promoters
revoking
rewards
safeguarded
simulate
solipeds
survive
venturi
yoghurt
##83
##ato
##ier
23a
967
bilge
cigars
commandant
contouring
ds
emphasise
extractive
gametes
halt
helsinki
hydrographic
incurring
instability
knotted
lasalocid
locality
longline
mufflers
myo
nearby
opacimeter
overlay
reacted
scaling
sein
sjova
staining
sud
trammel
turbot
underline
unroasted
usb
vfab
wafer
øø6ø3
##che
##ian
##phenol
1082
516
5a001
736
944
asserted
cardboard
casks
ceo
ces
cff
circulars
concert
dependency
difluorophenyl
disinfecting
finrep
gates
handicap
heptane
kohlrabi
magnesite
militias
mulberries
observatory
precedent
simulators
sox
triticum
tritium
unambiguously
warranty
washington
025
1217
1503
abstract
algal
ankle
barrels
carbohydrates
changers
cruising
debits
depb
diethylamino
disulfonate
dwarf
ema
engined
enhancers
evolved
fairway
forgot
furans
immune
lc50
locust
mpe
mvm
napkin
ovalbumin
overhaul
pagoda
partitioning
phosphite
policyholders
psp
pulley
reel
refringens
researcher
saffron
speculation
strontium
sulphates
ter
trusts
##59
##ent
##ss
529
672
703
accessory
administers
bans
bismuth
coalition
cpv
curing
ernst
europass
fab
geophysical
haematopoietic
helmets
naked
necked
neurotoxicity
normalised
okra
parquet
picked
rams
resist
salsify
shovels
substitutability
syndrome
thiacloprid
thiram
triazole
twelfth
veneer
ylmethoxy
##tus
1288
1990s
2032
2208
2368
454
489
654
7r
aircrafts
appellant
atypical
bargaining
bulletin
collects
congeners
cutters
emilia
flanges
helical
hydrophone
impossibility
jets
kony
lsh
lumps
maturation
ndla
oder
packet
progeny
seminar
steer
telephones
triglycerides
##36
##den
##ot
602
aio
antiques
argentine
baits
bulls
canton
coupons
disposition
fits
instructors
interpret
israeli
junior
justifiable
llna
mailing
mc
miejscowosci
millstones
monensin
prototype
reloading
sarajevo
secretarial
su
throat
tooth
unfused
unmixed
##rd
1240
711
836
agaricus
amicable
ascertains
bull
clamps
cyclohexyl
darya
dat
fluting
garment
guarantors
habidite
interrogator
juniper
linn
mallard
maltose
mini
minimisation
oxidised
pasteurised
prejudge
regain
saarland
sementsverksmiðjan
spiked
standpoint
sublot
t2l
tactical
tailpipe
thermometers
threading
tolling
tray
uber
##ally
##ata
1312
1939
2229
22a
506
755
arginine
asetuksen
cableway
constants
cordless
disagreed
elevated
extensively
extinguished
fragrance
franz
hauliers
indoxacarb
muammar
p2
pout
precipitated
prejudicial
saddlery
socially
solanum
sponsorship
tetrahydrofuran
thereunder
unesco
##97
##tal
2232
anthrax
appealed
argon
bankco
cadiz
depressed
desiring
dishwashing
dispense
disproportionately
fzg
grandfathered
h2
hexahydro
incubated
interrupt
lawn
leeks
marmalades
multiply
pediococcus
prefectures
restreint
rounds
steep
tdi
thermoplastic
transiting
turmeric
twh
unoda
webbing
wrocław
18a
647
bahamas
capillary
chinensis
clips
commences
eei
encouragement
eta
gge
ginned
handlers
hashemite
holstein
ikb
installers
kas
monomers
offeror
rbs
rollover
runways
schleswig
sooner
thinks
timeline
traceable
visibly
##49
##и
771
affirmative
amalgams
amides
challenging
cockpit
cryogenic
cst
dill
dmitri
extinction
finalise
gyro
handwritten
hunedoara
ile
instrumental
inwards
malik
nestor
oversee
pets
septicaemia
shortages
sprattus
surprised
timescale
tipped
tracer
venezuelan
viib
wielkopolska
##26
##ae
##sen
1139
abduction
brightness
crediting
cva
cyclanic
dipping
eleven
emblem
empirical
enhancements
hetero
hff
homogenous
hulls
lebanese
lifecycle
modest
northwest
operationally
oxidative
passages
pbb
ponds
precondition
publishes
rentals
sayed
studio
toluidine
uncle
voted
wings
##24
##45
##ps
1030
2d
8471
arteritis
auf
breakers
c50
cassava
caucasus
cdc
claw
clothianidin
contingencies
cyfluthrin
dependencies
dew
expose
framed
grafted
irons
kosakowo
lpis
macadamia
modelled
optimistic
passer
pentyl
pheasant
purslane
radiations
repeating
roughness
sac
servo
shielded
sticker
stratum
tabular
ton
##ky
706
akhtar
altenburg
beach
c11
characterise
circles
cone
contradict
dependant
dissection
electrolyte
entrepreneurial
fipronil
forfeit
industrie
knic
lm
milano
mortars
nordlb
occupy
organically
organisers
recoverables
revalued
s3
sacu
silicone
thiophene
tricalcium
verne
##ane
0b001
1315
693
886
ammoniacal
apportionment
condensers
convictions
engages
fsc
helium
inbs
lactone
microfinance
miesto
molecule
nrtc
paktika
ra3
resting
salicylate
shifts
solving
storm
sulfonic
symmetry
telematic
tenant
terephthalic
thiol
transplantation
warsaw
##53
##89
1604
61162
901
9e003
characterising
cleansed
comprehensible
desktop
diffraction
handrails
hungry
iberpotash
laissez
leon
linoleum
microscope
ministerio
ocs
predominates
prize
publishers
pvt
relatif
representativity
resided
subquota
unstable
weaning
##65
##ethyl
##phenyl
308a
497
848
acer
acetamido
alley
blowers
capping
choline
coasting
compounded
counts
dams
denote
dien
enteritidis
fp7
gizzards
glad
hasn
infestation
iorps
mentioning
nangarhar
nanomaterials
nnbg
oath
outlining
overarching
owning
pcs
rarely
reassessed
redistribution
restated
roofs
sardinella
sausage
sensitising
subcontract
subsections
tusk
workpiece
##32
##der
100630
2166
accountants
accrue
airflow
alternators
anybody
barrel
billed
brothers
bubalus
cassa
contradiction
countering
defend
deteriorating
disturbed
dos
edfs
efsf
electrolysis
ewrs
genuinely
gliders
gpsd
inclusions
mib
mips
mixer
multisectoral
nazionale
nicotine
notebook
ochratoxin
readers
rotors
sisal
societa
srm
stabiliser
tebuconazole
timetables
trachurus
worm
##07
##28
##be
##ized
2202
6a203
961
alliance
autostrada
barbed
cagliari
consoles
divorce
dso
edta
efrag
elastic
emit
famous
fluctuation
formulas
generale
gmina
herb
kidneys
leaflets
loves
mating
munich
recruit
regulamentul
requisites
scarves
stadt
sterilised
stick
summarises
terminates
thickeners
toc
tolerable
waffles
whereabouts
##hi
##tin
1074
434
598
6th
742
789
799
abilities
acronym
alki
attacked
chives
civic
cycloterpenic
deeply
desulphurisation
diamino
droga
effecting
ensuing
equivalency
eupt
fertilising
formulating
guar
herlitz
hosted
hydrated
indeno
intensified
iwvta
mann
martinique
mycotoxins
noble
quantum
strung
sulphonic
vibrations
waves
whips
wltp
worsening
##98
1292
702
977
abdominal
arabian
bend
butt
conseil
denial
dis
divest
endive
ghazni
indicia
inductors
kaki
laos
nay
piperidin
quail
reclaimed
reels
refrigerant
romagna
rotate
rozporzadzenie
sage
sovello
swivel
thiophanate
turpentine
universality
wp29
##48
##73
##vo
870
amir
artisanal
baluchistan
bogie
cedefop
childhood
cups
defaulting
depot
diluent
disbursements
fbs
harmonious
hormone
ht
illustrating
jalaluddin
malting
materialise
meridian
miss
mykiss
nile
nursing
olefins
piperidyl
pleas
repellents
sdrs
silencer
snap
soes
tnmm
toasted
tuner
universalisation
unsettled
vhf
welsh
##44
2087
592
840
antigens
archive
butan
cisa
custodians
desks
diethylene
disperse
erucic
glue
gnp
guiana
haut
ibid
inserting
leucyl
marteilia
molva
pentru
prof
quarry
rangoon
rbi
regionally
respiration
sparkasse
sponsored
supranational
tapered
transforming
trimming
##ty
0210
2568
441
681
833
allele
anglerfish
arriva
bessel
campylobacter
carambola
cauliflower
contemplated
counteract
csk
curved
cyclopropyl
david
debited
decommitted
dramatically
ecotoxicological
energetic
eurofound
helpful
hereunder
histopathological
immersed
japonicus
karjaportti
ld50
mace
ofex
perfumery
phytosterols
predecessor
racial
reminded
revaluations
reza
schematic
shetland
sided
sternum
str
structuring
vilnius
##less
##pa
##tic
##vi
1565
1c350
1c450
618
831
9a005
absorbers
assessors
avec
cic
cranks
cyclenic
disruptions
distils
encompassing
fd
feedstocks
fig
furan
ham
hds
kilns
lupins
moist
nsas
orifice
outage
prerequisites
pyrolysis
richtung
sardegna
shocks
shovel
slitting
standardized
submerged
succeeded
undetermined
wise
wrist
##06
##ai
##sis
1418
accomplish
activating
adriatic
aeroports
aftertreatment
c14
calabria
cardoons
consumable
convenient
delimitation
departement
diverging
dusseldorf
hex
inspire
league
marketplace
monosodium
nbb
nightshirts
nuo
odr
oleaginous
outdoors
pleadings
pn
purin
rafts
reinstatement
rep
shank
stripping
subgroup
unintentional
uz
westward
##pine
1185
1384
17024090
1788
2470
621
752
841
924
932
adhered
apprentices
bacteriological
bgbl
bottled
cccmc
cep
chillers
couscous
dcl
discontinuation
dpo
ducroire
editorial
envisage
evolve
extruding
founder
greenhouses
gs
immature
inhibitors
ivb
jackfruit
manoeuvring
mastics
neodymium
oa
osha
poisoning
prefinancing
pyrazole
similarities
sofia
sounds
spoil
ssc
throttle
tire
tolerated
veterinarians
virological
##17
##ah
##bi
0304
13c
algerian
alt
apprenticeship
belonged
chairpersons
cigarillos
cmp
conditionality
confinement
expedited
fgaz
gabonese
hankook
inches
indivisible
kaupthing
kh
lru
mannitol
overload
pathway
penal
pouches
primates
rigorous
sont
stabilized
stemmed
subtracting
tights
trapping
undeclared
1265
876
aldehyde
arctic
c0060
classed
confiscated
denim
detonation
eaa
eqs
exam
extensification
fragmented
geared
goma
graphical
impairments
isb
kahla
klu
lazio
lecithins
malev
nam
oda
ok
percussion
physics
productos
qui
reconsidered
retrieval
roundnose
shawls
technologically
temporis
tunicates
valances
veils
vsl
wipers
##78
1893
523
aaa
afm
boars
cao
chilli
cld
cocks
conviction
dea
deed
degressive
dihydrogen
entitles
fastened
fastening
goggles
hamza
hypothesis
illegality
ils
inns
isil
iu
ka
kyi
lactalbumin
medlars
mikkeli
murder
osb
parsnips
pharmacological
pharmacy
pilseta
referencing
restricts
sifting
spools
thiodicarb
twg
upgrades
warmers
watering
watt
whsc
##47
##79
##ant
1535
2375
42a
623
915
abc
c9
color
endeavours
flanders
guadeloupe
illuminate
jv
khairullah
landes
lovage
mansour
moody
mutuel
owl
racism
redeemable
retrocession
rubberised
stichting
stockpile
truffles
vegetative
venezia
witloof
##96
##ku
2402
507
653
869
alfalfa
anticipate
behave
bell
bpp
bream
compositional
conceived
configured
cta
emanating
emrp
fang
fillings
fm
fra
germanium
intermittent
irrecoverable
marshall
mediator
obligors
pyraclostrobin
radionuclides
razor
regula
relays
republics
sep
shields
studs
suspensive
tends
umicore
unauthorized
valdeal
widening
zn
##34
##93
##ig
##ux
1003
1101
2107
2119
3922
airframe
alleging
ambition
bellows
boreal
bratislava
counterclaim
currents
cyanamide
dissipation
dmg
downloaded
elongated
fischler
garages
hindquarters
hpa
hydroxynaphthalene
leaks
leek
longlines
melon
microspheres
mod
nav
noorzai
occupancy
octopus
onerous
pakistani
peptide
prosperity
regulates
spectacle
spo
sustaining
toilets
trifluoro
turbojets
warn
wastewater
weave
0054
10064000
1754
1763
646
787
airtight
blame
bullet
cimos
dto
eagle
electrocentrale
fiu
forgone
harvesters
hip
hits
importantly
impulse
kimberley
libor
metropolitan
microscopic
molten
ontario
perennial
rbm
sanitation
shaving
shortened
sulfonyl
unconditionally
viscous
wp29wgs
yuzana
##2000
##5000
##77
##ho
##ino
11b
amorphous
architect
aruba
basf
bearer
bioassay
brandy
cba
ced
chippings
cotif
cwp
cysteine
depreciated
doha
dream
emc
faso
feeling
fumes
glucan
hansestadt
hereof
hh
ivorian
lanthanum
mattes
msr
parma
pecans
pianos
polycarbonates
recapitalisations
recur
restitution
shaking
simulant
suite
sør
tabled
taxonomic
transavia
unfinished
unresolved
uredba
waziristan
woods
wp29gen
##age
##ated
##caine
##min
##tis
1262
1383
2529
3e
629
953
asetus
battalion
bs
burkina
canister
canvas
certificat
chartering
discloses
div
f3
gifts
guts
impeded
inevitable
lesotho
locate
longitudinally
manicure
marco
noxious
pah
pigeon
pyrimidine
recession
seasonings
skrzyzowania
stakes
stuffs
tribunals
voids
washer
##87
##9000
##ous
003
1638
48v
6r
attributing
blueberries
caking
canteens
carassius
conspicuity
creped
cryptography
delimited
diverted
dryer
ecs
egr
flatrate
fso
implicitly
increments
incubators
jure
lucia
manoeuvres
matrices
monocytogenes
opponents
parametric
permeate
postcards
pumpkins
pyay
saccharata
sizing
stearin
sulphides
telescopes
tolylfluanid
unsustainable
verdean
ylidene
##rt
1072
1206
1382
1405
3004
498
503
690
970
adam
aes
anticipation
autonoma
bisphenol
certifications
chervil
compares
concurrently
convening
cookers
dm
economical
grenada
hch
hill
hurry
indol
inoculated
interact
leaded
longibrachiatum
millennium
mismatches
mount
mp
museum
ohn
phoenix
prodotti
proline
reconcile
remedying
repos
rst
salar
scm
sheltered
sort
telefax
termed
thigh
tnp
tracksuits
varnish
worried
##46
##ds
##ova
##tide
##а
07d
1934
30°
741
8525
918
9a012
antigua
bayer
boil
bti
cardigans
chelate
chestnut
conspicuously
cyanides
datum
departs
ebb
ebs
eels
encephalitis
endives
fluoren
fukushima
grenades
jindal
kk
microns
nda
nlmk
nobitz
parings
pensioners
prepayment
prosciutto
redemptions
refill
replication
retrofitting
robots
sanctioning
sanding
seesac
severance
sewerage
subperiods
transducer
unassembled
vent
ø15ø7
##42
##66
##ada
##nia
##type
1406
2206
30a
5000000
591
624
636
764
892
albumins
antibiotic
ato
belting
blr
capers
casualty
chromatographic
contributory
disable
dortmund
esp
formations
genotoxic
marlin
modernised
mutagens
notation
nra
os
overdue
payroll
politically
pyrus
remitted
rfid
rhone
sack
sbs
suburban
tf
thermostat
unhcr
viz
vulgare
vulnerabilities
wacc
wallpaper
##29
##bis
##pe
##rate
##tt
1108
1143
1211
28a
308b
759
935
accomplishment
aminoethyl
bolzano
briefings
cancellations
carpet
casualties
convincing
cousin
creams
densities
gaming
greenlandic
harpa
imidazole
lichens
md
mfg
mountains
noodles
practise
proactive
pushing
pyrazol
quebec
reglamentas
replying
saline
sebastes
speaks
suddenly
topical
transhipping
vapours
wiper
ео
##37
##56
##im
##net
1517
2052
535
643
anac
anomalies
arbitrage
aroma
atpl
bends
caisse
concretes
corundum
crocodile
custodian
detainees
duplex
entrant
epc
eusec
examines
intakes
java
kan
lima
literacy
mantillas
maple
micronucleus
mint
naoh
orientations
piano
pottery
pox
probes
proprietors
regenerating
renegotiation
seeing
somebody
stimulation
surrounded
swapped
tampons
tcs
tetrakis
tops
transmitter
vicia
021
1d
588
7h
868
8703
aboard
aland
amusement
angelica
apartment
articolo
articulo
atmospheres
betel
bilberries
bloom
buffered
carboxy
coexistence
compass
condensing
conduit
demanding
dredging
drier
driers
forename
formulants
framing
gbagbo
impediment
inherently
interlayer
interruptible
legitimately
marie
nationala
nurse
overdrafts
piemonte
protects
rationalising
reinvestigation
sophisticated
stopper
substitutable
unidirectional
unshelled
vrr
##zole
1332
1371
2247
701
712
8th
90°
968
asymmetric
audiences
aus
comb
creativity
dpf
duplicating
earn
ecais
evaporated
fallow
fission
flush
grates
homs
implantation
jp
juvenile
karim
nail
olbia
paragraphe
paws
pivot
poison
script
shutdown
sociale
ssru
stairway
substantiating
sus
teach
thursday
voi
wgs84
zoo
##100
##62
##84
##eh
24b
627
813
aal
abandon
accumulate
agence
alkalinity
alpes
ara
aspartame
astra
chard
cndp
deionised
dentists
diisopropyl
discounting
emd
equipping
fb
flares
hardcore
impediments
inadvertent
interdependent
inverters
isopropanol
legform
miasta
nd
neutron
otif
pickled
postcode
powerful
pyrophoric
reinvested
sardinian
seafrance
strange
survivability
tcca
vendors
withhold
##57
##ben
##ll
746
941
abertis
adjuster
aligning
analyst
apartments
attested
backrest
bos
bromine
brunei
capricorn
conformities
congress
contradictory
cooperates
cyprodinil
drought
excursion
fined
footing
hairdressing
hubei
immaterial
inhaled
inscriptions
ippc
lasts
lloyd
methanesulfonate
morris
mosses
navarra
oshv
oysters
prepaid
prepregs
pumpkin
separable
sleeve
stains
syngenta
td
transmits
vanuatu
volvo
##ik
##rine
##tine
2117
2305
954
afr
anonymity
armoracia
belgique
cim
compromising
damping
descent
detects
dialogues
dinitro
dio
disregarding
encounter
expeditiously
faizullah
flugplatz
glycosides
governs
hydral
ici
imino
itrace
maternal
mundus
mustafa
narcotics
nhto
peshawar
pirelli
poa
pound
pyrites
rack
refiners
rotations
saps
sharps
snakes
solved
surveyed
trunks
tu
##010
##86
##benzene
##ring
1904
704
accommodated
agave
apron
architects
bilaterally
bordeaux
broadening
cheap
commercialisation
countryside
cresol
derogated
dewberries
disappear
dominated
ecrin
esh
ethan
falcon
fema
flammability
germanwings
hail
harmonic
hexyl
hive
hns
impeller
indene
indium
innocent
jacks
jury
keepers
lg
listeria
loganberries
maakond
mails
marche
nursery
peanut
physicochemical
spirotetramat
stretch
subdelegation
tailor
toward
weekend
##58
##67
##fylline
##ingen
##sdorf
518
6a003
754
763
921
abies
antwerp
baked
barbados
bbb
bpf
breadth
caa
carne
coincidence
condiments
cpl
delcredere
diisocyanate
escrow
fence
inconclusive
interconnectors
istanbul
latent
maaruse
metrics
mist
monkey
museums
needing
nephrops
nominations
novelty
obstructing
penta
prepares
pumped
remittance
rig
rupture
selectively
stl
tablet
tooling
upcoming
virginia
xenophobia
##fa
##ich
##ong
##ud
1172
1267
1745
1747
1786
3a002
933
948
abrasives
baa
barbuda
capra
credentials
dating
disassembly
docs
dsos
eds
effluents
ege
exerting
expeller
flex
forums
gfw
gill
hierarchical
hips
hlb
kelio
molecules
necessitates
nhc
pandalus
patrol
pisum
probationary
pups
pva
removes
renamed
retsina
servizi
shavings
sing
skk
specialising
subcontracted
sulphites
tradition
tying
1230
2223
2b001
alerting
asleep
assists
calculates
carbohydrate
cil
congener
corks
deg
depots
deva
deviating
directs
drilled
dropping
electrolytically
floods
frontex
geothermal
grande
harare
imidacloprid
indexes
isobutyrate
mff
milkfats
mk
monoclonal
ondd
orientated
pboc
perry
reaffirmed
reconsider
routinely
saturday
sgeis
spiral
supporters
suspecting
thermo
unrefined
winches
##74
##era
##om
2115
3820
456
992
alphanumerical
analyzer
bo
branded
calmac
clinker
complicated
complicit
edi
eftasurv
explored
gasification
gently
hept
hza
ipr
joseph
klm
kow
lanmadaw
locomotive
mrs
obligated
onion
perchlorate
performers
rem
rh
saida
sees
shorten
skinned
streamlined
subsidized
t0
tortoise
ucc
venus
##oic
##ue
13000
17023099
2122
3719
3901
3g
708
accidentally
adaptability
amplification
beeswax
bielsk
bleu
blow
cerium
cfv
competes
conicity
dab
dismiss
encoding
enova
erga
fullest
gasoil
ginseng
glutamate
grosso
halide
hydrogenation
hydrostatic
ingot
instituting
itc
masts
meats
melli
metrological
notebooks
plotted
pyran
revert
serbian
shutters
sieves
spice
spoken
tamper
tears
thuringia
tourists
upc
ventilated
verbund
vicuna
windcheaters
yogurt
zum
0204
1350
2099
964
alleges
anterior
aromatics
assent
aziz
beijing
cladding
coicop
comorian
cultivars
dairies
decades
denaturing
diets
distinguishable
divested
doubling
ears
eggplants
eighteen
graft
harmed
indexing
mato
nco
overlaps
papayas
polysaccharides
priips
ramps
ses
sinensis
stack
stacked
summarise
tare
tiered
transversal
worry
##ao
##bility
##mo
1622
685
762
823
analyte
appreciably
bedroom
beech
bts
bucharest
capacitor
cesr
destabilising
elephant
endangering
endemic
erred
gats
looped
loses
mezzanine
micrometers
modifies
motivation
netted
palmitate
peg
pictograms
pyrrolidin
rift
rinsing
skis
spots
synchronised
toecap
transcription
turnaround
unbundled
unconcentrated
undulate
windfall
wrenches
zeolite
##94
##ron
##the
##way
##на
3006
3918
6a001
744
887
890
absorbance
allium
bafa
bil
biria
bordering
detachable
difluoro
discreet
disulfide
ems
euphorbia
feedstuffs
financiere
fintecna
flagstones
hen
herrings
hiding
hippocampus
insemination
invalidation
itinerary
jul
laboratoire
ladles
multilayer
norsk
occupations
oplan
orphans
palms
perfumes
philippine
pond
professionally
protestors
prothioconazole
putty
quiet
radii
scaled
shear
shwebontha
smac
smelting
subscribing
sudanese
synchronisation
tonga
traditions
violating
withstanding
workplaces
zadran
κανονισμοσ
##85
##ase
##ex
##ile
##ure
12000
1435
538
announcements
arrowroot
bifenthrin
budgeting
bundled
cervids
cfi
cfr
crash
editing
eurochem
extinguisher
fischer
flemish
forborne
frost
glitnir
graphics
haloxyfop
historically
hives
hqn
icos
ineos
isd
meg
methoxycarbonyl
mis
morphology
mussels
nariadenie
nmhc
parasites
pedicure
penetrate
recalculation
roi
segmented
sequencing
sinking
skate
skip
slippers
stockpiles
surcharges
triggers
unvulcanised
videos
wrap
агенция
##38
##est
##mer
1164
50th
586
632
6a008
antonio
aurantifolia
berne
bleeding
coir
conveying
cracker
crafts
crazy
detonating
digestive
dilutions
diminish
dirt
durch
ehf
encrypted
ewe
facilitator
glycerides
grated
iiic
inducing
lacks
lanes
leucosis
luz
malian
misstatements
mycoplasma
networked
ot
pasdaran
persecution
prochloraz
prodcom
projectiles
reproductions
rw
scored
solvit
sperm
sulphonate
swd
tear
tl
trapped
tunable
ved
vending
welcome
wheelset
zebrafish
που
1346
1936
2408
457
644
9a119
anionic
arcelormittal
bangui
borage
broaching
charles
clarin
communist
consequential
counselling
deepening
dirty
emerges
ethanolamines
fmd
fortis
genes
girlfriend
handholds
hebei
irritating
langur
linkages
lo
lov
lulucf
mancha
noon
nov
pesco
pitahaya
pki
precluded
prp
reclassifications
rectifying
retrieved
ribbon
ribbons
rioja
sepi
shrink
speakers
staircase
tdm
telescopic
tendency
traineeships
transmittance
travertine
trichloroethane
trq
unleaded
vertebrates
wickerwork
##so
##zo
2058
553
600000
70°
9403
agrosciences
anoplophora
champagne
clinically
compost
crangon
dci
dha
dismantled
frontloading
hooves
karkkila
kumquats
ltl
marchandises
marrakesh
multifunctional
nitrosamines
obtainable
paraffins
polynesia
produtos
prosernat
r0010
reassess
retardants
retrieve
returnees
rff
rhubarb
risen
scene
silc
smoothing
spinaches
subcutaneous
subtypes
transporters
unnecessarily
weld
##08
##500
##76
##acetate
##son
##tte
1058
1407
5405
727
803
acceptances
advancement
aleksandr
alginate
caap
caco3
ccd
channelling
cius
confronted
consignees
crabs
deformable
eaec
energia
gambia
hepatitis
htoo
impacting
implicated
indemnities
ins
intensifier
kfw
knowing
lawns
logos
mangosteens
multilingual
nbg
nemos
palmitic
partitions
pruning
rucola
rusks
scarole
servicer
spillage
streamlining
sulfonato
terror
tetrazol
theoretically
timor
unequivocally
##ano
##ensis
##tor
1016
1212
1327
1938
2321
3°
abide
afssa
agglutination
anchovies
annexe
aptitude
arena
attenuation
benthic
bushes
carinthia
cayman
cocoons
commonwealth
csm
ddt
depicted
dialkyl
dichloromethane
diminished
emerge
erroneously
eurasian
fatalities
feb
fludioxonil
gaec
grafting
grower
han
interchangeability
intestinal
lan
latch
limiter
loec
lung
macrocephalus
maldives
mare
masisi
methylenebis
ngo
occupying
outlines
painters
petrogal
phosphorous
piperazin
piperidine
premature
pulping
pyrimethanil
reindeer
rus
scallops
sponsoring
subsoil
tercas
thiha
vmax
warfarin
yahya
##bank
##ct
##weiler
1700
1941
32008
4064
4d
5404
8701
926
accelerations
adaptor
amitraz
aragon
arco
artigo
associating
asymmetrical
averaging
braked
california
chlorothalonil
clp
coachwork
conserve
countervailed
csp
decommitment
depositories
dusters
edctp2
edited
escalators
fir
fonds
grinders
groupe
hang
hansol
hippoglossus
hydrological
indoors
interconnector
izar
jim
kraftliner
lindane
lod
maxlength
multichip
nanoforms
normalisation
npa
ojsc
opaque
papermaking
pendimethalin
qualitatively
reasonableness
sago
sin
spiny
tilting
tramways
tribal
typology
uri
uut
vocabulary
wallcoverings
wh
##men
##sk
##zide
1555
698
829
859
912
abstain
accountant
acetonitrile
acron
ada
advancing
airships
bahan
barometric
bays
brooms
burnt
communicates
comunidad
consecutively
copra
didehydrocepham
disrupt
durations
ecotoxicity
embroidered
fmea
folpet
grasses
guess
hawala
insufficiently
invests
kilowatts
lagging
legend
lightning
listening
mad
medication
meop
methoxyfenozide
ministere
modacrylic
nrp
numero
odp
oleoresins
oxamyl
pearled
pledges
posteriori
proud
receptor
scanners
seeker
t3
tidal
vennootschap
wrongful
##1010
##27
##cion
14001
190219
522
815
827
930
brandt
buoys
calais
cbp
chelating
chloromethyl
chromen
coastline
concessionality
cords
dangereuses
despatch
devised
diputacion
distillers
distn
dpe
employability
entrusting
erasable
estuary
finnfjord
girdles
gl
headline
heterogeneous
hoofed
hung
imp
infectivity
investigators
itp
jacking
kamel
leaking
luka
macaroni
masking
menu
microprocessor
necropsy
nightdresses
palau
pci
pcis
primer
qcs
quit
reacting
regulas
reimbursing
relocated
rotated
seize
setup
sighting
simplicity
slotting
smr
sulfone
vacation
weeds
wik
wschod
zu
##are
##late
1120
1549
1806
2000000
2358
25a
agder
ale
amylaceous
anhalt
avena
circus
cloven
conformance
corroborated
e10
ecdc
endorses
esm
garage
hfcs
inapplicable
intermediates
jiv
lodges
ls
maarus
mel
mucl
narrowband
nettbuss
nominally
philip
privatised
pulled
qari
senate
sfc2014
spores
stain
taipei
tangent
theatrical
thio
tk
triadimenol
triethanolamine
typewriter
unsolicited
warmed
watercraft
yar
##ani
##bo
##ens
##ff
##led
1007
4°
819
940
accompanies
aliens
api
ascending
brewing
chalk
clostridium
copiers
cupro
danmark
decaffeinated
decoders
dieldrin
divulged
domesticated
eood
exercice
fps
ftd
halons
illustrative
inserts
ismail
lasted
leds
loyalty
lukashenka
luxury
mentha
merchandise
millilitres
oryzae
oscillator
pagasts
pcdfs
petri
pore
posta
ppl
robenidine
rusticana
salem
sandy
scabbardfish
scarce
simet
slopes
spokesperson
tco
technician
toxicologically
wheelbase
yellowish
±1
##3000
##zione
##та
1285
1692
873
abiotic
acephate
aip
avoidable
bac
barbers
bioanalytical
broths
butterfly
comfortable
contiguous
definite
dimethylethyl
drogi
eig
eireann
ext
falkland
fifg
furfuryl
hatches
iata
inflicted
istituto
lapsed
lattice
lgds
maxima
misappropriation
movies
naples
nationalisation
oldest
ortho
ose
oy
pelamis
perfluorooctane
persimmons
pmax
prompted
raincoats
resolvability
retailing
samoa
scissors
sights
triple
unaffiliated
unprofitable
vintage
xanthomonas
##64
##han
##rus
004
00b
120000
1207
1367
1379
35000
449
564
567
60061
aggravating
apr
bellies
brass
caution
choi
coss
departures
dihydrobenzo
disinfect
ecus
exhibits
fluorescein
glufosinate
hanging
hinged
honest
interreg
kad
laurel
lietuvos
mil
mileage
multifunction
nariadenia
numerals
ordination
oriental
parboiled
pomegranates
protections
pymetrozine
pyridyl
quantifying
rateable
reformer
responsive
salicylic
spheroidal
stu
suffix
tmp
transferability
urged
vid
3212
4500
583
594
663
976
abaca
abruzzo
alkyd
andrei
announce
annul
appoints
ballasts
basir
bellied
bengal
billets
broom
catfish
ccr
cenelec
chaozhou
cisterns
crist
deputies
difenoconazole
diminishing
downgrading
graves
grips
imad
improvised
isoprene
katsuwonus
kolnbonn
moles
monofilaments
nac
offals
pentachlorophenol
phenoxybenzyl
policymakers
poured
propamocarb
rami
robert
scandium
simpler
sman
solanacea
somatic
spoons
stimulus
tachonet
tn
yemeni
##amin
##ner
1109
1293
1433
1896
2700
2792
719
895
adipic
algorithmic
anses
approximated
arch
ascorbate
ashore
asserts
automobiles
b2b
bioavailability
bldg
booster
borealis
brucella
calabrese
cvd
dance
dentex
departmental
det
drunk
ecaf
ensemble
epidemiology
fhb
flashbulbs
furskin
galactopyranosyl
giulia
grained
hormonal
informative
interpersonal
jecfa
judgements
khv
lca
maher
midline
newsprint
niche
oilcake
pak
papaws
perhaps
plaits
pm10
propineb
quay
quotient
reflex
remoteness
revolutions
saddles
salinity
seafood
southeast
standalone
tactile
talked
tarragon
tokens
tuberculin
umbria
verbal
xxix
##ger
##hausen
##ini
##ita
1162
1263
1269
1450
728
7e
903
abnormalities
airbus
airfields
aries
beq
bgn
bij
blasting
bombs
capm
cirr
citl
cox
democratisation
disrupted
downgraded
dragon
dram
emptied
equines
eu10
fads
fescue
gradients
hexachlorobenzene
incentivise
inheritance
intrinsically
lactation
landsvirkjun
lubrication
padding
payables
polysorbate
profenofos
pseudo
radiant
rebuilding
refoulement
refurbishing
revolvers
serviced
singing
stallion
subregional
sulfonamide
tca
termoelectrica
thermally
traineeship
underrun
uva
##by
##cin
##ena
##ju
##tive
##ys
10c
1359
14c
5303
687
7638
830
aemc
amide
ascb
assemble
asturias
berliner
brittany
captan
causality
chargers
chemi
combs
commissioners
correspondingly
cry
danisco
decade
diversify
draining
dtc
eew
enhances
erythrocytes
eusrs
excretion
fies
fifty
flare
fluorobenzyl
furfuraldehyde
gift
glucans
grubbed
hammer
harbours
instituto
jeopardising
khaled
kwkg
letting
linoleic
luhansk
mancozeb
memoranda
methylphosphonate
mud
odometer
panty
parachutes
powertrain
precarious
r3
regione
reimbursable
reminds
retraining
rhizome
s4
sds
shura
sparsely
spiegeleisen
stomach
thallium
transitory
unprecedented
vai
wi
κανονισμου
##gesetz
##lle
##ula
##ura
1205
1447
14th
1c011
2601
3003
adns
arcs
bioaccumulative
blender
camps
chairmen
clearances
cmn
columbia
copied
cqs
curry
customised
defeat
denying
diphenylamine
disjoined
drawdown
ecsel
entangling
erm
extrajudicial
faeroes
flawed
gemass
georgian
gil
gladius
groundnut
hammers
hexachlorocyclohexane
husk
impeding
impractical
kierunku
laterally
legibility
loc
mucilages
nh3
pimenta
presume
reimportation
relaxation
rot
sccp
seedlings
soaked
speedometer
spoke
srd
stockpiling
stratification
suffers
supportive
svc
t4
tartu
thirteen
thyroid
tori
transferees
tributyltin
uncombed
unequal
uniflorous
warranties
wicks
xxvii
ydroxy
##cia
##ev
##ey
1387
1719
aar
abamectin
additionality
adif
appraise
arithmetical
bacon
binoculars
bobbins
boss
butyral
carob
civet
cos
decoupled
dimethomorph
dispersing
doux
drapes
elasticity
elects
ergot
ethylamino
eyed
forenames
forma
gauging
gcv
gg
hofstadgroep
infectiveness
latters
liquors
manitoba
multidisciplinary
neutralised
oiag
omethoate
premier
prisms
prominently
protesters
pts
queries
retractable
rigidly
sapid
shifted
skippers
spine
spreadsheet
succinate
testliner
tor
tours
trento
uphold
viif
xiphias
##000000
##fish
##mp
##per
1612
16th
17029099
40°
838
8704
alla
ava
baseball
bike
borates
bucuresti
burglar
camphor
carbons
centreplane
d20
defending
deflator
droit
dumpers
elution
entrusts
equip
expedient
għall
habits
heavier
inherited
interruptions
intervener
jong
k1
methylprop
nancy
npt
pearl
perch
persimmon
piezo
planing
primers
prioritise
pte
pulleys
rb
reclamation
rinsed
salamanders
seaman
singly
sio2
sixty
squash
striped
sunlight
themis
thoracic
thyl
thynnus
toyota
uic
unidentified
warfare
xxiii
##ker
1103
1524
25th
547
772
773
abbreviated
acquiree
apertures
ballot
bins
broaden
c0050
calibre
chromate
chromene
crustacean
cyan
depositing
deprive
dibutyl
enlargers
fenamidone
fluopyram
friezes
fsbesitzg
gestion
helena
histopathology
hydroxylamine
insisted
isobenzofuran
licens
lne
loved
monocrotophos
ovc
pagellus
palladium
pcp
pickling
plateau
plta
pomelos
prioritised
raining
ralstonia
rationalise
reallocated
salih
sandstone
sectorial
stern
suretyship
tai
tetrasodium
trichloro
triticale
uaa
validly
viih
wheelsets
##acetic
##dae
##lia
##nas
##nus
10062098
1118
2078
25°
2825
3400
559
786
825
875
accelerometer
aea
allah
assertions
bentonite
bez
boules
bouygues
buonotourist
capturing
carbamates
carbonitrile
characterized
cinemas
cip
craiova
cras
curdled
derivs
dfe
difenacoum
disconnect
eradicating
fdp
gwp
hadi
hydrolysates
iprodione
kangaroo
legislature
ljubljana
lockers
loops
manan
maneb
multiflorous
musa
nmc
nu
octave
pantone
plaza
problematic
refine
renewals
resinoids
sii
symmetric
tarpaulins
tempered
thermic
toner
unseparated
upholstered
valine
vinifera
vodka
##ara
##lt
##ping
##α
1166
1639
28th
5o
63a
750000
839
937
biennial
bifenazate
bookkeeping
braces
brigades
ca1
cadastral
cbc
chlormequat
combatants
consents
contradicted
curling
cuvee
dimethylformamide
dominance
elvs
femur
fins
foshan
fourthly
grasslands
happening
hexanoate
ipn
karachi
khost
lactating
learnt
levant
lx
mar
midnight
neres
norvegicus
noticeable
oceanic
omnes
password
piling
polyether
precludes
prosecutions
rotogravure
sae
scrubber
sq
suggestion
tamarinds
textual
trunk
twisting
upov
vodafone
walled
whereof
ракия
##ice
##rone
1015
1381
1676
1741
4803
682
724
7a001
800000
al2o3
aminopropyl
announcing
arfd
assortment
bromochloromethane
bypass
chiefly
cohort
compute
concentrating
corals
correlations
critically
crucibles
culled
curriculum
d3
discussing
distilleries
echinococcus
epic
escaped
escorts
esdp
floricultural
forensic
grappa
greening
guangzhou
heptachlor
herbaceous
ibg
inadmissibility
inhibited
ipm
isolating
kresoxim
lizard
lungs
markedly
metered
mf
morphological
mu
or2
precluding
priori
procurements
promoter
recherche
reinforcements
retarder
reykjavik
rocks
seaweeds
siting
spleen
temp
trustees
trutta
undiluted
upkeep
vinylidene
waited
wali
washbasins
wschodniej
zoning
##perone
1092
1168
1184
1931
2028
2328
2366
534
722
80000
absorbable
administratively
anchored
annuities
arrives
asecna
atp
attaches
attest
auctioneer
beneath
bermuda
bhutan
bkd
candy
centimetres
constrained
cooler
cure
dad
depositor
disorder
dormant
dramatic
faba
fata
fis
furthest
gama
grantor
guitar
hydroxyl
ignalina
incinerated
kr
laceration
larco
lengthy
locating
lucky
mai
meanwhile
mingalardon
misled
naim
ncd
noils
o1
pioneer
plaque
promising
questioning
recharging
reconciled
refilling
rudder
safekeeping
sails
savory
seasoning
srtt
stoichiometric
straightforward
striking
svt
sweets
tegument
thorax
viig
xpress
##68
##82
##ab
##feld
##typevalue
22nd
2h2o
4127
64742
academia
actuating
aetr
ally
amis
bedlinen
bidets
breasts
byalyatski
carving
celsius
cftc
conferral
cstp
daylight
defenders
determinants
disturbing
dourine
dsd
echr
endosperm
erase
erlenmeyer
expropriation
flocked
flowmeter
fragment
fronted
gesetz
hydroxybenzoate
imputation
insists
je
jointing
lates
linden
lion
luminaires
lysyl
magdeburg
moselle
ofi
p3
plum
previdenza
reaffirming
restrained
roussillon
saar
scholarships
shortfalls
sizeable
slovenska
somewhere
sophia
sousse
spectra
subregion
sworn
thermometer
tinted
towns
underpinned
vertebra
wak
westfalen
##cy
##vich
100620
12°
1832
1920
2497
705
8542
995
adt
agronomic
akzo
anaesthesia
annuality
arrivals
asparaginyl
aust
beacons
bmf
bosch
buckles
bystanders
carbamoyl
castanea
chimney
church
cobra
collisions
crankshafts
crinkled
eumc
felling
fitch
frontloaded
fsa
fusarium
ges
honeycomb
ideal
ism
jallaloudine
l3e
legitimacy
liquefaction
melted
microvolts
monopolies
nk603
noticed
outs
paul
pepino
pleuropneumonia
prickly
prudence
safeseanet
sap
shrinking
shuttle
situational
soy
sspe
sst
std
surrogate
tamping
thuringiensis
tibia
tren
truly
truncated
unanimous
undisclosed
unsorted
vienne
wa
zachod
για
по
##cs
##ement
##onium
##sheim
##е
1053
1515
1668
1750
19th
1rs
2150
2826
55°
accuracies
acf
aggravated
ambulance
annotation
antisera
ares
arfea
authorizing
beauty
bhv1
biochemistry
butene
calf
cheroots
climbing
complexes
cupric
defrosting
dispersible
documento
enumerated
etudes
existent
faculty
fattened
graduates
icj
incurrence
infratil
jumbo
ki
narasin
naturschutzgebiet
oceans
override
psps
pumice
rearwards
refundable
shan
shipper
statistic
sustainably
tint
trainee
transparently
unimpaired
vitebsk
waybill
yen
zabul
zoos
##ire
013
1233
1247
1275
1276
1286
1464
16b
21st
3501
5911
837
9a105
adhering
adolescents
alyaksandr
anexo
ayadi
bioking
campania
carbio
cartilage
cater
centrale
cheque
concealed
contexts
cravats
cropscience
denoted
dichromate
dqm
eesti
entra
extractors
fisherman
formalised
fumigation
hakim
hangzhou
hg
hm
ignore
incandescent
incubate
inhibitor
innm
jasmine
joinery
kyc
l3
mach
mahmoud
manila
micromole
mortar
muscat
neo
oth
outbound
piezoelectric
postponing
prolonging
prunes
recognizing
refrigerants
reversibility
salinomycin
sarl
spelled
spinosad
splits
stained
taught
titolo
tnt
tripartite
turbulence
unrated
valerian
validator
vein
venice
vrs
ylamine
##chen
##ere
##nium
##pride
008
0102
0206
10011100
1388
3m
688
8537
aebs
antidumping
apt
arhitectura
belgie
c0030
cardamom
catgut
ccimp
chromatogram
contended
copier
corrosivity
discontinuing
diylbis
doctoral
fabs
fatf
ferrite
finals
forty
furnishings
gradiometers
hoof
hydrates
icp
illegitimate
inevitably
internationalisation
islam
ituri
jam
kneading
muitas
mutant
n6
ngp
nrsc
oi
oilfruits
oocytes
papaya
pbn
pflp
phonogram
pleading
policyholder
prion
recommending
recycle
refractive
renal
reorganisations
saccharin
sayyed
sewn
soup
ssf
standardising
stipulating
stitching
stressing
surprise
thiabendazole
transfusion
triadimefon
typewriters
unconsolidated
virulence
xxxx
yam
##ization
##ona
##rio
##sing
00a
2103
8a002
906
9a007
aesa
alginic
allspice
antennae
arom
banja
bod
brassieres
burial
captivity
caravan
cargoes
carotene
carved
ceded
centro
chem
chlorantraniliprole
crowd
dashboard
depleting
dtex
ego
eng
eviscerated
excuse
fitment
hauled
humanities
jamaica
louis
lowland
methylamine
mlb
mole
nat
neighbours
nitrification
nullity
offline
oltchim
oxoethyl
pannonian
penaeus
portability
potency
preforms
produktu
quench
ranks
reconnaissance
refinement
regierungsprasidium
salvage
sft
storer
sufficiency
supposedly
tackled
talent
treats
unlisted
unsubstantiated
winegrowing
wp29resolutions
##400
##ammonium
##profen
##verine
10011900
1089
1148
1201
1237
3504
4128
7°
864
9001
abusive
accords
alkanes
alloying
anniversary
annuum
bromadiolone
bryne
calendars
careers
celeries
cichorium
compagnie
cops
countermeasures
deformations
ehealth
elderberries
erwinia
exceedance
fahd
federally
fluazifop
hircus
hsen
hydrogenorthophosphate
imazalil
indemnification
initialling
lecithin
luminophores
magyar
maharashtra
marne
medlar
mingala
modena
mumbai
mutants
noael
nobel
oas
oleracea
oxopropyl
perforations
permissions
piedmont
ratite
reactivity
reducers
renegotiated
salmonidae
secours
seleka
sepedonicus
sorption
stairways
stoneware
tayassuidae
traffickers
tvo
vtg
williams
xanthen
yloxy
yy
##54
##ay
##ethanol
##nen
##red
##tone
##zing
1344
1365
1513
3f
4088
569
984
acerra
allocates
ansar
aosta
apps
cad
callable
chromosomes
crying
dala
deadweight
deferment
delaying
deliverable
developpement
drains
embark
ex10019900
exhibited
flats
gtn
hamid
headphones
htun
inactivation
initials
inscription
ipcr
islamiyya
juan
jumpers
laiwu
languedoc
liferafts
livret
marshalling
mentoring
micronesia
micronuclei
oleoresin
opium
paramedical
picking
pullets
purple
regionale
resign
sanitaire
slower
sous
ssv
suzhou
tirrenia
tonic
topography
underestimated
vdm
vegetal
wuxi
##we
10021000
10029000
10070090
100a
1757
1814
2730
4001
4103
4202
5d002
775
832
8541
accumulating
actuate
anilino
aril
benzimidazol
brosmann
calculators
cdp
cfcs
chromaticity
comprehensively
conformation
csf
doppler
dregs
dummies
e3
editor
eesc
efficacious
engineered
ethylenediamine
f109
flotation
flywheels
folgend
fourteen
fu
ga21
guys
hares
hindered
humanity
illiquid
illustrations
impartially
impregnating
incinerators
indeterminate
inhibit
irl
kd
ltg
manuscript
marital
membered
methoxyethyl
nectar
nikolaus
oga
outsource
reticles
rom
sardine
sccps
scher
stud
taag
tester
tibetan
totalled
traits
walked
warned
warships
waxy
weren
wilful
ya
øø81ø
##4000
##ding
##fen
##ides
##iu
##len
##o00
##up
006
02062991
1472
1510
1937
1943
1c002
2671
3906
678
699
776
914
ads
agrimonetary
anyway
apo
apportioning
approached
assert
avia
baler
branding
c1e
clouds
collaborating
collar
compressive
cornea
cpvo
csts
cybersecurity
danske
dentistry
disulphide
eatmn
exposing
flank
formality
grandfather
impregnation
inadvertently
juin
lda
legge
lobsters
loq
lupin
milliequivalents
mvv
nasser
ndir
nerka
outdated
pvd
pyrotechnics
refinance
regularisation
ren
representatively
republican
restart
rtve
shelters
silicones
sink
smoothly
stearate
tacit
tanchon
tryptophyl
turki
undermines
vigorously
yak
1105
5806
587
645
6487
878
ampoules
barroso
bq
brochure
brood
buoyancy
catastrophic
chia
composing
cor
crank
crete
culling
dariah
dense
derivation
eous
expatriation
faecal
galley
groves
guernsey
gyi
gyros
hamas
harrows
homonymous
honoured
hood
ied
intelligible
isp
leveraged
magnetos
mutations
myat
ofifas
pallasii
peut
pfos
pigeons
pliers
plumbing
ppd
prohexadione
proposer
pse
radionuclide
recruits
rims
selector
setubal
sim
sprayed
stato
subpar
suppress
tamarind
token
toscana
towable
translators
transponders
tugs
unallocated
unrealistic
unreasonably
veneered
ventilating
viij
viik
workflow
##air
##strasse
1033
1131
784
8601
898
946
aide
aldrin
alta
amylovora
auditory
bloomberg
broiler
bunker
calcination
cassation
chalks
consensual
convince
cored
diazinon
disagree
dispensed
een
electrochemical
fk
fluorides
gathers
glucosamine
h4
hairy
hk
iip
impedes
implication
industrialised
instructing
iosco
isbn
izz
kenyan
khaing
lisboa
malaga
manning
maraging
marginalised
marginally
masonry
ml4
oily
plasticised
polymerase
prinz
produkt
realized
rebalancing
reintroduced
relieving
rfg
roughy
rozporzadzenia
rsff
specialty
staphylococcus
swept
tachographs
tacks
tannins
teleshopping
vinohradnicka
volt
wooded
woody
##gi
##nce
##oa
##ris
##urs
0105
0405
1294
1556
2146
3b001
8536
879
actinidia
affaires
alentejo
aluminum
anodes
attracted
bakred
capelin
castors
ccn
cispr
cpcs
criticised
damp
damplein
decentralisation
democratically
destroying
dipotassium
disembarkation
divergences
dredges
efsajournal
electrotechnical
enrolment
evaporate
excavators
fallback
finishes
fishes
fluorescence
forcing
gardening
gin
grawe
harassment
hexagon
hydroelectric
iac
idc
ignited
infcirc
interleaved
interpolated
iri
islamabad
keta
kps
lr4
masou
merge
mic
mila
milestone
narrower
necessitated
nur
offender
orchards
oversees
pahs
paintings
pedestrians
polybrominated
polyurethanes
południe
propanol
revealing
salting
sichuan
sm
soviet
stirrer
strata
strings
symbolic
tailors
thiocyanate
tltros
transactional
utilizing
viewpoint
virens
widths
##900
##azine
##jo
##nic
1144
1663
1c008
2195
8a001
925
aer
allayed
amplified
ani
appellation
ascertaining
astana
aureus
bail
behaved
booklets
c15
carobs
cedex
columbium
communal
cropping
curacao
cyclopropanecarboxylate
derailment
desirability
dieheads
emax
emulsifiers
endorsing
enisa
epoxypropyl
ethephon
ex1005
feels
fillers
finma
florence
forgery
fragrances
glucopyranosyl
hajji
hcz
hexa
holistic
imidazol
ineffectiveness
inverse
ionizing
jaw
lanolin
lcc
leakages
mdcg
metilsulfate
mfa
ministero
ml10
muscular
ordinarily
paramount
payam
pbt
photocathodes
policymaking
preconditions
protonated
rattan
rupd
sabotage
sapodillo
seiner
sif
sprats
stalks
stiffness
stm
sunset
telling
tianjin
tone
towel
tweezers
winning
wondered
workstations
yr
##cillin
##ius
##rol
0713
1084
1228
17011110
18th
308d
4802
9406
aeglefinus
beekeeping
bemps
benches
blotting
brest
c0080
calumma
chloramphenicol
clearer
clippers
combines
curie
debiting
degradable
dimethylcyclopropanecarboxylate
directorates
dispositions
dredgers
droplets
easo
fad
farice
finnvera
flap
freistaat
gigas
herpes
ieee
impedance
kingston
klagenfurt
lauryl
lichtenstein
mb
methylpropyl
metiram
noureddine
nw
ogac
pentaerythritol
perpetual
pleuronectes
regia
regie
reimported
safiran
selenomethionine
softening
stanols
sterling
sulfanyl
tdca
triglyceride
wallis
wedges
##aa
##ira
##ising
0001
10062017
1026
1193
1302
1394
21069098
29th
3207
4e
50co2cars
893
aberration
airpro
aldicarb
alizai
ap
appreciate
belgrade
bmw
bracelets
cantabria
carboys
comma
conditioner
congested
contam
contends
countermeasure
cresses
curricula
cxls
discarding
discontinuous
documenting
eca
eez
environnement
fdes
fertilised
flashlight
flonicamid
fri
girozentrale
htut
huta
ionisation
kigali
kstg
lately
machined
mfag
opak
packets
pavel
peste
petits
pfalz
phosphatase
piper
polymerization
prefecture
prepacked
publicise
pyrrolidone
quadricycles
questionable
rad
readmitted
recherches
refusals
resorcinol
rhenium
sensitiser
sensitisers
sepah
skating
slices
slt
sorbate
steers
stepped
straddle
stromnev
tbt
tlas
trainsets
unprinted
upholstery
uredbe
vesting
##her
##ran
0000
1683
1720
70000
7a003
905
aiding
alleviation
beaune
candida
carsid
cctv
coiled
confine
cornering
coup
crested
crusting
crystallised
dcd
deduced
depositaries
diagnosed
diligent
dross
dunes
eatris
eippcb
eleventh
expeditious
flageolets
gaye
gber
indentations
internalisers
karl
kisutch
lavatory
lch
legumes
liked
locator
manpower
nvr
orthophosphate
ostrich
overpayment
pfcs
phones
phonograms
pirbright
pregelatinised
presupposes
reactivation
registrants
reinforces
serviettes
sfi
shenzhen
stc
summoned
sunblinds
swallowtail
switchboard
syndicat
tas
timelines
touching
trapezoidal
trichloride
varnished
##ija
##rn
##ros
1670
17029050
1c111
1er
3220
4g
50°
739
acesulfame
albacares
alkyldimethyl
anonyme
archaeological
artikolu
asker
bdf
bottoms
camara
camel
candelas
cannabis
carbaldehyde
carpentry
cgt
cleavage
closes
coaching
componenta
crystallisation
deleveraging
densely
depopulation
dining
distributes
economia
enrolled
ethernet
extractable
flashed
flh
fulfill
hardship
hearth
hosts
ibp
improperly
ipeec
kai
krona
lashkar
latakia
mahogany
maximal
micromesistius
midwives
nationalities
nominee
oreur
pedigree
periphery
phenylbutyl
phenylethyl
phthalates
plenipotentiaries
prm
pusher
qods
ram
ripening
rsdr
sandals
setts
sfc
shampoos
snub
soccer
spindles
spm
successors
sy
teats
thyristors
triazophos
uplift
vallee
ziram
##200
##ist
##lan
##olone
##tidine
##ui
##н
0203
0403
0801
100200
10071090
1174
1396
14000
1c351
2062
2b201
3824
5605
8486
947
alphabetic
bef
bentazone
blowing
breaker
calved
cation
clams
combinational
contaminate
coupler
csirts
csms
dampers
deggendorf
designator
dues
esfenvalerate
ex1007
extremadura
fca
finavia
fom
fosetyl
fungible
fy
gang
hippoglossoides
hoist
hydrocracked
inch
insularity
invertebrate
irradiance
irrevocably
isothiazol
kiss
landesbanks
landlocked
latifolia
latvijas
literary
logarithm
mandalay
mars
misappropriated
mne
mondial
moon
mutagen
nagoya
nigra
otb
phytoplankton
polyacetals
polybutadiene
porosity
probank
proceeded
progression
prosecute
rectifiers
renounced
responds
rhodurus
ripe
robot
romo
salam
searchlights
sheath
stal
stir
substituting
sulfur
suspends
tay
telegraphy
tinned
toepassing
translucent
treves
tsa
unplanned
vh
vocs
whiskey
wol
xylose
##ard
##ego
##lis
##mm
##propane
##sky
##tum
##ville
011
083
10079000
1860
2096
21069055
3102
3513
697
abstracts
ain
alalunga
andalucia
andean
apas
badruddin
bayern
borate
bourgogne
brooders
bullion
cachets
cect
chromosomal
continual
contravene
copyrights
crate
cremona
dahir
deepen
e85
economie
enc
entitling
eurls
ex10019120
fbos
flashpoint
guttering
hydrazide
icts
idem
indre
injecting
insight
kjeldahl
ladders
lizards
melanogrammus
mls
moe
moiety
nasiruddin
nationwide
nkunda
notary
nsg
nz
octanoate
ope
pastures
peeling
pems
prosecuting
provitamins
query
r50
reunification
scattered
sediments
sejm
semiconductors
senegalese
snowmobiles
solders
subgroups
subjective
sulphonates
uncorrected
upset
zin
με
##ang
##ham
##mann
##ose
1112
1176
1933
agb
agonists
albanian
aloe
alumix
aspiration
azide
backwards
bc
berg
bizkailur
breaching
broadened
burns
cardiovascular
cot
crowding
cyclohexanone
degradability
dimensioning
disablement
diurnal
dynamically
electroplating
engraulis
ente
erection
erf
etf
etso
executions
fcm
fillet
funeral
gok
habib
inferior
jojoba
jordanian
keel
kephir
maiden
meq
moments
nitrides
nordrhein
pais
paramilitary
participatory
platessa
pomegranate
pornography
połnoc
procymidone
prone
qmp
rbg
republika
rightholder
routed
sante
scourers
seismic
shielding
shuttering
spaghetti
sporveier
t2m
tad
tars
tyrosine
veterinaire
wassenaar
ze
zus
##300
##ax
##ial
##nik
##sin
##т
160000
1f
2105
2401
2707
943
affordability
aircrew
alava
aleppo
biaxially
bioenergy
boom
buried
ceasing
cloacal
coagulation
conc
consiglio
contactors
coreu
cour
cybercrime
cyproconazole
demonstrable
diarrhoea
dicofol
disruptive
dot
dsc
ecopoints
ehd
embodied
engraved
erip
ffs
flattening
galloon
god
guilloche
hbs
hoes
immuno
irritancy
kaunas
lao
larval
leguminosae
leporidae
lolium
metalworking
nach
nitride
parnes
penalise
permanganate
phytate
pilchardus
policing
prints
privatise
pulverised
retaliation
rhizomes
sardina
scared
secretions
sint
slovenije
subtraction
tenure
tightening
timeframes
undistorted
vermiculite
wallets
watchkeeping
weakening
##2010
##aniline
##ging
##gs
##osa
##ver
1044
1560
2430
835
8d
959
9a106
accommodating
acetals
alaska
amaranthus
amin
amp
atlas
attempting
babassu
basque
bbmri
c13
c30
campestris
chances
characterization
cnrc
communion
concessionaire
consulates
curly
cuttle
databank
depended
differed
drifting
efc
elga
enel
epidemiologically
evade
excited
fahid
fourier
fujian
g2
guy
h360fd
halves
haulier
interferences
io
isostatic
isovalerate
ln
medals
mogadishu
mortalities
naja
nf
nitrogenous
oscillators
paulo
pca
pentaoxide
peugeot
polycarboxylic
prevailed
promises
psap
puma
qualite
rags
realising
reconditioning
regret
reopened
sailboards
scrapers
sdn
seoul
sn
sogepa
spur
subtilisin
tendons
viewers
vtesse
webpage
xenon
yyyymmdd
##idene
##od
1078
1483
1706
3577
695
allergies
arp
backward
beets
belge
bumble
cbd
cephem
chlorpropham
cir
complicity
comptes
constancy
crf
crush
cvr
dicarboxylate
dichlorvos
differentiating
digitised
disparity
dominica
dosed
eae
embryonic
esfs
essent
fastenings
fixings
fluoranthene
foreigners
goldsmiths
guipuzcoa
ibcs
ibiden
indica
irritants
kaba
kappa
loligo
lts
macrocarpon
malus
meadows
mostafa
mtom
nephew
ngwe
nonyl
notch
pelvis
phenethyl
phosphor
php
polyamines
polyphosphates
prum
reflectance
refractometer
republikas
rex
risparmio
ros
rosaceae
saddle
sars
seizures
silversmiths
soaps
survived
tabs
tmk
transistor
umar
uncut
unmatched
veins
venting
vermouth
viic
vinho
waged
wetted
wherein
yn
##llo
##lone
##ral
##sberg
##use
1466
3405
3924
6c
7747
902
9a108
abdomen
ahoy
argumentation
autocela
b20
barred
beside
bodily
breath
cassia
cofa
computerized
counsel
debates
eigs
electrification
elr
expecting
farligt
fondation
frit
gj
gorbuscha
handheld
impressions
inactivity
indefinitely
isf
jar
journalist
looms
luminaire
mca
metier
nnn
nucleus
octahydro
onshore
ordinates
pentahydrate
pesca
photos
phthalic
plasticiser
presidente
preussenelektra
raft
reinstated
sayyid
scanned
showers
sines
sporveisbussene
sprouted
src
sudtiroler
summed
surveyors
syndicate
syringe
tapioca
tbn
tens
tierra
tryptophan
tschawytscha
tunnelling
uavs
vetch
victoria
##enberg
##ets
##gas
##ize
##mic
##ries
##via
170°
2597
27a
3508
4112
579
783
845
9405
adjoining
adjuvants
annualised
ashes
asp
azides
braids
bronze
buprofezin
classroom
consented
cui
cyprinus
dalis
dar
decommissioned
descriptor
diabetes
discovers
drank
elastomers
eltifs
esfahan
evaporators
evergreen
fluroxypyr
foresaw
fundacion
hkhs
hrodna
informatics
insurances
internationale
iodo
ivc
liquidator
manifests
mdf
mingalar
montana
n4
natanz
nfcs
nicarbazin
nom
notaries
opacified
opr
pebbles
pedro
peppermint
perfume
phosphonates
plausibility
polymerised
poutassou
precaution
recertification
resembling
responsabilite
rhin
saderat
scarcity
serotyping
skid
slovakian
sonar
ssss
symmetrically
taung
transnistrian
tuberosum
tuvalu
umehl
vane
wasting
weed
willem
xylenes
##cao
##des
##name
1034
1040000
1279
1713
1940
1a004
8447
8517
9401
alabaster
analyzed
animo
ao
aug
aw
beetle
botrytis
buys
carnets
chilean
conduits
cyazofamid
deferrals
dioxolan
diphosphate
disassembled
diving
drax
easi
elv
emea
emitter
enterobacteriaceae
etops
factoring
federative
fogasa
fuse
gecb
haqani
incitement
inlaid
investigatory
koi
l4
ldc
ley
limed
michel
microfilm
necessitating
opacifying
packer
pcns
pec
petit
photocopy
plastering
pop
printout
qaeda
rahim
recyclable
relieves
republique
rhein
samir
scenery
sealants
shipboard
silicides
smelt
squalus
strikes
superficial
tsai
venturer
wetting
whale
wideband
xia
еоод
##dal
##hr
##ola
##omycin
##pp
##ser
##sulfonyl
##yi
009
1065
1079
1149
12v
1576
17023091
1g
3401
3800
6a004
843
acacia
academics
acetylene
adn
ako
ambassador
amps
b12
bilbao
budgetaire
butylphenyl
ca5
cacl2
ceric
cft
coface
colobus
communautaire
conformement
conglomerates
cotter
cria
debris
deliberation
depenses
directories
ecm
emsland
exp
flusilazole
foresight
freshness
g20
gaiters
genome
grd
gy
hatred
horned
iacm
immobilizer
imperial
isa2
lmp
malate
medaka
miram
momentum
monuc
negligees
nematode
oscilloscopes
osi
osier
overdraft
prejudiced
preserves
professor
redistillate
redistributed
relay
rowing
sapwood
savoie
sctc
shaikh
sorbates
stretched
swing
tattoo
taungnyunt
trifluralin
unattended
unset
volunteering
wnte
øøø21
##1090
##ida
##illin
##ks
##nu
007
1360
1624
1e
51°
738
87427
89ø34
agglomeration
amisom
anova
ascribed
availabilities
bashir
benzimidazole
bnetza
breasted
bt11
bubbles
butanone
camshafts
cereus
citing
citricarpa
cmhn
completes
cullet
damper
decay
deeper
depreciable
descriptors
difluoride
dispatcher
ecvam
emitters
emphasising
encoded
engagements
equestrian
exacerbated
fluopicolide
frying
futuna
garantie
garonne
gd
george
halogens
handicapped
hare
homopolymer
icpfs
immunoassay
infringer
isu
iz
kc3
lacked
lightly
linuron
macaronesian
micromoles
mo
murcia
ninety
obliging
omit
overlying
persulphates
pes
phenylamino
planet
postbus
posterior
prescribes
pssm
pupil
quo
replenishment
riak
sclerocactus
scrapping
searched
shunting
sions
staggered
tachometers
thymus
timescales
toothfish
twofold
um
underlining
underway
unsweetened
whales
##hus
##ien
##ische
##ming
##propyl
##tan
1521
1781
4397
899
acidilactici
adipate
aluminides
ample
avert
avionics
bells
benzamide
biased
booklet
bozize
brominated
bumpers
castrated
cbrn
cbsa
chainsaws
chaps
coercive
collaterals
controllable
coreper
cruz
degrade
dehydration
desiccator
diglycerides
downgrade
downsizing
env
etching
ethofumesate
excavating
exercisable
fame
fathead
fixative
fp
furyl
guangdong
hammar
hampered
heptan
hev
hfr
histomonostats
hitherto
hq
incapacitated
industria
initiator
inked
intybus
lun
mapped
microchip
minimises
multilocularis
musk
newco
owe
paging
penetrating
pentan
pessimistic
plasters
positives
premise
protest
purge
pyrrolo
rewinders
roce
rwandan
salaris
saskana
sepia
seryl
stabilizer
tellurium
tetrafluoroethylene
topographical
tot
toxicokinetic
triazolo
tune
uncapped
veolia
volkswagen
watercourses
##com
##ert
##lor
##ua
##η
##о
1004
1543
1588
1a002
2187
2423
2b352
38a
75000
8e
alaninate
alicante
bandages
benalaxyl
bpa
bromides
bulldozers
bunch
c0040
chlordane
cirrs
confident
contend
converts
corfu
denox
diethanolamine
dispatches
dispersal
divorced
downlink
elastolefin
equilibration
expo
extrapolate
fas
fences
gearboxes
gels
handing
hauls
hcfcs
herewith
humanely
idf
intermixtures
iteration
kiwifruit
lagomorphs
litchi
lr1
mandrels
methoxymethyl
microsoft
miel
mineola
mounts
naphthylamine
nullification
offenders
organizational
otf
outliers
pac
pertain
pharmacists
pleased
polarising
propanoate
protracted
punches
radios
reallocate
removers
rfmos
runner
sauce
scanner
smi
substantiation
superfluous
territorio
therapies
threshing
tiger
titrate
tuifly
uncertified
unclos
unglazed
unrecognised
untwisted
uploaded
usoap
vet
wonderful
ylazo
zgodnie
τησ
##fibrate
##nsis
##tas
0714
1041
1090
16000
1803
1c210
2102
45000
73°
abolishing
ace
acibenzolar
adp
adsorbed
affording
alanyl
azido
barometers
bnb
bouquets
breakthrough
cationic
ceding
cem
censuses
chiller
clark
cleanliness
congresses
cotters
cyclodextrin
deceptive
delicious
deported
derogates
disaggregation
diversifying
ebit
elbow
encapsulated
enhancer
ercc
eurobalise
exclusivity
exogenous
experimentation
frond
fume
furthering
guardian
handover
iic
iid
incentivised
kozloduy
landsbanki
lip
liquidators
logar
lumen
lur
mat
mba
mcc
meis
metro
microscopy
militants
nama
obesus
oiv
overcoming
pedals
peroxidase
polyethers
portland
progressing
projectile
prospecting
protease
provident
reef
reserving
reviewer
rte
saleable
sam
scrag
scs
sel
selectable
sra
sterol
stimulated
sutures
syringes
tamwe
telephonic
tipping
translating
tuscany
vanillin
viet
vrd
vts
zagreb
##ban
##done
##fer
##meter
##oni
##ties
##tu
1020
11992
1731
2916
2937
4130
927
979
abbas
abused
acetates
afrique
anonymised
arbitrarily
availed
b2c
boldak
boulevard
broking
bsm
c0100
cheaters
chocolates
conscious
corynebacterium
dazio
dimethylphenyl
dsl
eip
enemy
equalling
exchangeable
fo
freed
genotyping
glp
hanks
harvests
henceforth
hydraulics
ignite
inductively
influx
instrumentalities
launchers
mcv
megrims
mepanipyrim
merlangus
ml1
ncyc
offensive
pangasius
parentage
phosphonate
possessed
pps
propanaminium
psu
pulling
shaykh
solvay
stuck
submarine
tablecloths
tabulated
technetium
teschen
tolerant
toxico
tps
tractive
triethyl
uan
understandings
unembroidered
unrecorded
valuing
vanes
worsened
zebra
zimurinda
μvar
μνar
##ado
##ary
##azo
##ern
##ful
##nis
##ons
075
1061
1192
1194
1208
1310
3037
61000
8527
acanthias
advocacy
affirm
anas
antioxidant
barthelemy
betaine
brick
ca2
caseins
conception
condemned
coumarone
couples
covenant
customarily
d50
dancing
dichlorprop
diquat
divider
divisional
eed
ethoxycarbonyl
euphausia
executable
fibreglass
finality
firenze
flowrate
fried
ftu
gli
grounded
h3
haq
herat
histidine
hrms
hsan
iiid
kaliningrad
khalifa
koc
lte
modulated
mopsc
mucous
n46
nauta
nrv
overeenkomstig
oxazol
pandemic
patch
peso
phosmet
pickets
potentiometers
predicting
prince
prisons
quinoa
rdf
remunerate
replicated
riveted
runiga
sanguines
saponification
seam
sez
sigmet
sine
sociedad
softshell
sovello1
stance
stigmasterol
submitter
superba
supermarket
synthesised
tan
terrible
underside
uop
upload
warszawa
waterline
woodland
wrj
##ans
##ber
##king
##lu
##o3
##ren
##ru
##sh
##time
1298
1347
1492
1883
2104
2424
3105
566
993
abss
advertise
airside
alters
amateur
anchors
aplicacion
aweys
b7
butterflies
calculator
cellar
cervical
charente
chickpeas
circulators
co2eq
contacto
contradicts
cornerstone
decoy
demisting
dichlorobenzene
diphosphorus
discover
doit
dolphins
douro
equipments
ergonomic
ethoprophos
fluctuated
formamide
fotball
genital
giftig
gloss
glyceryl
ig6
ikke
inefficiencies
jcpoa
kakar
lifespan
limb
localised
mepiquat
metallized
microcrystalline
nastepnie
nuisance
optics
osinek
outfit
outokumpu
overheating
paired
persian
pirimiphos
ploughs
pockets
ppps
preliminarily
qasim
rainfall
readmit
reeds
referrals
reflections
reinhardtius
retroactivity
rsi
silos
simulants
skeins
societes
spiro
spotlights
staf
sti
stif
sunka
supersedes
tampere
torino
uniforms
valyl
warehousekeeper
weeze
widow
xylan
##020
##700
##ator
##hip
##if
##iii
##ske
##ych
1336
1643
1c007
2134
2407
2g
3605
3913
4217
5m
5w
8519
8535
989
aggravation
anatomical
aprons
arcticus
arresters
astronomical
awot
banded
basing
beat
bft
bladder
boa
bosco
brisling
collusion
corms
counterbalancing
crassostrea
dcas
decrees
deepwater
desktops
detonator
disagreements
dmos
duplicates
eliminates
emulsified
esu
ethanolamine
everyday
evidencing
fahad
famoxadone
fatmi
fda
ferm
fius
fouling
fyrom
gaz
glued
headspace
heap
hind
htwe
hydrants
ibc
idac
inducements
intimidation
intrastat
joins
lcr
leidschendam
leveraging
liberal
lodgement
luis
malic
maximus
methylpentan
napus
novo
objecting
obstructed
pastels
pepsin
peptides
phenylalanine
predictions
propanediol
protector
prototypes
purees
radiolabelled
radiotelephony
rainwater
reflux
repurchased
rheostats
rocking
ryegrass
sal
salah
scotia
silencers
simulcast
stroboscopes
sublots
sulfonatophenylazo
thar
transitions
velvet
xylophilus
##date
##iana
##mu
##og
##pt
05849
1322
1374
1458
17th
1858
2894
3000000
36a
5906
7110
7a117
818
8444
983
988
abderrahmane
acea
acyl
airfield
androgenic
annealed
assuring
balers
barracks
bisulphite
boatmasters
braided
bromomethyl
burmese
burr
bursaphelenchus
camellia
canola
captures
cetyl
chf
chromatograph
continent
culinary
cyromazine
debentures
dept
devrimci
dgac
dictionaries
dieser
embarked
endogenous
esparto
etoxazole
eurobank
europeen
excitation
fead
franchise
giro
hamed
hammam
harder
hash
hostilities
iho
incision
infestations
inhibitory
intercept
japonica
jax
licheniformis
lithography
longevity
lord
magnetometers
mcpd
methoxyimino
molise
mss
muhammed
mv
nerve
nge
niloticus
oligosaccharides
overshoot
padlocks
pakhuizen
paralympic
parte
pastilles
pnd
polysilicon
presidium
radical
recipe
resellers
ress
satar
scarlet
scent
scotch
seaport
selects
setpoint
silo
sld
soaking
squeeze
studios
sw
takhar
tasked
temperate
tenants
terre
tightly
tillage
tinplate
triacetate
unearned
url
±2
член
##dos
##ees
##eni
##ft
##ico
##izing
##ld
##ley
##ovo
##tta
1102
1180
2287
2666
3701
4114
4129
816
962
9a116
absorbence
airspeed
aliments
ansi
asep
assigns
autorite
bakr
basketball
bavarian
bcp
benzotriazol
ber
bottomed
brescia
btps
campo
carnation
caso
cepa
chlor
comparatively
contaminant
corsets
curtailment
debica
decarbonisation
dgs
diallyl
dicentrarchus
dioctyl
drastically
echo
esd
eucalyptus
fenitrothion
fide
generous
grammes
gratings
grt
gtr
heg
hydrobromofluorocarbons
igor
implants
inductive
initiates
insoles
intercepted
landfills
leste
livelihood
materialised
organize
penetrations
perfluorocarbons
perpetrators
phytostanols
pitcher
polarisation
polyoxyethylene
postale
profiled
profiling
quadrant
rcd
repaying
ribes
rtbs
santo
sattar
scoreboard
scrutinise
serra
shig
sketch
smd
snacks
soiled
stairs
streak
stripline
subsidise
supercomputers
tethered
titrated
trainer
ubezpieczen
undated
unequivocal
urinary
vascular
vasteras
##bs
##cc
##ism
##mia
##nio
1070
1121
2783
30th
3215
350000
7005
897
alkylation
auditee
bnøø4
bpb
broadest
butyrolactone
calibrations
carrot
catarina
circling
cite
colorants
comonomer
concessional
concurrence
contaminating
csdb
cuff
deraa
diazo
distil
dying
earthenware
eats
edamis
electromagnets
elevage
empir
ethion
euramet
euroloop
executives
experimentally
faroes
federated
hama
har
harmonics
hexavalent
hydrides
hypotheses
intervened
james
jig
killings
lifeboat
lineside
lme
lpd
meadow
neurological
occupies
ombudsperson
otsc
oxalate
pensionable
prejudicing
rains
reliefs
remunerations
riva
riveting
salvo
soreni
statens
sulfuryl
talc
taller
tetraborate
tetrahydrate
transited
tubs
undoubtedly
unmarried
unrepresented
unscrs
utilized
vitae
waidhaus
xib
το
##benzyl
##cainide
##don
##du
##ible
##quine
##stein
00c
035
1056
1076
1173
1274
1425
15031
1798
5903
5c
8445
957
9a008
aegis
agitation
ales
annotated
anticoagulant
aokang
aqua
azot
boyfriend
ccc
clanku
closeness
communaute
compacting
councillor
cumul
declines
decoding
diacetate
dichloroethane
dinoseb
dioxan
disengaged
eradicated
eti
exhibiting
farthest
fenhexamid
filipino
floats
flooded
forster
frtd
fsg
g25
garware
gossypol
haj
hampering
hfc
hsb
ibb
intranet
ispa
ita
jacques
koh
laptop
lpai
luck
maceration
meso
metaldehyde
methylbutyrate
motive
mountainous
multimeters
nanomaterial
northerly
nosed
offsets
peach
personam
photocopiers
piel
pier
planar
plea
positional
professionalism
purslanes
pye
retrofitted
riboflavin
sbr
sdi
sgp
sigma
signalled
silyl
solidified
spectrophotometer
spontaneously
strait
tastes
taylor
trichloroethylene
vitrifiable
wallet
weaken
weighs
welds
wholesaler
winemaking
zakon
ρετσινα
##aan
##ford
##hl
##pyridine
##rum
##zed
10000000
1055
1486
1822
1859
1902
1c001
2236
2300
2347
2b350
aboud
accordions
acetaldehyde
aktiengesellschaft
allergy
alleviating
anaesthetic
aoel
apricot
armenian
assetco
attache
attests
barely
barge
bcop
bem
benzodioxol
biotoxins
breton
brewery
c0160
c0280
cancellable
cantons
carbaryl
certificaat
checklists
chemie
cns
coggins
constanta
convoy
cri
cropland
cved
darkness
dip
dirigibles
distillery
dynamos
enoic
faa
faction
familiarisation
fazul
forefront
frce
gastrointestinal
gavage
gbq
gerona
glutaminyl
h372
helpdesk
inadequacy
insufficiency
intercommunication
interrelated
invoking
itemised
jujuy
kidnapping
levers
linearly
metrafenone
millilitre
monohydrochloride
muito
nameplates
naphthol
pagal
parasite
pearle
polyols
prazska
reiterate
rheinland
sab
sahara
sau
seeders
sidewall
smelters
sponge
sulfoxide
tassa
tempering
thet
thienyl
timer
trolling
trophic
underneath
unmanufactured
unsaponifiable
vertebrae
vyrobky
yuan
##benzaldehyde
##med
##non
##op
##ort
##то
1153
2298
2b009
4166
9018
9404
abstraction
adventitious
altimeter
amr
antlers
artist
asti
backlight
backlog
benzisothiazol
boscalid
byrne
c0170
calibrating
cea
cephalopods
colreg
commanding
compendium
condensate
crack
cyp
decisional
declara
desert
detoxification
direito
dispenser
dme
endowed
eumam
eup
fastest
flattened
flip
francais
freelance
fundraising
geasar
gesellschaft
glycols
gossypium
h373
harmless
homogenized
hydropower
hypophthalmichthys
illinois
instrumented
lab
lanternshark
layouts
manipulated
marjoram
marsh
mayen
narodna
nematodes
notable
notarial
novada
ofe
offerings
ouagadougou
outlying
permethrin
photon
poplar
propyzamide
quenching
rearrangement
replicable
responsiveness
ripeness
rtl
sacrifice
satchels
sexes
shingle
shotguns
sinter
sons
sundays
sunscreen
suppressors
symposia
thrown
trainset
tvdanmark
vkm
vpvb
wools
yachts
##dan
##for
##ors
##ves
##wood
##yang
055
1019
1232
1261
1792
190110
2182
2600
2b006
3208
6500
acc
agricultura
apprehended
australasicus
b737
bav
bazaar
bentiu
benzaldehyde
benzenesulfonate
busses
bytes
calm
capstans
cassettes
cologne
commandite
conditionalities
crowns
cs2
csi
cystine
deformed
deoxynivalenol
dm2
dokument
explosions
fadn
foraging
fountain
gir
glacial
globulins
graveolens
greens
hadzic
hatcheries
hostile
hpt
hydrocyanic
immigrants
inmarsat
inoperable
insure
interfaced
isco
jok
kelvin
konsum
l1e
landscapes
latches
linolenic
lugano
maghreb
maiming
manometer
modem
negligently
negliges
opco
overly
oxazolidin
pat
patches
pavlov
penconazole
pericles
placements
pmse
pnc
q1
radicalisation
realisable
reflectivity
rider
sail
schema
slab
smile
solidification
spf
spruce
supermarkets
sweatshirts
ticked
ticketing
torres
transcripts
underemployment
uneven
unsplit
ussr
varese
vbb
veto
vitrified
wedge
##8000
##ach
##bes
##iv
##mate
##uk
045
11452
14040
1419
143b
17023051
1794
1b001
2207
2211
2932
4303
4a003
888
9503
abrupt
acaricides
alkylnaphthalenes
annular
apex
apu
aum
badly
bagasse
banning
biota
bombing
bona
c0090
cabins
chit
congenital
delhi
detain
divinylbenzene
domestica
erence
evaluators
fagus
flies
fluxes
funny
gco2
gems
gif
glace
gluconic
halls
hauling
hydrometers
hygroscopic
importations
inconvenience
infrastructural
inte
isophthalic
jamming
jokes
judicata
liquidate
maleate
mbh
mitsubishi
multiples
naming
nicht
noil
nomenclatures
oval
patented
peaked
pectic
penicillins
pentosaceus
pfc
pfs
praha
probabilities
psv
punctuality
raffinate
rangefinders
resisting
restrain
retreaders
rhodium
s9
sauter
sem
shakes
shingles
shougang
sia
sighted
sniace
suspenders
tara
thomas
throated
timisoara
transits
triforine
tsl
uncoloured
unquoted
unscheduled
viktor
vitellogenin
vosges
warmer
yukon
zay
##ag
##ance
##indole
##none
##oxime
##ret
##thio
1028
1091
1295
14b
1559
2905
4as
919
9603
acknowledgment
anticipating
apache
aunt
beers
bereich
bergamot
bhd
blanc
bomb
borides
boxer
buffaloes
c0140
carboxymethylcellulose
cardiac
caterers
cbrc
cdm
chlorophyll
chrysogaster
crocodiles
ctenopharyngodon
cus
cyclohex
cyclone
decelerations
delineated
demountable
derecho
diluting
eccsel
ecowas
effectors
egovernment
exempts
expelled
f106
f600
facultative
fenvalerate
flexographic
flubendiamide
fluoropolymers
g1
g23
gnocchi
grapefruits
graphos
hexahydrate
hhs
humid
ica
imidazo
inaccuracy
inbound
ingested
injectors
islami
isobutane
isoxaflutole
joules
jura
krone
lampante
le2
lipids
lone
mabb
marches
mending
metconazole
methoxyethoxy
metritis
microtomes
minas
misfire
misrepresentation
ml5
nanotechnologies
ndc
neglected
nemo
neutralization
nric
paraformaldehyde
pcts
pfge
polluted
prospectively
publicised
puzzles
pyrithione
quinoxyfen
r0100
raspberry
refuge
residuum
retracting
rises
ruf
separates
separatists
sid
sixteen
solemn
stigma
tasting
tbe
thinners
thuringen
thymol
trailing
transitionals
tribenuron
turnings
twigs
unaware
unusually
unwarranted
urophycis
valuables
vlaamse
watercourse
westerly
μpa
##450
##600
##aria
##azole
##carbonyl
##ersdorf
##field
##floxacin
##gia
##head
##lamine
##mes
##ology
##sta
##ute
##ven
1209
1775
1870
1890
1899
2090
2712
4138
4cb
acoustical
addenda
aeolus
aereos
aft
aprc
assimilation
balaka
brachyura
butanediol
butchers
cavities
ccnr
cetaceans
cf4
comite
cookies
crispbread
crocidolite
cuckoo
derivatisation
determinant
devoid
discriminated
distinctly
dn
dph
eared
energie
enormous
epilepsy
epioblasma
esif
exhaustively
exiting
feeders
flutriafol
gecko
gewest
gravimetric
halon
headcount
interdependence
interlinked
irreversibly
isv
koruna
magnification
manuel
massage
mbas
mir
mlc
mns
mobula
modality
morel
niet
nrrl
nuclei
ohms
opcom
originaire
outweighed
overcompensated
oxybis
parked
pathology
phenylacetic
phosphorothioate
picea
plantains
plantation
potentials
przedsiebiorstwo
pyi
quinolin
rc
rector
replenished
resists
retraction
returnee
rna
rust
savoury
sce
seac
sgus
skladu
slotted
sogaer
spanned
stalk
stk
subcontracts
substations
sui
taxus
terphenyls
troms
tumours
tvc
unconnected
undersized
unfortunately
unsetting
usefully
viper
wale
wetlands
ylmethanol
zearalenone
zeros
οινοσ
##cycline
##ein
##eri
##ities
##liche
##oid
##sch
##sel
##side
##ului
##ни
1245
1438
1485
1529
2033
2066
2101
28b
2b116
53°
781
7e004
ak
alkylbenzenes
anthraquinone
antiparasitic
arrests
artillery
athletics
baskets
biotechnological
breads
briefed
brygge
ccw
chiba
chlorfenapyr
christian
clarki
clockwise
confidentially
conjugate
corsican
cyst
darjeeling
decoquinate
deductibility
degreased
diaries
diflubenzuron
divulge
dogchews
edam
electrica
emamectin
eminent
enclosing
etmopterus
evaluates
fer
fireplace
frank
fungal
gilae
glaziers
gouda
heptahydrate
hty
hybridisation
idellus
imparting
implanted
interdisciplinary
inverted
ir6ø4
ist
kitchens
l5
laboratorio
listings
lycaa
magna
malicious
mammal
microcircuits
mitotic
monographs
montilla
mpr
ncv
nomadic
noor
nth
ohm
oio
overfished
pictorial
porcupine
postabank
pouring
powiaty
predators
pretreatment
pricewaterhousecoopers
pspp
radiotherapy
refilled
rejoinder
replicability
retardant
rfpa
sandefjord
silurus
smurfit
spd
spiking
społecznych
srt
sturgeon
sweepers
teat
thiamine
topside
uht
unjustifiable
valenciana
widen
##ating
##ht
##nate
##nde
##po
##ssa
##ye
##zepine
0104
1189
1213
1415
1642
18000
1850
1852
1923
2148
2152
5603
6701
8472
9d
a9
acas
aeronautics
animation
ascorbyl
assault
atrazine
basketware
beauvais
beira
bergen
biegnie
caan
ccbm
cents
cgmf
chlorates
comercio
communautes
compensates
conditionally
conifers
cough
cytotoxic
deactivate
decorations
discontinuance
distressed
dulce
elt
encounters
entrepreneur
espd
fairground
faithfully
floorings
flurtamone
focussed
h2so4
halted
hardwood
hdw
honeybees
ilcd
immobilisation
inaccuracies
inflammatory
ipc
issuances
jap
jti
laminaria
liguria
lingus
lorraine
macau
malaria
mariners
mda
medicago
meridiana
metaphase
methylsulfanyl
mincing
mites
monophosphate
moribund
nominating
notching
num
octadecyl
omnibus
opting
papilio
pefcrs
penalised
perforating
perigord
pf4ee
phenylpropyl
phosphatic
plateaux
posters
preconditioned
prefix
prolyl
promissory
propoxycarbazone
pyrido
quinones
rasff
redirect
reorganise
reporter
req
resell
rutshuru
saed
salvia
sant
ser
shave
sie
simon
skiing
slags
slates
spitting
staged
steviol
suitcases
thu
toxaphene
treads
twines
waveform
wco
whoever
witnessed
zirconia
łodz
##ale
##cus
##din
##ndorf
##oline
##out
##oxetine
0209
1319
1420
1a007
3204
34a
6e
7326
7f
80°
8443
8456
8501
928
985
absolutes
acm
addis
adv
aguabonita
alfred
amprolium
angel
anthracite
aplicacao
apologize
arabinoxylans
atlantiques
bathroom
bats
billiards
bled
brefs
bunkers
butembo
capitalise
carminic
carpio
cbm
ceska
cga
chemiluminescent
cislo
compaction
comparables
conjugates
deboning
delineation
denounce
destabilised
earthquakes
enacting
entre
este
ethoxyquin
favor
fenbutatin
finagra
flavours
galleries
galleys
galvanised
garters
gon
gramineae
greenpeace
handmade
hydrocracking
hydrolysate
imprint
inadequately
inboard
incrementally
ivf
jahnke
jurisdictional
kyauktada
leucine
lombardy
lon
lwtp
mainstream
malpensa
mdh
mellat
merlangius
midwife
minnow
monopalmitate
morpholine
mtfs
munster
neutralising
nyan
odds
ons
orchids
organises
ott
pastoris
porbeagle
potassic
precede
pulps
punched
pycnometer
quizalofop
raisined
rakya
razors
realize
recyclability
redirected
regio
retracted
safes
salads
salame
sca
scaffolding
schizochytrium
scrofa
seedling
semitrailer
solder
spider
ssrus
stapling
sulfamoyl
suspense
tegel
tele
thyristor
tilted
torques
tows
trawling
turntables
unpredictable
utensils
valido
##7000
##brunn
##ges
##lic
##mento
##tar
##zation
##к
11000
1161
1339
1500000
150°
1696
1841
1928
2082
2157
2205
3210
4117
5907
846
accedes
agr
ainsi
alexander
alfonsinos
aliquots
amalgam
ano
articulation
atsep
bactericides
bangkok
blonde
bowling
cacti
carotenoids
centrum
cephesi
chaman
che
claws
coherently
collateralized
constitutive
conversation
crest
culturing
deacidification
degli
devise
dhabi
dianthus
dichlorovinyl
difethialone
digitally
dimethenamid
direccion
drawbars
dsu
dyestuffs
dz
ead
earphones
efca
fenamiphos
fortunella
fvo
genova
grazed
hannover
i2010
iea
imazamox
inoculation
interdependencies
isomerisation
issiio
kerb
kick
lista
loaf
lymphocytes
marginals
mecklenburg
mediators
megrim
misalignment
montenegrin
moriles
ncc
ndrc
nitrous
obs
openly
phototoxicity
pnec
poorest
pounds
praper
preferencial
preventative
produkter
prohibitive
proxies
r20
rajon
rcg
reap
remind
repatriated
shabiha
sherry
sieving
sluice
sublimed
summons
sweetener
synergist
tug
unobstructed
urinals
vortex
watched
##cha
##eg
##gh
##oi
##san
##zhou
0reached
1170
1197
11°
1356
1375
1399
1558
1816
1864
1980s
1c101
2077
2110
2216
2505
2rs
2z
5d
7003
8402
89034
agonist
airbags
alk
assistenza
barges
bile
brosme
cairo
calibrate
canoes
chalcogramma
cigar
classic
colorant
communis
concordance
consciousness
contra
crayfish
diafenthiuron
diverge
doganale
dpas
drumsticks
duplicator
etalon
ethylamine
eurogroup
ewg
felts
fluoxastrobin
fondali
franc
fraxinus
gallate
grooved
handrail
henhold
hicps
hydride
iban
jinan
khaliq
københavn
landwein
laughed
liberalise
logically
lymphatic
maduramicin
mailbox
mead
methylbenzenesulfonate
mpl
nh2o
nii
nitrophenolate
nonylphenol
nzeb
oao
okkalapa
oleohydraulic
organismes
parana
pds
polychrome
połnocnej
prey
propene
qualifier
quoting
radiata
ravioli
regimen
relaxed
repackaging
rtf
sana
sardinops
semicolon
senc
sexually
shannon
shining
sinters
snc
snn
staircases
stansted
strategically
subtotals
sulfuric
summing
surrey
taxiway
tetrahydrocannabinol
theragra
tightness
tmg
trifolium
trolleybus
unbraked
vented
vinclozolin
wears
wei
wizz
xiamen
youssef
τοπικοσ
##hen
##met
##sche
##tel
##urea
##uri
##val
##vas
##wi
##zin
0303
1096
15b
1704
1828
19021100
1926
24c
3l
4119
8205
8522
9a001
a0
aan
affirmed
ametoctradin
applicazione
ascii
asic
authenticate
autoproducer
bankers
bdo
behavior
benzophenone
benzyloxycarbonyl
borderline
boreogadus
brassicas
buffering
cams
chemists
chitosan
cochineal
compositae
conf
conjugated
controle
cradle
csps
dentures
deserve
devil
disulphonate
dmf
dongguan
dunnett
elapsing
enac
energised
enlighet
enligt
ercea
evn
expedite
farid
farmland
filings
fiscalis
flufenoxuron
focussing
fundamentals
geodis
h412
handsets
helianthus
hindering
hissene
imdg
interbus
interpreter
irc
irs
itd
kashmir
lactuca
laminate
latif
layered
leachate
licenta
lupulin
luxemburg
marinus
maximisation
mec
mes
methylbenzene
michiganensis
moldovan
naphthylazo
nasr
nera
neutralise
nnkmh
nonwoven
noteworthy
novorossiya
oregano
outlooks
palermo
perfumed
petals
phenylphenol
posei
pyrophosphate
r48
rabah
recettes
reconciling
reforestation
reintroduce
reinvestment
resettling
rigorously
safener
savoy
sepa
sga
shedding
sited
slapper
snes
spillover
sponges
spreadable
srep
srf
stalls
statel
suppressed
symphysis
tab
tefs
tejarat
telegraphic
tepraloxydim
thod
tram
turbocharger
twelfths
unrepresentative
untied
upside
vaop
verona
vestjysk
weaker
wheelhouse
°k
δt
##250
##ade
##aya
##ella
##ethane
##oate
##ok
##ph
##rea
##ric
##sko
##ι
##ов
1042
1066
1214
1242
1352
2036
27000
4010
429a
6a006
7218
7a103
7b003
90000
991
aau
acajou
aceite
acronyms
adversarial
americas
apartado
areca
artiklan
assemblers
attraction
bafin
bayerische
beliefs
birch
boarfish
btø11
bundling
c0
caffeine
cdso
chaque
cho
cjeu
coalfish
corrigenda
d5
denaturants
deodorants
diazabicyclo
djamel
docks
durians
e5
entlang
erasures
erp
federations
ferrostaal
fil
forfeiting
fumaric
fungus
globes
helmet
hinge
homogenisation
hunan
ictalurus
impressed
inavic
incubator
innocence
iridium
joule
ju
kissed
kww
lactis
lambert
magneto
metazachlor
minusca
monkeys
monohydric
mov
moveable
multilingualism
multiplicity
mustards
nfas
nitrobenzene
oceanographic
octanoic
oleum
ommastrephes
overestimated
oxasulfuron
panta
payers
phare
pod
policeman
proclaimed
propargite
righting
saharan
sampler
seasonality
shin
sincere
smiled
spends
spills
spiroxamine
ssb
stoppered
subpoint
sunk
szp
tenor
terpenic
thiourea
trieste
typed
uml
unpacked
ut
vaccinations
vam
wheelchairs
wobbe
υπουργειο
министерство
##cp
##gang
##let
##lon
##ole
##ped
##port
##und
100kg
1075
1163
1572
1726
2051
2261
3209
35051050
35a
3rs
500000000
54°
7224
7500
7a101
88ø17
9a111
accrues
advises
aftermath
ala
ambiguity
androgen
aniseed
apis
beni
benzothiazol
bioscope
blanket
boi
briefcases
brushless
butanoic
butyric
carnival
cdsp
chupa
chups
churches
circuses
cola
composted
contours
deepest
destabilise
dispersive
dkt
doughs
dsa
eddy
efg
empordef
enal
eums
eureka
eurofisc
exponential
finalising
foral
forever
fruity
frustrate
glasshouse
glasshouses
hid
honeybee
horizons
imagery
interviewed
isopentyl
jo
lied
litchis
lyon
manta
mayi
mctom
meater
mir604
mirabelle
mooring
mutilation
odd
organophosphorus
pbdnn
peacock
pectates
permanence
petersburg
phenolphthalein
photogrammetrical
piloting
plains
portals
predictive
qingdao
quails
repellent
ripened
sepiola
sh
silence
sipo
slivers
sokaa
streptomyces
succinic
sulpho
surfaced
sweeping
symptomatic
tata
travail
unep
unpackaged
viraj
vpb
weathering
wfd
whistle
την
##data
##een
##eus
##imino
##inate
##ista
##nol
##ogy
##tein
##uo
##zioni
##ка
0025
018
065
1050000
11081300
1337
1538
1653
1790
1889
2172
3203
3491
4118
4148
60945
abi
acequinocyl
acetoxy
almond
aminophenyl
anchoring
apium
approximating
arabinoxylan
arthritis
asem
asphaltic
attenuated
azimsulfuron
bolting
bundesbank
canthaxanthin
catalonia
cdl
certifier
cetacea
chemin
cirrhinus
cla
cms
computational
contrario
crimping
ctps
curassow
davis
decoupling
dello
dev
dfi
diagnosing
dichloropropene
differentiates
dimethoxyphenyl
dioxane
dioxol
dipturus
dit
dryness
e19
earmarking
emsa
encs
enjoyment
epidemics
epitrix
espanola
essay
eutrophication
eyelashes
fdi
feelings
fisa
fluctuate
folders
fond
fractures
frs
gallon
gland
goe
grandmother
gras
hairnets
halting
heaps
hemiacetals
hexadecyl
hibiscus
icvm
intravenous
isokinetic
iupr
ji
leaseback
linate
m4
macadam
magistrates
makenga
manatees
ministre
miyagi
mongolian
moratorium
mos
msm
msv
mujahideen
mylopharyngodon
newton
nipples
obstructions
odni
ofcom
omari
oncoming
outfits
oxidizing
oxime
parasitic
pers
phospholipids
piceus
picoxystrobin
pirimicarb
plantain
plo
polyunsaturated
pomerania
practicability
practising
predominate
prisoner
promulgated
pulmonary
radicchio
radiography
realignment
refractories
restitucion
rnp
romano
rubella
sbas
sedimentation
shfe
soothing
sops
stole
stripper
suckling
superstructures
taxe
taxonomy
teac
tempus
thieno
thiosulphate
trawler
tupolev
unwilling
vaginal
vila
vor
voters
walkways
washings
waterfall
watermelon
waving
x86
zijn
##2090
##9090
##aceae
##ari
##butyl
##ged
##ias
##nidazole
##nie
##ovich
##pol
##prazole
##ras
##sed
##work
##yn
##zer
##zy
016
1088
1130
1158
1325
1345
1514
1548
1585
1596
1603
1875
2808
2b109
4xng
6579
8°
900000
9a009
9°
abdel
absences
alkenes
aminomethyl
angels
anwendung
archipelago
ascbs
authoritative
await
azinphos
b100
b1a
bazan
bedspreads
behaviours
benzoates
bookings
bottler
brisket
buchneri
bud
cfm
char
chelated
chrome
cnb
combusted
cull
cupboard
decorticated
decryption
degras
delicate
deplores
derricks
designer
dfs
diabrotica
dibenzofurans
elche
emptying
erste
eruption
estuaries
ethylbutyl
executes
exportador
fci
fenpyroximate
festuca
fishers
flexibilities
fracturing
fraudulently
fucosyllactose
ganglia
garnet
glide
gods
grandparents
grating
gunma
haslemoen
hepta
highways
homepage
humectant
hxcdf0
hydrolyzates
hydroxyquinoline
ibaraki
incompatibilities
initiators
inners
ispm
ith
joke
juni
kieselguhr
l7e
lasagne
lauric
ledger
lepidorhombus
lizenz
lr3
maarten
macaw
madani
maltodextrin
meide
mer
mesotrione
middlings
miners
ml2
moped
mrel
muslim
nei
nk
ocl
oleate
oleg
ostend
oxidiser
oxydemeton
pagasta
palace
pantyhose
pavement
pegs
pelvic
pie
plugging
ptb
reporters
retardation
retrieving
retroreflecting
ribera
seldom
shaken
shrubs
slept
slurries
sparking
squirrel
sscd
stabilize
stat
steerable
stickers
superiore
surnames
tarred
taxiing
tbs
teas
tef
testa
thiadiazol
tochigi
triangles
trihydrate
tropilaelaps
tx
ubiquitous
uo2
valerate
vinohradnicky
werke
winsl
woollen
или
##550
##6000
##af
##end
##eu
##ique
##mus
##nin
##o2
##ore
##pes
##ration
##tz
0213040
1204
1256
1343
1348
1908
1932
19b
22b
2844
2f
52°
7440
9002
9015
9031
accrediting
acumulacion
aluminosilicate
amitrole
appraised
aquitaine
arak
arrows
ascertainable
aspartyl
atomisation
bales
battle
bcs
biscuit
braziers
brunswick
byr
c2f6
capo
clarias
collate
comitology
convar
curbstones
czestochowa
departed
digitalisation
dihydroquinoline
disabling
disks
duero
duplicated
dutiable
ec10
elvo
endangers
epmf
eueb
exascale
fdd
fe2o3
flazasulfuron
floss
flywheel
foliar
fortune
gastro
genomic
gewahrtragerhaftung
glazes
glucopyranoside
governorate
gpc
greasy
gsi
gyrodactylus
hadn
headache
hermetic
hurdle
identifications
ignoring
infusion
internalisation
ionization
isoproturon
jamil
kamayut
kapok
launches
leucoraja
levellers
limiters
lobe
lyes
macrosoma
majesty
malonate
mismanagement
missouri
misunderstanding
moistened
nacmc
nao
nepheline
ob
ostrea
oxford
parakeet
passbook
perchlorates
peril
phenylacetate
planch
polling
prevalent
propping
psychiatric
psychologists
pyrometers
qa
ratifying
regiao
renegotiate
restatement
rossia
roughhead
rwe
sapphire
scoops
scrutinised
shippers
shortening
sittings
slowdown
slowing
smallwares
standardise
statuses
supporter
swietenia
tagging
tensions
testimonies
thyrostatic
timestamp
tong
tongs
touchdown
trueness
vastavalt
vinification
voa
whalebone
yasin
ηs
##bin
##ken
##lene
##number
##toluene
##zan
##ко
##у
0802
1022
1068
1125
1136
1231
1432
1482
1505
2002018en
2235
2275
2295
5588
6a205
8529
856
9a101
a11
actuations
akin
albuminates
ammar
anaerobically
atrodas
autopilot
azimuth
benzidine
boe
bored
burling
bvba
cache
cannelloni
capsule
carbonic
casual
centrifuging
chlorate
clo
cluj
cognitive
compelled
complain
conserved
contesting
coupage
curlers
cytob
decatising
devolved
dials
dimethylacetamide
disappearances
dome
douglas
earning
eda
eerc
eiderdowns
eipp
elaborating
electricite
epoxides
epoxypropane
erasing
etd
ethoxyphenyl
ethylbenzene
europeaid
eurosur
exceedances
facilitations
fathi
fertile
flak
flupyrsulfuron
fma
folic
gah
garda
gilled
guitars
hexafluoride
hexythiazox
himalayan
hor
igm
individualised
iodosulfuron
italiana
kilo
kodszamu
lags
lauan
loquat
megye
metrans
mordants
mouldings
multiphase
muslims
myawaddy
nitroso
oestrogenic
oinos
orchid
oreochromis
ossified
overhang
oxido
panevezys
pectinates
photochemical
proofing
pses
radon
rahmat
ramzi
rang
readability
reconstitution
regiment
rescued
rhodes
rosa
sagaing
salix
salmonellosis
samsung
shaded
shpl
siis
sip
southerly
substation
summarized
sunglasses
suppose
supra
suspicions
teljes
topikos
torrente
transformations
transforms
transshipment
travels
trolleys
twinning
uab
undocumented
unidir
unincorporated
urease
vc
vetches
vitreous
wojewodztwo
wolf
zeroing
απο
##ande
##azone
##cher
##dione
##enheim
##eo
##imide
##max
##ule
0106
014
0840040
1253
1330
1863
1915
1930
2140
2290
2299
2304
2603
27th
2915
31st
3ar
4259
50000000
8403
8544
949
9a011
abidjan
acetylsalicylic
aeeg
aeropuerto
ashraf
aspartate
ay
bering
bohunice
boils
bwa
carbadox
chin
chlorpyriphos
clove
colder
compel
cordoba
coronary
correspondents
crochet
cultivators
decyl
defrosters
deletions
deng
disinformation
diuron
dni
eeig
elastomer
enactment
enclose
escaping
etherified
eudravigilance
evacuated
evidentiary
fenazaquin
fhh
fisim
fleece
fni
foams
forgive
fosthiazate
garbage
goederen
graders
h400
h411
haemoglobin
harvester
hessische
hispanica
hunosa
hyssop
i1
idaea
ids
ifov
inscribed
inseparable
inspectorates
ipso
jakarta
kampala
kl
koln
l4e
limanda
locom
mandatorily
marketability
mechano
microenterprises
midway
modulate
multiarena
myrtillus
nel
oiðeeuo
ont
operability
opto
orthophosphoric
persica
pharmacist
phelsuma
phenotypic
polyimide
polysulphides
prepayments
psychrometers
r40
realities
redistributive
reprocessed
reputational
rosso
ruthenium
searchable
selvedges
shavers
sla
slatted
sloes
sofiane
soot
staffed
stim
sulfo
surinam
talaromyces
tandem
taxing
tem
territoriality
threonine
tigers
titres
transhumance
traveled
trinitro
uis
uladzimir
unaided
unhardened
varvaressos
versatilis
virola
vp
windings
winged
workstation
μmol
##030
##ala
##ati
##benzoic
##ces
##chi
##endorf
##fi
##ins
##ix
##js
##los
##naphthalene
##ronic
##wein
012
03a
11500
11c
1386
1573
1629
17023059
18b
2112
2244
2419
2702
8523
9g
ababa
abridged
adriatica
apprenticeships
artiodactyla
atofina
autopsy
availing
benzole
births
blvd
bush
c25
captives
caudal
centrifuged
ch2
challenger
changzhou
chloropicrin
chu
coha
comune
condensates
confessions
corneas
corylus
creep
css
d1e
daminozide
deboned
demisters
detentions
didecyldimethylammonium
dissimilar
dobrich
editors
egysegeinek
equivalences
eratv
eudamed
exploding
fenpropimorph
fh
fluidised
fumonisins
gingerbread
gn
gom
groupage
grozdova
guava
hunted
inac
incremented
incumbents
injuring
italiane
judging
kawa
licencing
limitee
linters
liquidating
logarithms
lottery
lrcom
mek
mercerising
merci
michael
mio
mom
morality
motorized
mox
msy
ngl
nocivo
nodokla
oleostearin
ora
orthogonal
osmium
oxadiazol
oyj
p8
panjwai
peculiar
petrochemicals
pharmacokinetic
pillows
piu
ploughed
polyvinylpyrrolidone
puglia
rakes
rashid
rdc
recapitalise
refinanced
resigned
rgb
riyadh
roasters
rooibos
salep
sanidad
scoured
shafiq
siderurgica
soc
spr
srsg
stationed
stereo
subrogation
subsonic
supercomputer
superimposed
supervises
switchgear
terulete
thia
tournament
undiscounted
unsold
uvedenych
vadgazdalkodasi
vises
visitnorway
weakened
whitetip
zloty
zoxamide
αρθρο
българия
##cio
##ef
##gon
##ipine
##oxide
##phosphate
##xin
##zocine
0511
1032
10415
1226
1358
1885
2029
2474
32003
3213
4013
5902
6001
7206
8470
abac
admissions
adopter
ahs
arcofin
artikli
ase
astaxanthin
asthma
auvergne
b3a
bamboos
basking
berths
bet
bifurcated
bloc
bylaws
cai
callipers
candle
carburettor
carnitine
cathodes
cemented
cetane
chamomile
citrifolia
classifies
claude
clavata
cocos
controlee
ct1
cwd
dbμa
dcf
decoder
dm3
eag
ecolabelled
elincs
emep
entsog
eq
faraj
fastener
feather
flake
foots
fourteenth
geologic
guan
hates
hercules
heritable
hrw
ibi
icac
iceberg
ioc
italica
jr
juniperus
kaolinic
karamanie
kelem
kleve
knowledgeable
lashed
laughing
legler
lesion
lev
marina
marry
metalling
migrate
mineralogical
mladic
mpes
mtow
multipurpose
naung
nest
norge
norte
ordre
oxa
p7
pecten
pff
phenotype
phenthoate
philosophical
phmb
physiology
pivotal
polarimetric
prescribing
pusrsuant
radium
rbc
recalculate
refills
reinstate
resemble
restate
reverta
rigidity
rjh
rjn
rodenticide
saitama
sarda
schumacks
scooters
sedimentary
sesamum
sfei
sisters
submarines
surfacing
t2lf
tau
thornback
uncastrated
viscera
visitor
vulpes
wallonia
wellbeing
whb
wiped
wipo
yolk
εφαρμογη
гроздова
##750
##800
##benzoate
##fe
##hua
##ione
##jos
##ora
##trasse
##р
024
1023
1045
1114
1248
125a
1351
1393
13b
2120
2257
2277
2501
929
9z
abundant
adjuvant
allergenic
anhui
annuus
anticompetitive
aog
appreciated
appropriated
atr
atroviride
aua
autres
avermectin
bago
barbituric
bianco
bite
boiss
camphechlor
cautious
ccb
ceiops
chernobyl
clementine
conspicuous
coopers
criticism
cyanogen
cyclopenta
debenture
deux
dienoate
dinitrate
distarch
elaidinised
electrocarbon
etablissement
eugene
europeans
europeenne
fatah
frigate
fsb
gbae
gerais
heels
herpesvirus
hydrodesulfurized
hydrophobic
hydrophones
hypochlorites
igt
impunity
isola
johns
kneeling
legislators
loyal
maine
marque
martyrs
mayangon
mazowieckie
nahverkehrsgesellschaft
nasal
natal
needleloom
nist
noisy
novation
octan
overturning
paras
parities
pecorino
petitions
photocopies
plenty
polyisobutylene
polyolefins
proteinase
qu
quartet
railhead
relax
reopen
resembles
ruse
sacral
scatter
secretariats
shelves
silthiofam
skull
slipping
sloe
sovello2
spdc
specialis
spunbonded
stratified
subsidization
swab
tagged
tally
tampered
telegram
thicknesses
throw
tosilate
transliteration
tre
trimethylammonium
trs
tumour
uncompressed
unfairly
vague
vasco
vendee
vrq
wattle
wedding
wetland
wigs
изпълнителна
##2100
##9010
##ava
##house
##logy
##mas
##nts
##propan
##yo
032
1354
1401
1547
1569
1675
1795
190211
2455
2813
2900
3285
4814
5g
6737
7018
7312
8465
8466
8702
8ar
9021
939
acrinathrin
agitators
alachlor
alleviated
angolan
angora
aspirated
ati
bern
binocular
caged
canis
carbonised
carfentrazone
charity
chickling
chol
clone
coexist
crescent
curtailed
cvsl
defray
dextrose
dibromopropyl
dicarboxylic
dimethylaniline
dusts
dwell
emperor
engedely
erm®
esterification
[...]
