[PAD]
[UNK]
[START]
[END]
!
"
#
$
%
&
'
(
)
*
+
,
-
.
/
0
1
2
3
4
5
6
7
8
9
:
;
<
=
>
?
@
[
\
]
^
_
`
a
b
c
d
e
f
g
h
i
j
k
l
m
n
o
p
q
r
s
t
u
v
w
x
y
z
{
|
}
~
¡
¢
£
¤
¦
§
©
«
¬
®
°
±
¶
·
»
¿
×
æ
ð
÷
ø
þ
đ
ħ
ı
ł
œ
ƒ
ɗ
α
β
γ
δ
ε
ζ
η
θ
ι
κ
λ
μ
ν
ξ
ο
π
ρ
σ
τ
υ
φ
χ
ψ
ω
а
б
в
г
д
е
ж
з
и
к
л
м
н
о
п
р
с
т
у
ф
х
ц
ч
ш
щ
ъ
ы
ь
э
ю
я
ђ
є
і
ј
љ
њ
ћ
ա
բ
գ
դ
ե
զ
է
թ
ի
լ
կ
ձ
մ
յ
ն
շ
ո
պ
ռ
ս
վ
տ
ր
ւ
ք
օ
ֆ
ߦ
ก
ง
ช
ด
ต
ฟ
ย
อ
า
แ
ᄀ
ᅥ
ᆪ
ក
ច
ត
ព
ម
រ
េ
‐
–
—
‘
’
‚
“
”
„
†
‡
•
‰
′
›
⁄
€
←
↑
→
↓
↔
∂
−
√
∞
∫
≅
≈
≡
≤
≥
≽
┴
╬
█
▒
■
★
☐
☒
♀
♂



�
de
es
la
el
en
los
del
que
las
se
por
no
para
con
un
articulo
al
una
reglamento
comision
su
ce
apartado
presente
lo
como
sobre
anexo
consejo
union
decision
estados
miembros
do
si
productos
ue
sus
europea
informacion
estado
directiva
medidas
caso
parte
entre
acuerdo
conformidad
cuando
miembro
este
mas
esta
aplicacion
ha
sin
europeo
siguiente
datos
cada
debe
mercado
punto
condiciones
10
2006
arreglo
disposiciones
periodo
particular
12
autoridades
otros
servicios
durante
ayuda
tipo
cuenta
ser
2007
todos
comunidad
letra
parlamento
cee
seguridad
2004
normas
2009
sistema
deben
11
fecha
tanto
ejecucion
requisitos
2013
base
control
asi
sera
comite
partes
2005
autoridad
2008
producto
numero
debera
mediante
ii
referencia
paises
visto
podra
cualquier
procedimiento
siguientes
segun
tambien
efectos
valor
superior
refiere
tratado
partir
diciembre
2011
empresas
2003
produccion
puede
dicho
2014
30
forma
general
derecho
respecto
considerando
lugar
20
fin
antes
gestion
dispuesto
actividades
relacion
nivel
sea
vigor
2012
investigacion
15
han
evaluacion
son
importacion
otras
hasta
derechos
plazo
articulos
empresa
importe
podran
demas
31
total
uso
medida
haya
aplicable
desarrollo
menos
todas
comun
2010
dos
riesgo
solo
hecho
eur
marco
relativa
13
solicitud
deberan
dicha
funcionamiento
estos
2002
oficial
tal
codigo
14
pais
establece
16
igual
eee
inferior
nacional
precios
texto
capitulo
proteccion
transporte
junio
otra
republica
elementos
regimen
nacionales
objeto
programa
ensayo
virtud
necesario
estas
mismo
costes
animales
pueden
gastos
desde
21
lista
25
valores
17
garantizar
aplicables
personas
parrafo
medio
sido
ni
18
operaciones
enero
precio
materia
entrada
contenido
ano
procedimientos
sector
julio
ya
22
2015
otro
importaciones
19
hayan
seccion
informe
exportacion
sistemas
2001
relativo
nombre
anos
diario
terceros
vehiculo
establecen
autorizacion
adoptado
dia
servicio
pero
entidades
octubre
productores
ademas
criterios
grupo
24
29
incluidos
iii
establecido
vehiculos
excepto
capacidad
competente
peso
entidad
ejemplo
28
ayudas
23
despues
calidad
mercancias
resultados
2016
competentes
zona
bruselas
posible
1999
origen
industria
sean
2000
capital
minimo
determinadas
correspondientes
siempre
directamente
financiera
marzo
organizacion
dichas
mayo
situacion
contra
conforme
uno
ambito
relativas
cooperacion
activos
establecidos
dentro
todo
casos
tiempo
noviembre
credito
toda
27
determinados
perjuicio
dias
pago
26
obstante
dichos
utilizacion
tipos
seran
abril
tres
certificado
previstas
mm
acceso
efecto
metodo
financiacion
maximo
inversion
publicacion
tras
cuadro
dictamen
apartados
tales
direccion
septiembre
procede
meses
modificado
declaracion
sustancias
modifica
fondos
cuestion
homologacion
entrara
presidente
ese
comunicacion
estan
plan
registro
puntos
pesca
cabo
correspondiente
trabajo
establecidas
instrumentos
legislacion
organismo
territorio
analisis
organismos
momento
sustituye
millones
pertinentes
personal
manera
persona
modo
vista
procedentes
bien
incluidas
categoria
financieros
publico
consecuencia
tener
competencia
ejercicio
objetivos
energia
venta
vease
partida
ultimo
mercados
respecta
vez
actividad
funcion
obligaciones
puedan
acciones
interes
programas
consumo
proyecto
cantidad
notificacion
garantia
mayor
buques
cumplimiento
recursos
especificas
agua
2017
zonas
tratamiento
febrero
red
50
volumen
figura
final
caracteristicas
pertinente
financiero
sustancia
politica
segundo
modificacion
tecnicas
pueda
obligatorio
apoyo
objetivo
europeas
proceso
cantidades
tribunal
protocolo
fabricacion
misma
cuentas
material
comercio
teniendo
agencia
animal
determinar
documentos
100
##s
fondo
contrato
tiene
posicion
residuos
emisiones
certificados
muestra
bajo
internacional
trate
materias
necesarias
riesgos
similares
kg
pruebas
ello
previsto
participacion
solicitudes
iv
explotacion
traves
controles
cuya
formacion
primer
contratos
establecer
especial
supervision
ingresos
le
figuran
reduccion
agricolas
fue
considera
esten
relativos
estar
carga
cual
equipos
comerciales
tom
derivados
motor
cambio
comunidades
componentes
aplicara
metodos
fabricante
observaciones
titulo
azucar
esa
incluso
calculo
central
generales
publica
documento
accion
directrices
materiales
bis
comercializacion
solicitante
economico
unicamente
presentacion
sigue
consiguiente
interior
asimismo
decisiones
ninguna
medios
disposicion
vigilancia
unico
banco
proyectos
adicional
identificacion
aguas
acido
acuerdos
carne
social
utilizados
limite
anual
comunitario
aparatos
queda
caracter
tercer
funciones
gas
reino
adoptar
destinados
descripcion
adicionales
embargo
distintos
prueba
aplicar
96
conjunto
primero
intereses
anterior
sucesivo
administracion
fuera
organo
nuevo
operacion
especialmente
nota
principios
tecnica
primera
comunitaria
mantenimiento
salud
operador
90
categorias
decir
letras
propuesta
equipo
alimentos
nuevos
internacionales
china
asistencia
ventas
ensayos
responsable
tardar
instalaciones
salvo
cumplir
presupuesto
ambiente
nc
principio
pagos
obligacion
excepcion
modificar
92
maxima
aprobacion
dado
superficie
ningun
resolucion
convenio
modificaciones
mencionados
largo
presentar
importes
especies
asociacion
determinacion
ley
frutas
especificos
permanente
nueva
financieras
concesion
maquinas
poder
limites
cuales
estara
reestructuracion
utilizarse
contemplados
inversiones
economica
modelo
grupos
seguimiento
indica
adopcion
alemania
hace
linea
98
director
91
dumping
95
actos
previa
constitutivo
unidad
debido
era
continuacion
establecimiento
habia
constituye
hortalizas
cuota
exposicion
estatal
40
relacionados
aplicaran
mixto
papel
libre
region
organizaciones
comercial
orden
2018
agosto
incluida
necesaria
sociedad
espacio
agentes
apendice
euratom
esos
especifica
tengan
proceda
fines
informes
cuyo
norma
regiones
aumento
resultado
contribucion
revision
muy
facilitar
fase
ultima
unidades
aplica
acero
incluido
nacimiento
93
serie
prevista
cuanto
asunto
practicas
definicion
titular
exportadores
87
utilizar
niveles
provisional
duracion
afectado
piensos
inspeccion
porcentaje
codigos
media
equivalente
centro
bce
instalacion
36
coste
diferentes
importante
aves
motivos
unido
buque
hacer
redes
propios
antidumping
anexos
temperatura
principal
clasificacion
examen
prestamos
suministro
haber
presion
toneladas
instrumento
intercambio
varios
respuesta
posibilidad
leche
contengan
incluir
nuevas
mencionado
licitacion
emision
destino
oficina
of
perdidas
distribucion
garantias
necesarios
estatales
reglamentos
disponibles
juridica
dispositivos
94
evitar
velocidad
esas
usuarios
conclusion
alzado
operadores
gobierno
cas
realizar
potencia
rendimiento
civil
seguros
tienen
60
especiales
muestras
alta
cinco
bienes
tenga
utilizado
instituciones
transformacion
creditos
transmision
tendra
32
almacenamiento
transferencia
puesto
partidas
ajustan
dispositivo
poblacion
carta
empleo
contempladas
°c
contacto
ellos
comunes
n°
inicial
determinado
global
35
interesadas
circunstancias
cambios
luz
productor
especifico
cumplen
suficiente
incluye
sentido
considerarse
salida
exencion
intervencion
conclusiones
practica
hay
regional
clase
normal
alimentaria
naturaleza
interno
masa
construccion
33
pesc
cumplan
considerado
verificacion
especie
restitucion
anteriores
aplicarse
italia
condicion
seguro
columna
combustible
autorizado
esto
cargo
mencionadas
modificada
activa
previstos
margen
representante
clientes
aunque
obtener
exportador
terminos
anuales
politicas
ella
aire
70
evaluar
propiedad
algunos
conviene
compensacion
adoptadas
beneficio
destinadas
etc
97
ante
documentacion
contemplado
frente
menor
vi
disponible
permitir
gran
responsabilidad
in
75
denominacion
mantener
escala
natural
efectivo
80
estructura
reducir
sectores
exterior
varias
fibras
principales
inmediatamente
cuatro
europa
alimentacion
grado
primas
sociedades
relacionadas
compromiso
marca
impuesto
beneficios
cereales
nomenclatura
gases
contexto
realizacion
existentes
donde
45
afectados
francia
electricidad
suiza
periodos
les
activo
##a
madera
necesidad
transito
adhesion
publicos
concentracion
inclusion
tecnico
adecuada
horas
distintas
iso
mismos
ajuste
certificacion
hora
vida
aduana
enfermedad
37
economicos
mencionada
economia
presentado
deuda
aduanero
circulacion
peticion
inicio
aun
impacto
especificaciones
llevar
vuelo
comunitarias
fuentes
adecuado
mejorar
publicas
dar
restituciones
estadisticas
informara
coordinacion
considerara
podria
real
indicado
compromisos
locales
motores
39
participantes
bancos
compuestos
solucion
mes
beneficiario
comunitarios
exportaciones
34
escrito
##n
tecnicos
razones
asuntos
muestreo
necesidades
utilizando
posibles
dispone
seis
43
diferencia
cumple
1998
mecanismo
establecida
hacia
tercero
aceite
liquidacion
expedicion
finales
asignacion
unidas
consumidores
creacion
prestacion
indicacion
estudios
razonable
48
euros
autorizados
anade
tecnologia
65
aspectos
justicia
junto
preparados
factores
semillas
evolucion
recuperacion
anteriormente
consulta
mismas
exposiciones
favor
competencias
existencia
rural
directa
contemplada
1234
mejor
aeropuerto
mientras
expertos
comprendido
auditoria
introduccion
electronico
reconocimiento
bruto
prestaciones
naciones
the
sujetos
bajos
tendran
01
diseno
habida
personales
longitud
mision
pues
cualquiera
seguir
importancia
originarios
noruega
neto
crea
mar
medicion
beneficiarios
siendo
incluira
institucion
trata
fiscal
presencia
vegetales
irlanda
fisicas
exclusivamente
regimenes
proveedores
estrategia
aelc
principalmente
impuestos
trabajadores
me
1996
46
suelo
mandato
alto
bordo
polvo
1994
agricultura
1995
via
tejidos
eficacia
eficiencia
prima
presentara
2020
esenciales
temporal
propia
deberia
reserva
estaran
usos
fijados
define
fuente
mundial
espana
actual
recogida
frecuencia
termino
prestamo
intercambios
85
##e
mg
estudio
instrucciones
delegado
adquisicion
proveedor
conservacion
debidamente
envio
preparacion
fijado
norte
segunda
formas
vistas
cubrir
pasajeros
indice
balance
disenados
aereo
elemento
elaboracion
adecuadas
rentabilidad
demanda
posterior
similar
unidos
tasa
agricola
tamano
curso
88
version
capturas
unos
popular
42
carretera
companias
deroga
aeronaves
tareas
corral
distancia
oferta
efectuar
indicaciones
preciso
falta
independiente
aduaneras
requisito
planes
regionales
original
sujetas
indicadores
cadena
sanciones
cuestiones
algunas
00
propuestas
ofertas
profesional
55
38
directivas
infraestructuras
ellas
cobertura
alguna
licencia
crecimiento
realizadas
infraestructura
crisis
aerea
comparacion
alias
plazos
puesta
designacion
local
declaraciones
baja
notificado
hojas
alcanzar
reconsideracion
mejora
sa
vii
importadores
lineas
individual
componente
89
alcance
alimenticios
trafico
eu
vidrio
ex
1997
administrativas
armas
utilizadas
estaba
subvenciones
presentadas
sino
restricciones
contingentes
78
obtenido
permite
pasivos
presentada
contratacion
completa
laboratorio
exc
subvencion
toma
and
fijacion
obtenidos
recurso
sentencia
totalidad
recomendacion
trato
naturales
minima
acto
44
polonia
humano
41
procesos
rrc
enumerados
importantes
solicitar
responsables
fija
plantas
ltd
adoptara
claramente
registros
conceder
fijar
entendera
61
interesados
72
euro
49
eje
aplican
seleccion
conocimientos
modalidades
definiciones
denominado
contrario
normativa
depositos
unica
representantes
petroleo
refieren
oficiales
campana
calificacion
pagina
aditivos
calcular
destinado
respectivamente
tomar
mezclas
bcn
medicamentos
68
centros
rumania
presento
indicados
grandes
determinada
negociacion
agente
99
administrativa
validez
centrales
compania
fueron
comunicaciones
privado
definen
efectiva
experiencia
comunicaran
reunion
combinacion
dinamarca
concedida
destinatarios
estatuto
belgica
permita
raiz
apertura
accesorios
casilla
compra
tfue
recepcion
aprobado
51
66
equivalentes
especificados
adecuados
quedan
legales
suspension
ambitos
ventaja
53
decidir
navegacion
ciclo
humanos
existe
1992
contratantes
adoptaran
firma
cierre
mecanismos
1993
inciso
individuales
sociales
factor
formato
blanco
mezcla
organos
carbono
superiores
formulario
actualmente
basandose
expedido
parametros
resulta
unas
vigentes
exteriores
tubos
414
deteccion
preparaciones
independientes
ml
modificados
02
aceites
perdida
explotaciones
autorizaciones
valoracion
orientacion
arroz
retirada
producido
tasas
incluyen
km
juridicas
eti
web
publicara
09
flujo
habian
iran
lucha
innovacion
criterio
recomendaciones
guion
administrativos
etiquetado
anuncio
electronicos
reembolso
mando
residencia
eficaz
excepciones
fisica
52
electricos
diez
proporcionar
emergencia
tecnologias
107
contribuciones
suma
interesado
ausencia
enfermedades
inspecciones
aproximadamente
problema
67
contiene
defensa
peces
79
grecia
73
poderes
suplemento
adopto
estabilidad
aditivo
posiciones
considerandos
eran
maiz
ultimos
sujeto
parcial
preve
completo
frenado
recibido
poblaciones
problemas
contingente
vino
nominal
frase
sostenible
negociaciones
pabellon
composicion
expiracion
fuerza
realizado
entrega
moneda
huevos
contribuir
deposito
campo
aumentar
64
maximos
co
incumplimiento
totales
anchura
contable
etiqueta
piezas
compatibilidad
plastico
procedente
spp
significa
posibilidades
mayoria
hierro
eliminacion
prevencion
funcionarios
aereas
cartera
pequenas
plenamente
resistencia
77
demostrar
indicar
vinculados
tierra
59
internet
jefe
56
bulgaria
modelos
reuniones
diferencias
reservas
hilados
metal
algodon
concedido
industrial
57
co2
relaciones
notificada
habria
comprobar
intervalo
##o
47
economicas
te
mantequilla
58
activas
lado
sales
autorizar
mi
62
aquellos
territorios
sujeta
apliquen
hidrocarburos
financiar
utiliza
veterinario
##i
altura
ir
hubiera
ninos
originarias
lengua
coeficiente
136
diametro
lenguas
destinada
puerto
sanidad
ambos
separado
negocios
destina
fijan
posteriormente
iva
geografica
corriente
contabilidad
constituyen
recibir
participar
concedidas
elevado
suecia
solamente
cuotas
basado
modifican
humana
utilicen
05
independencia
incluiran
copia
consideracion
division
trigo
profesionales
conveniente
prohibicion
utilizada
tension
secretaria
reales
acta
presentes
notificaciones
presentados
aluminio
incremento
definitivo
india
efectuadas
normalmente
transparencia
propio
permitan
industriales
300
considero
existente
83
demora
iniciativa
grasas
adaptacion
71
estandar
54
schengen
concreto
significativa
aplicado
indicada
utilizan
normales
liquidez
operativo
cm
##0
existencias
saber
banda
luces
militar
observa
ampliacion
juridico
proporcion
tan
concepto
gasto
200
aplique
representativos
viii
realizados
conocimiento
correccion
empleados
suficientes
identidad
lacteos
textiles
celebracion
cliente
judicial
particulas
ruedas
rn
especificado
fitosanitarios
poner
vivos
numeros
piloto
efsa
fundamentales
ajustes
portugal
aviacion
tenido
##r
autorizada
acp
vencimiento
usuario
disponga
calculado
determinara
citada
conversion
fronteras
luxemburgo
pensiones
situaciones
ucrania
comunicara
rusia
porque
electrica
autorizadas
conductor
parcialmente
04
medioambiental
82
edad
63
acerca
remuneracion
electronica
presupuestaria
disponer
integracion
podrian
croacia
considerar
76
cumpla
aparato
metil
contaminacion
sitio
obras
proceder
considere
cultivos
referencias
escape
europeos
il
participaciones
razon
frutos
minimos
conjuntos
hungria
potencial
propiedades
presenten
correo
imposicion
ambas
incorporarse
capacidades
corresponde
peligro
86
plano
cientifico
terreno
543
chipre
debajo
definido
globales
aprueba
ministerio
veanse
promover
fabricantes
interoperabilidad
contienen
nic
plantilla
puestos
1991
arancelarios
expediente
calor
cifras
contratante
asiento
seria
pescado
sur
inferiores
previamente
inversor
letonia
enumeradas
transacciones
fiscales
reforzar
flujos
inversores
operativos
anadido
destinatario
metales
marcha
comportamiento
administrador
indican
provincia
reglamentacion
combinada
exclusion
fomentar
existen
subvencionables
quimicos
interpretacion
licencias
formula
clave
establecerse
combustibles
espera
alguno
m2
consideran
aeronave
buena
deban
di
realizarse
amparo
opinion
alcohol
mesa
probable
trabajos
conjunta
veces
finlandia
motivo
finalidad
energetica
grave
03
retencion
prestar
provisionales
utilizara
cabe
lituania
asociados
informar
checa
verificar
sustitucion
continua
notas
presenta
electrico
graves
investigaciones
consideraran
medioambientales
deberian
preparado
descrito
situado
liquidos
hara
restrictivas
metodologia
extraccion
presentarse
permiso
crediticia
titulares
caucho
tenor
atencion
encima
reglas
mano
vias
fases
84
reue
quimica
presentaran
agencias
citado
velaran
1990
fijada
indicara
secretario
definidos
adopten
envases
estableceran
cargas
viaje
aceptacion
pasivo
directo
particulares
tratados
vayan
compuesto
103
educacion
entrar
marcado
hechos
reparacion
eslovenia
sodio
limitada
colaboracion
81
exigir
neumaticos
afganistan
delegados
efectuados
intencion
exige
aeropuertos
reglamentarias
concluye
interna
dificultades
austria
canales
caja
distinto
cientificos
asegurar
registrada
malta
69
entiende
estadistica
color
marcas
manual
peligrosas
dimensiones
estimacion
aplicaciones
complementaria
nr
niif
basa
proteger
deba
caliente
coherencia
modificarse
renta
150
pasaporte
afectadas
resultantes
familia
establecimientos
participante
incluya
promocion
cultivo
establecera
va
prorroga
difusion
extracto
detallada
cosas
ter
emisor
previo
contenidos
requiere
pagar
volumenes
corto
ciudadanos
efectuara
haga
comprobacion
regulacion
alego
sanitaria
veterinarios
pesqueros
listas
umbral
2019
manifiesto
senala
modulos
admisibles
limitado
opcion
celulas
lmr
minutos
ix
renovacion
tenerse
chinas
basicos
apoyar
sometidos
autoriza
definidas
solicitantes
consultas
diversos
derogan
freno
contenga
aproximacion
sis
ejecutivo
lugares
textos
futuro
negativo
soporte
ecologica
superficies
500
lograr
calefaccion
transitorias
recipientes
herramientas
da
efectuado
viabilidad
reproduccion
fijarse
corresponda
rec
74
vaya
elaborar
obtenida
efectuarse
lote
geograficas
llevara
deficit
privados
facilitada
indique
##1
separacion
precision
crear
publicado
incoacion
adicion
paso
negocio
infraccion
eurosistema
pesquera
islas
referente
fijo
for
identificar
1000
pyme
basada
nuclear
basados
indicadas
porcina
significativo
fuerzas
uniforme
quimicas
multilaterales
liquido
##se
podia
##t
espesor
299
enfoque
independientemente
compatible
minerales
realizara
dosis
transferencias
registrados
consumidor
bebidas
conexion
notificara
suficientemente
acervo
excepcionales
1107
intensidad
vinculadas
modulo
subarticulo
legal
cuantia
objetos
##es
ejercer
limitaciones
cobre
comunicar
politico
desarrollar
edificios
responsabilidades
cubiertos
sustituyen
patrimonio
variable
acidos
vinos
pesar
examinar
importador
van
liechtenstein
evaluaciones
delegacion
fabrica
disponibilidad
##2
apropiado
adoptarse
ofrecer
108
parrafos
designado
realizada
concentraciones
nb
representa
utilizaran
observacion
actualizacion
interiores
tenia
cloruro
doble
efectivamente
descarga
biocidas
abierto
indicador
adjudicacion
administraciones
originario
asociaciones
destinos
comandante
aqui
plataforma
arrendamiento
facilitara
respuestas
transicion
transaccion
cuarto
introducir
##l
1987
situ
islandia
asesoramiento
06
estonia
prioridades
controlar
nacionalidad
periodicamente
ministro
actuales
presupuestario
bovina
confederacion
generacion
error
ordenador
producidos
gama
utilice
cuyos
placas
primeros
adoptada
mary
agricultores
aduanera
mejores
integrado
radio
soluciones
ahora
tren
grasa
errores
cria
denominaciones
afectar
formal
concederse
expresado
util
contables
aviar
138
tarifas
informaran
limitar
112
consiste
derivadas
francesas
estructurales
programacion
tail
diferente
ryanair
parece
consecuencias
totalmente
area
cpa
minimas
correcta
mediciones
igualdad
tercera
cooperaron
maritimo
secciones
danos
sinteticas
artificiales
subsistema
alegacion
prever
creado
juridicos
aplicando
america
clases
diversas
electricas
combustion
deficiencias
tabaco
www
chinos
gestor
informaticos
television
##5
conjuntamente
integridad
policia
corea
provisiones
candidatos
convencion
impedir
120
fechas
hipotesis
senales
ejes
coherente
concluyo
relacionada
vertical
compatibles
estructuras
106
pertenecientes
causa
firmado
registrado
toxicidad
administrativo
celebrado
cuestionario
bank
eleccion
par
socios
eslovaquia
establecio
ferroviario
estaban
conformes
manufacturas
filiales
publicaran
factura
todavia
describe
virus
nombres
desperdicios
denuncia
publicidad
concede
esencial
carton
sometido
esfuerzos
incluyendo
125
omi
haberse
habra
contrapartida
renovables
doce
tu
expedidos
internos
requerida
acogida
nucleares
incluirse
costa
clausula
resultante
transformados
kw
titulos
disminucion
poco
constitucion
dimension
tonelada
garantizara
transportes
billetes
encendido
transitorio
reducido
temporales
libertad
hidrogeno
##3
mercancia
eurostat
oportuno
resumen
asientos
cubierta
electronicas
plena
sede
protegidas
fusion
constante
invernadero
probabilidad
tripulacion
orientaciones
vapor
urgencia
dada
http
diagnostico
fije
250
concedio
limitacion
admisible
calendario
directos
confidencial
vegetal
emitido
fabricados
600
bonos
deterioro
designados
capitales
automoviles
exigencias
extension
pesquero
previsiones
especificadas
camara
limpieza
siete
solvencia
margenes
reaccion
nitrogeno
##4
sustituira
105
declarado
ad
calculara
entradas
definida
conocer
maquinaria
posteriores
pie
enmiendas
oposicion
acogerse
producir
fibra
08
mucho
adelante
frescos
comprende
pudiera
104
netos
manipulacion
uruguay
veinte
conduccion
sanitarios
cualesquiera
dudas
distrito
puertos
estabilizacion
jurisdiccion
aquellas
tierras
recibida
cuyas
incl
adecuadamente
consultivo
dirigidas
resto
uniformes
turquia
efectuada
respeto
afecta
notificaran
semanas
distinta
solicitado
viajeros
beneficiarse
cientifica
exenciones
siembra
laboratorios
vigesimo
amplia
esperma
encuentra
embalaje
canada
inmuebles
ronda
carbon
bosnia
accionistas
enlace
confianza
piel
importados
calcula
siguiendo
caudal
visado
confidencialidad
ordinario
recibio
##d
quien
realmente
tuvo
igualmente
frio
eliminar
exista
respectivos
oxido
planos
ciem
admision
forman
especificar
metilo
concedera
propietario
peste
arancelario
menores
nace
presentan
cabeza
junta
subpartida
cubiertas
obtencion
decide
excluidos
negativos
residentes
encargado
tampoco
determina
demostrado
seca
indiquese
ajustarse
planificacion
aevm
libros
hacerse
sola
hoja
sanitario
resulte
ficha
actuacion
instancia
negativa
fraude
entorno
definir
digital
fila
restriccion
denominada
figurar
obligatoria
operativa
acuicultura
frescas
contaminantes
compuesta
definitiva
federal
armonizacion
dinero
bovinos
opciones
reducciones
calzado
tabla
expresada
movimiento
variedades
matriz
cajas
propias
capa
consideraciones
contener
decreto
regulado
regla
sr
geneticamente
exactitud
citados
consonancia
oficialmente
senalar
mujeres
lleven
suprime
incoar
respectivas
supere
titulizacion
seco
detalles
superar
ee
finalizacion
vuelos
vigente
resoluciones
permitira
salvamento
esfuerzo
fomento
herzegovina
nos
comentarios
absorcion
debia
situada
alternativa
neta
aras
descritos
prioridad
haz
especificacion
realice
07
produce
pureza
horizontal
plomo
solicitada
auditorias
permiten
ciudad
cotizaciones
legislaciones
recibidas
domicilio
indirectamente
buen
canal
empresarial
inserta
acceder
desglose
clasificados
frontera
asociadas
calculos
despacho
110
acreditacion
organicos
pelo
1989
rodante
asignado
senal
347
tomara
pir
especificamente
devolucion
harina
dialogo
traslado
ilegal
ofrece
futuros
saldo
adopte
informaciones
anadir
elaborado
cuadros
monedas
voto
##7
densidad
eso
lleve
178
producida
origenes
infracciones
estatutos
exceda
##9
sacrificio
corte
elevada
mantendra
tradicionales
grt
refrigeracion
publicada
solicite
subproductos
movilidad
cruce
101
trabajar
##6
apropiadas
vinculado
ventajas
facilmente
pequenos
garantizaran
positivo
indicarse
espacios
velar
ganancias
vacuno
convenios
318
575
pesqueras
mtd
bases
expuesto
razonables
avion
destilacion
situadas
beta
ordenes
ocm
ferroviaria
1308
ejercicios
emitidos
prevenir
estrecha
integrados
pliego
establezca
antigua
medico
basarse
##8
xi
asignada
haran
lamparas
estimaciones
llegar
reconocido
derivado
dilucion
exportados
pondra
valido
angulo
iniciativas
imponer
ruido
supone
decidio
cables
celebrados
constituir
contractuales
indemnizacion
396
pasta
realiza
notificados
fiebre
franco
justificacion
determinarse
industrias
acompanada
ruta
quedara
francesa
humedad
cero
fijos
reparto
residuales
aportacion
desechos
abierta
jai
conflictos
potenciales
fitosanitario
aprobar
##ia
ampliar
competidores
genero
pendientes
pib
silvestres
supresion
representan
amino
simplemente
equipados
acumulacion
dci
bei
supuesto
eficiente
medicos
indices
plaguicidas
competitividad
argumento
dara
reaseguro
tarjeta
llevaran
auxiliares
debida
gmbh
garantizados
significativas
fijara
lana
fundicion
fax
160
produzca
oeste
com
positiva
garantice
variables
san
especificada
filial
situados
propuesto
denegacion
congelados
representacion
politicos
semana
comisiones
expresados
capaz
elaborara
validacion
realicen
plurianual
taliban
ciertas
relacionado
irregularidades
obtenidas
frances
puertas
nacido
vinculada
reconocidos
buenas
aplicadas
determinaran
alrededor
ocho
capitulos
solicito
detectar
et
exclusiva
analogo
embriones
considerados
alimentarios
alimento
nada
nm
contempla
silicio
alquiler
discriminacion
pudo
regular
dioxido
telecomunicaciones
localizacion
recipiente
circuitos
claridad
exceso
homologado
traccion
mayores
domesticos
solicita
variacion
400
civiles
basicas
preparar
aplicados
verde
frecuencias
rapida
oportunidad
atomica
notificar
autenticos
comienzo
ec
impuestas
cesion
adaptar
maquina
##c
adjunto
yo
acetato
departamento
laboral
aviones
representativo
vacio
funcionar
puso
encuentran
interesada
camaras
moviles
automaticamente
mundo
aquel
pi
lleva
comprador
jurisprudencia
palabras
270
planta
rojo
##lo
aprobada
niquel
detalladas
radiodifusion
tiras
ejecutar
erradicacion
umbrales
proteinas
inoxidable
bombas
efectue
participen
cumplido
prestados
uva
conferencia
sal
1831
fraccion
bienestar
##00
acompanado
to
hizo
residual
fundamental
corrientes
fiabilidad
generalmente
textil
constitucionales
presentaron
clara
kosovo
ayudar
consentimiento
desplazamiento
auditor
maritima
transfronteriza
externo
podido
elaborados
engorde
aceptar
fresca
blando
contraparte
ocde
realizaran
recogidos
aprobados
comparables
gestores
reforma
variaciones
amonio
campos
llevado
repercusiones
taric
consecucion
normalizacion
reaseguros
prendas
139
eficaces
optar
102
potasio
seguira
acompanadas
senalizacion
cese
instituto
nunca
acuaticos
ciertos
judiciales
157
deduccion
estancia
esteres
354
referentes
vol
xii
ambiental
cara
proporcional
dan
on
confirma
implica
prescripciones
st
imagen
visados
deudor
correctoras
gripe
alla
contractual
destruccion
negro
legislativo
ferrocarril
laminados
retirar
brigada
jovenes
casi
disenado
sensibles
medir
anaden
estadisticos
transparente
funcional
tomaran
externos
retorno
deudas
equilibrio
barras
cohesion
ninguno
fijadas
xiii
cometido
expuestos
militares
##u
conseguir
basico
formularios
impago
neumatico
empleado
468
brasil
ingredientes
sangre
1782
casa
proporcionara
gobernanza
cifra
des
cerca
democratica
evaluara
perfil
pagado
oficinas
japon
pendiente
alternativas
valida
responder
llegada
incidencia
##do
obstaculos
territorial
obra
anualmente
confirmacion
facilitaran
remolque
corta
dio
air
entonces
informado
expuestas
designada
atane
estrategias
moluscos
algun
cloro
simple
satisfacer
1784
sustancial
atlantico
siguen
antiguo
proporcionalidad
montaje
sacarosa
cerdos
higiene
fallo
oliva
puerta
identificador
tubo
##en
indicaran
sufrido
pieles
mensaje
protegida
enarbolan
recurrir
ona
climatico
luminosa
efectuaran
du
capaces
someterse
intermedios
mencion
sometidas
garanticen
preceptos
almidon
automatico
columnas
establezcan
uu
pakistan
placa
aleaciones
favorable
adoptados
decidira
tarde
concretas
consideren
uvas
343
510
cuero
iguales
rpc
circular
precisa
perfiles
divulgacion
accidente
afectada
tomarse
1605
minoristas
vivo
significativos
123
avances
terrenos
calcio
##m
118
europol
italianas
terrorismo
propagacion
penal
explica
alegaciones
trenes
informo
reciclado
sucursal
anticipada
dictamenes
describen
mutuo
##la
simultaneamente
ponderacion
citadas
directas
expresion
solidos
habil
revisar
fuego
mantenerse
transversal
abajo
alcanzado
corresponden
equidos
suministros
asegurarse
ponderada
obligada
m3
atun
secos
liberacion
variedad
desembarque
ciclos
concluir
internas
envasado
contar
hacerlo
comprendidos
respetar
afecten
estoy
intelectual
oportunas
recomienda
concretamente
demuestra
ecc
pidio
comunicado
arriba
ubicacion
indonesia
cabina
asignados
sustituir
telefono
definitivas
182
multiples
nombra
dcv
acreedores
alcoholico
pronto
cepe
significativamente
medicamento
amenaza
inicialmente
inmediato
impreso
basadas
subpartidas
solar
cascara
permanentes
180
basica
peligrosos
114
aportar
automatica
defecto
segmento
herramienta
pudieran
adquirido
breve
gestionar
1151
elevados
ganado
operativas
analizar
asignar
metros
energetico
prohibe
sucursales
tendencia
oriental
configuracion
porcino
requerido
existan
actuar
tolerancia
medias
##y
cartas
correctamente
350
bruta
migracion
tramo
tailandia
mitad
registradas
seguida
lotes
1580
medianas
biodiesel
cotizacion
540
amplio
islandesa
salidas
provisionalmente
tengo
1260
filtro
pista
impresion
sello
treinta
supervisor
trozos
extractos
considerablemente
ph
rev
denunciante
artes
incorporado
prohibir
receptor
descritas
regulados
torno
enviara
109
areas
apropiada
desprende
3223
encuentre
quater
revestimiento
incentivos
bancaria
somete
pide
extremo
recuerda
etil
recopilacion
procedera
999
pasado
rapido
azufre
concedidos
terrestres
cultural
privada
hubieran
mensajes
misiones
apropiados
rutas
cif
colorantes
indirecta
madre
progreso
captura
arranque
pequena
amortizacion
aplicada
facilitado
185
ro
correspondencia
145
serbia
macedonia
abastecimiento
oicvm
inmediata
llego
omc
arancel
incendios
transmitido
veterinaria
malasia
anterioridad
estima
126
actualizada
reguladas
horizonte
activacion
115
completamente
desviacion
continuidad
ahorro
grano
habitual
min
llevarse
hidroxi
descenso
habiles
argumentos
cacao
tomado
##te
polimeros
forestales
tratar
caza
intervalos
contenedores
dejar
expedir
xvi
ingles
800
156
federacion
despojos
negociables
velara
flota
remitira
claro
reciente
siria
suplementarios
vacunacion
sulfato
zz
ovina
incluyan
147
inscripcion
adaptaciones
registrar
encuentren
210
##on
alegaron
produzcan
revestimientos
seguiran
figuren
porcentajes
pienso
tomando
140
garantiza
transbordo
ensenanza
grados
rapidamente
sala
libia
prohibido
##an
trabajador
acoplamiento
coeficientes
colectiva
consolidacion
depende
quedar
1255
influencia
brotes
dificil
espectro
positivos
yugoslava
concluido
discontinuas
etileno
reflejar
paralelo
africa
kilogramos
road
basara
gracias
transformadas
combinado
externa
gravedad
complementarios
equipado
excesivo
aislamiento
restantes
agrarios
sirene
accidentes
conocidos
determino
consultar
esposa
salvaguardia
productividad
completos
desempenar
termico
aceptable
proporcionada
pension
cafe
concretos
metalicos
incompatible
aviso
considerada
130
razonablemente
adquirir
campanas
compresion
incrementar
reconoce
cm3
nombramiento
remolques
alojamiento
cubierto
ecologicos
fracciones
subperiodo
epigrafe
celebrar
explosivos
regulador
anticipos
correcciones
evaluarse
iniciales
patatas
segura
hogares
estimado
raices
hacen
movimientos
envase
ratio
tel
completar
examenes
complementarias
mutatis
expresadas
sudafrica
traduccion
extranjero
mutandis
aprobadas
participa
atendiendo
correcto
frenos
limitarse
compensar
cumplirse
proximo
presupuestarios
malla
granos
propulsion
declarada
excepcional
seguido
quiero
aportaciones
suspender
senalo
cierto
denominados
leyes
vestir
detalle
determine
relativamente
##da
justificada
adquirida
solido
conflicto
municipio
tejido
selectiva
equivalencia
algo
post
alfa
218
dispongan
resolver
trimestre
121
concierne
den
tarjetas
cuerpo
consolidar
estadistico
reconocidas
saldos
adquiridos
taiwan
μm
justificar
mercurio
arancelaria
as
entenderan
sujecion
entran
966
vision
marinos
etilo
primarias
reciba
asilo
hechas
previos
bilaterales
caracteres
comestibles
software
supervisar
juegos
consolidada
visibilidad
demostracion
porcentuales
compensatorias
grasos
117
acabado
aspecto
designadas
pagados
circuito
facilite
expedidor
demuestre
simbolo
yangon
mhz
jurisdiccional
descripciones
geografico
alumbrado
divisas
xv
conducta
dato
italiana
sanitarias
tunez
arrastre
emisores
rechazo
oportunidades
reconocida
fiable
alternativo
talibanes
iluminacion
recogidas
podian
altamente
alternativos
122
constituido
paz
sectorial
indicios
recoge
latitud
libro
sonido
movil
ofrecen
certificadas
1988
especializados
cobro
insolvencia
intervenciones
continuo
quimico
subyacentes
direcciones
restante
seleccionados
muchos
preliminar
copias
estable
africana
constar
privadas
represion
cosa
iniciar
ira
armonizado
fecula
pelicula
ccp
monetaria
requieren
estructural
magnitud
inventario
creo
idoneidad
complementos
2658
soportes
113
facultad
pequeno
excluir
transmitira
despliegue
limita
longitudinal
rio
entes
compleja
considerable
facultada
obligado
1249
comprendidas
futuras
transcurrido
demasiado
llegado
protocolos
abordar
aeronavegabilidad
vicepresidente
muebles
aceptado
recuperar
diesel
propuestos
1h
armonizadas
mantiene
notificadas
rubrica
larga
subastas
esperar
119
consideradas
xiv
emplazamiento
oxigeno
espacial
examinado
proliferacion
actualidad
culturales
figure
examinara
delantera
especifican
##k
ejemplos
vender
##g
hibridos
suelos
integrante
ajusten
distribuidores
exceder
chino
integrada
memoria
artificial
comparable
instalado
pt
periodica
reducirse
cooperar
postal
producen
apendices
pieza
autentico
confirmo
montenegro
ajusta
representativas
septimo
clasifican
imagenes
carnicos
verificaciones
admisibilidad
compras
hilo
formular
derogado
barcos
company
exigido
transmitir
magnesio
facil
soja
celulosa
exentos
poli
trans
residuo
vinculante
solicitadas
volver
modificara
afectan
indicando
pondran
propietarios
pone
duro
116
asistida
853
comites
hilos
universal
be
exigida
fabricado
realizan
vendido
facilitarse
bicicletas
conservar
continuar
anadira
decidido
oro
temporalmente
aduanas
declara
filamentos
combinados
pantalla
dirigida
indemnizaciones
medido
remolacha
capitan
intermedio
disminuyo
publicar
##b
acordado
altos
entro
permisos
revisado
rueda
1980
audiencia
interfaz
noruegas
excluidas
hombres
ordenadores
presidencia
proporcionadas
124
oc
subyacente
sometida
sostenibilidad
intermediarios
tratamientos
modos
ancho
derogada
planteamiento
subcotizacion
tomadas
proposito
actuaciones
administradores
particularmente
hornos
aereos
designar
feader
asociado
expresamente
preparatoria
visual
1975
abonos
mediterraneo
vistos
aerodromo
contendra
reducida
proceden
mantenidos
##er
recapitalizacion
ponderado
quedado
230
separada
alerta
valvulas
desnatada
coopero
acontecimientos
clasificadas
fed
ovinos
afecte
derivada
proporciona
arancelarias
digitales
convocatoria
satisfaccion
ferroviarias
pedir
##na
2913
incertidumbre
bloqueo
pesquerias
posesion
seno
faro
concentrados
envios
polacas
adecuacion
confirmado
exito
auditores
temperaturas
supera
bomba
domestico
nata
clasificada
cebada
participan
permitido
hijo
matricula
perspectivas
publicaciones
ejemplar
identificados
inyeccion
cultura
aduaneros
bloques
concesiones
libres
descrita
financiados
dotacion
pleno
unitario
validos
disolvente
glucosa
masas
probablemente
consistente
detallados
ifm
mejoras
plataformas
alli
desempeno
220
generar
peliculas
financiadas
cintas
procesamiento
##h
segundos
vendidos
contenidas
cubre
mineral
mal
misiles
nueve
justificado
compartimento
clasificarse
controlada
miras
puedo
satelite
llevan
337
conexos
mutuamente
debian
partido
128
adaptarse
fino
lateral
monetario
obligados
sodico
secreto
incorporacion
matriculados
desplazamientos
1907
colegio
ti
interconexion
ropa
tendencias
adquisiciones
refuerzo
calculada
carnes
carteras
flexibilidad
rollos
187
fuerte
indicativo
tecnicamente
excesiva
georgia
instruccion
visible
introducido
curva
discapacidad
recibidos
constato
abu
mecanicos
especifique
transposicion
turismo
etiquetas
reunan
vagones
contraria
entrenamiento
maritimos
eeb
conceda
ecologico
216
encargadas
leido
ver
abarca
igp
dop
etapas
soldadura
111
antelacion
176
cualificaciones
sec
segmentos
648
ambientales
refinado
pasar
patron
aleman
existir
france
gasolina
generados
reg
derecha
ar
acompanados
observadores
preocupacion
ceramica
127
conexiones
menciona
ponente
originales
asamblea
habran
suplentes
calibracion
fundamentalmente
268
perfeccionamiento
requiera
empresariales
exigidas
producirse
refleja
refrigerados
posean
marino
168
emitir
msc
separados
delitos
legalmente
tuvieron
eventuales
integramente
234
futura
cinturon
verse
ponerse
vinculantes
juicio
subsistemas
sometera
aclarar
litros
comprobaciones
302
degradacion
mantenga
000
calificaciones
clausulas
acumulados
##p
simil
efectuen
oaci
sensibilidad
fundacion
suprimir
art
explicacion
ptu
tarifa
aumentaron
autorizarse
quedaran
pp
trasera
165
tecnologico
estiercol
favorables
nocivos
rotacion
solidaridad
hagan
onu
suministrar
correspondencias
143
intracomunitarios
postales
cci
cuantitativos
international
fia
marruecos
ligeramente
mutua
basan
bolsa
cinc
delante
biomasa
experto
ovino
sitios
facilitados
asociada
ejecutiva
haciendo
necesariamente
##f
formar
declaradas
cepa
imposible
adapta
impresos
analiticos
calcularse
licitadores
tendria
pilas
temas
preguntas
regulares
contenida
resulten
contrapartes
seleccionar
247
prohibiciones
aquella
jubilacion
cosecha
canon
relevantes
entren
falsear
agrupacion
objeciones
pln
retraso
1833
decida
aung
nox
darse
sectoriales
comunicarse
cualificacion
aparte
etapa
alarma
busqueda
cicaa
examino
microorganismos
oxidos
instalados
asumir
efectivas
2454
cambiar
clima
institucional
visita
bovino
delegaciones
nitrato
cable
constituyan
combinaciones
suprimirse
tac
##le
881
gratuita
tractores
eric
extranjera
1985
expresa
falseamiento
estaciones
diversidad
enviar
ancha
netas
accesible
suplementaria
aterrizaje
dimetil
dioxinas
164
cueros
subtotal
actualizar
fosfato
congo
sudan
exentas
exigidos
exija
parametro
aprendizaje
dejado
redaccion
declarados
tenian
encargados
fronterizo
periodicos
signos
vigencia
azucares
transferir
abiertos
espaciales
bloque
prestadores
homologaciones
bacalao
pretende
indico
adversos
penales
surtira
transportista
lavado
2a
filtros
introductoria
federado
reciban
despegue
tractor
analogos
producidas
141
edicion
fabricar
fosforo
optica
supervivencia
visitas
142
detallado
guia
reformas
congeladas
excede
onda
951
preferencial
bancario
funcionario
requieran
vivienda
alambre
terrestre
novads
granulos
inclusive
flores
folleto
journal
belgas
acetico
acondicionamiento
confirmar
conjuntas
clasificado
escrita
litigios
concentrado
lectura
ebullicion
minorista
obtenerse
determinan
gfia
obligatorias
comunico
aprobara
fiables
hubiere
matadero
provision
1986
supuestos
progresos
reglamentaciones
queso
152
alear
bandas
estrictamente
posee
protegidos
encargada
azul
higado
quienes
repercusion
131
consignarse
manuales
revocacion
transferidos
excluido
proporcionado
guinea
ecli
excluye
expedientes
##ra
161
enumeran
rumiantes
bano
equina
col
declarante
nino
correos
ocupa
concreta
##ba
fronterizos
operan
167
1a
disponen
someter
fisicos
laborales
diaria
kpa
med
valvula
bolsas
148
ajustar
crediticias
tradicional
fisico
especificara
infantil
refiera
diariamente
tramos
cumpliran
llevo
129
quimicamente
reclamacion
1970
ag
justificados
sustituido
308
observador
328
entregas
notificante
implantacion
emitidas
##los
maniqui
206
competitiva
estrategica
1303
anadirse
astillero
disolventes
prevision
contactos
mexico
estacion
fenil
impurezas
conservados
mixta
mosto
reducira
297
tome
agrupaciones
anejo
viajes
canones
carbonato
profundidad
propone
cualificada
expedida
informatico
argentina
embarcaciones
terminales
cana
der
prorrogar
municipios
primaria
sustancialmente
1224
calentamiento
ponga
realizo
seda
afectara
terminal
australia
regularidad
consignados
presidenta
operar
endo
argelia
2200
marcos
cientificas
minimis
elusion
blanqueo
licitaciones
finanzas
formen
interinstitucional
aceleracion
multas
comprobara
etanol
accionista
garantizada
israel
rango
concederan
##is
cofinanciacion
izquierda
borde
estrechamente
pico
carbonos
extranjeros
ghz
invito
generadores
rescate
superen
211
detencion
juego
transparentes
eslovaca
medidos
pollos
clinicos
habilitacion
obtiene
maximas
absoluto
duda
indirectos
uranio
1967
individualmente
ajustara
digitos
embalajes
it
proponer
dividendos
subasta
unicos
comercializados
convencionales
mantendran
revestidos
incompatibles
sexo
prescrito
zoosanitarias
varian
afirma
definitivamente
divisiones
paginas
reclamaciones
incidentes
asegurara
pymes
resultar
evaluado
ultimas
pares
bobinas
almacen
170
intermediario
lino
sensibilizacion
interrupcion
aftosa
349
quede
restablecer
gusta
italiano
sacrificados
exportado
inspectores
ol
169
recientes
muerte
series
vulnerables
calculados
siga
libertades
perspectiva
unitarios
influenza
intermedia
representativa
he
tecnologica
1290
192
calcularan
posterioridad
pastas
caprinos
espanolas
insuficiente
moldavia
provocar
248
constituida
corregir
modificadas
equipamiento
conductores
asignara
causas
quince
violacion
aptos
funcionales
llevadas
ejerce
faros
ali
metalico
pies
requeridos
albania
analitico
anulacion
someteran
tesoreria
radiacion
saludables
conocido
155
colores
vendedor
lineal
discos
perturbacion
representen
rangun
tratarse
158
capas
labor
demuestren
soliciten
centeno
na
1829
efectua
apellidos
lampara
faciliten
laser
presupuestarias
10000
regularmente
emitida
causado
requirente
1982
contribuira
882
derogacion
disenadas
legalidad
veterinarias
panel
perjudicial
transmitiran
garantizado
bancarias
recibe
rendimientos
res
convergencia
garantizando
seae
ocasiones
280
fallos
brote
perturbaciones
colocacion
egipto
tarea
gobiernos
subseccion
dulce
confirman
comprendida
excedera
carreteras
entero
tic
##ta
cursos
correspondera
espanol
formado
prestador
crustaceos
estrategico
ligeros
258
anuncios
facultades
pasa
edificio
aparicion
caida
precisan
bancarios
contribuye
cuarta
target2
fueran
groenlandia
detectado
realidad
paquete
infeccion
vinilo
adopta
respetando
alimenticias
favorecer
menudo
forestal
convencional
correspondan
suponer
transcurso
aseguraran
canje
depositario
preparadas
fijas
##000
hz
ilegales
fijaran
327
528
cadmio
pcb
precisar
184
clasica
concentrada
introducirse
transformar
##to
1972
acreedor
asignaciones
habitats
sensores
motivada
declaro
vinculo
carroceria
elegir
quinto
jarabe
659
juez
comprar
energy
utiles
pacifico
cenizas
nafta
208
calderas
botellas
muestran
atribucion
necesita
periodicas
256
introducidos
mohammad
votacion
imponen
somalia
aprobo
coser
estando
revisiones
sigan
hoc
investigadores
224
foro
piedra
432
alega
acompanamiento
baterias
constituidos
licitador
prestara
energias
ingenieria
atras
completado
paris
introducidas
mecanico
trazabilidad
provistos
elecciones
hibrido
reguladoras
cerdo
hidroxido
oxo
298
asistir
coherentes
conoce
filipinas
normalizado
refieran
servir
alimentario
insumos
menciones
agricultor
dexia
importado
207
actua
aromaticos
adjunta
oral
recientemente
alemana
autonoma
congelacion
puente
133
hombre
incisos
ocasion
tomas
135
dispondra
regulan
biocida
escritos
observado
salarios
voluntaria
crudo
enviado
iia
voluntario
1977
338
transfronterizo
cromo
delincuencia
airlines
atmosfera
cuarentena
grande
lactantes
pertenece
209
debidos
identificado
mali
mantengan
hoy
importadas
comunicados
indiquen
secas
dominante
eurojust
impone
mecanica
nn
prensa
externas
finalmente
repuesto
confiere
evacuacion
aplicabilidad
previas
viable
195
750
or
recubiertos
ajena
encontrar
isoglucosa
familias
economicamente
interfaces
oportuna
embolo
exacta
inteligencia
preferenciales
reguladores
223
actue
expedira
gasoleo
ppm
simplificacion
advertencia
rentables
audiovisual
ve
habrian
suscrito
aptitud
garantizadas
normalizados
receptores
recoger
010
253
obligatorios
cuello
revisara
jueces
##las
bretana
controladas
notifico
quiebra
victimas
reconocer
bromuro
copolimero
dependiendo
haqqani
ordenacion
1301
apalancamiento
titanio
cps
ops
rpdc
cerrado
municiones
arboles
comunicadas
diligencia
extremos
feroe
parcelas
eter
671
supeditada
1493
251
agotado
consistira
cree
642
armonizada
secundario
asciende
energeticos
conducir
pueblo
simbolos
causar
innovadoras
xx
respaldo
tribunales
dibujos
proporcione
reunir
subterraneas
estacionamiento
platanos
320
perteneciente
recibieron
vietnam
actualizado
eet
ventilacion
coronel
sensible
afirmativo
autenticidad
hulla
irb
1958
abonado
tachese
vinculos
abrir
cooperativas
opiniones
elegido
mensual
renovable
2201
contraidos
deriven
1500
versiones
violencia
consejero
137
efectivos
rentas
usar
accesibles
candidato
comprometido
consignara
exclusivo
recogen
poliester
complejidad
sinteticos
mamiferos
cr
creada
sintesis
complementario
occidental
aproximado
piedras
transitoria
validas
2021
intercambiar
zelanda
172
abonados
separadas
vitivinicola
incorporada
mon
tratada
notificarse
radar
tela
173
153
logico
new
activamente
anclajes
gubernamentales
163
comprobado
exigira
informatica
transformadores
valorar
group
limited
semiconductores
ulterior
ca
anticipo
facilita
constata
177
fiscalidad
ovulos
reaparicion
cierta
consorcio
imponible
arte
cadenas
cuenca
kwh
transfronterizos
coordenadas
consolidadas
anticipado
termica
corregida
desembarcar
desempleo
relevante
190
fr
testigo
146
1978
minuto
periodico
autorizara
catalizador
distincion
175
denominadas
vacunas
edulcorante
amazon
by
jordania
##as
secuencia
##v
baso
costas
recompra
abiertas
bilateral
griego
lesiones
verticales
tecnologicos
1333
opera
preferencias
video
potencialmente
proporcionaran
rcsnu
##ina
ave
ben
pese
1272
excluida
reguladora
1037
combatir
finalizado
horizontales
terminacion
certifica
montados
proxima
firmante
otorgan
requeridas
chispa
asia
gramos
179
193
coordinar
butil
departamentos
prevea
dcirg
secado
vald
velocidades
viviendas
biologicos
portuguesa
referirse
tomates
retirado
solida
132
correlacion
interlocutores
publicadas
suplementario
ceca
134
familiares
proporcionados
rigen
senalado
fabricadas
alimentarias
formalidades
desea
filas
conducto
1976
arbitraje
asignadas
cocina
granel
libremente
urgente
estrasburgo
quiere
##os
reproductores
retos
juguetes
prudente
terc
altmark
precedente
recogido
162
destinen
guardia
permanecer
emplearse
paredes
caprino
exportar
limitara
subcomite
abdul
ajustado
firmar
otorgadas
recambio
174
290
armadas
cama
designara
esencialmente
firme
tuberculos
residente
seres
cuaderno
evaluaran
cumpliendo
invertir
permitirse
biodiversidad
clorhidrato
negativamente
prohibida
concebidos
extranjeras
modernizacion
adoptan
escuela
auxiliar
chapas
plagas
amenazas
caprina
pantalones
descuento
bastante
polietileno
ejemplares
exhaustiva
opticos
expansion
griegas
hubo
revisada
soportar
inglesa
negativas
accesorias
atender
b1
subparte
usd
##mos
aromatizantes
diversificacion
hectareas
isla
rumbo
sabe
arco
2371
366
oncorhynchus
organizar
suplementarias
finalice
secundaria
consignaran
ejerza
255
autor
vitro
acuosa
alemanas
participado
raza
922
jurisdiccionales
posteriori
halogenados
##10
cuestionarios
recibo
climaticas
debidas
expreso
sospecha
144
llamada
formulacion
perjuicios
satisfactoria
a1
prision
tema
competitivo
interpol
mensuales
ofrezca
dispondran
code
disciplina
organico
tuberias
cooperaran
expone
justificadas
ej
plantillas
compensaciones
mantenido
usados
incandescencia
privatizacion
utilizo
##mente
arbitral
tableros
corrupcion
mantienen
recuperarse
seleccionado
226
encargara
horno
expediran
exportadas
marfil
prioritarios
declarar
comprension
espanola
pro
rentable
sesiones
181
abe
controlado
pongan
reventa
salas
149
gallinas
cinturones
porcinos
colocara
dciqs
estudiar
informador
m1
reciben
sensor
ofrezcan
participe
previsible
crimea
dsm
restringido
ciencia
metabolitos
nombrado
resinas
danes
grabacion
negociar
combinadas
deporte
dihidro
portatiles
##us
201
estrictas
implicado
rodadura
sieg
automaticos
μg
colza
comprendera
deducciones
juridicamente
uk
##z
conciliacion
formuladas
204
db
decitex
dinamico
estimada
litro
alquitran
gente
visualizacion
acustica
cancelacion
incubar
gbp
perjudiciales
rdc
sancion
ultramar
filamento
subvencionadas
mw
animo
hubiese
introduzcan
5000
quinquies
superara
complemento
grosor
cometidos
derogar
pez
305
caracterizacion
golfo
mecanicas
casillas
expirara
amarillo
166
ingrediente
mohammed
pesados
redujo
facilito
talleres
ejercera
radioelectrico
tramitacion
suplente
telas
pared
secundarios
425
observo
tenencias
151
acondicionados
definitivos
enteros
myint
consolidado
ester
exigen
promedio
litigio
patogena
percepcion
325
especias
fresco
localidad
adjudicadores
entra
suscripcion
facturas
186
bosques
compartimentos
marginal
t2s
transmitida
avena
equipaje
paneles
carburante
cerrados
manana
motivado
pregunta
constituya
183
caras
custodia
distorsiones
kioto
mortalidad
naval
plurianuales
holding
reutilizacion
testigos
prestado
transportar
contribuyan
1898
parabrisas
pasajero
represente
solicitaron
abono
denegar
autonomos
celular
cola
guerra
transfronterizas
1974
##no
facilidad
necesitan
inmediatos
atribuidas
beneficiaria
recaudacion
diferencial
madagascar
expedirse
invertido
retribucion
365
explicitamente
fitosanitarias
identicos
##x
1973
313
retirarse
principado
laborables
posea
padre
proteina
clasificaran
encuesta
260
exijan
legislativas
permitiran
clinico
indirectas
profesion
acumulado
pavos
certificada
modifico
serian
int
metalicas
mezclados
soberania
ingreso
minas
produjo
quesos
798
comparabilidad
exigiran
feder
neerlandes
agregados
circunstancia
lograrse
cilindrada
constituidas
1964
liquida
atribuciones
corporation
fi
normativas
pic
228
especimenes
suprimen
justifica
perros
evidente
habitualmente
358
aae
funcionen
correa
paquetes
refugiados
abre
hogar
3a
alcoholes
muchas
myanmar
iniciado
n1
sesion
exigencia
medica
pagadores
eficazmente
incidente
box
ilicito
miel
obstaculo
abejas
ejercito
limitadas
territoriales
trayectoria
gestionados
ecuacion
emas
pasaje
admitidos
logro
mohamed
prioritario
regeneracion
aparente
inspector
procedan
simples
blanca
disponia
indebidamente
presten
primario
agotamiento
desarrolla
vis
ayuntamiento
embarque
cumplira
deseen
hincapie
luchar
medira
384
ams
belarus
enviados
explotadores
fermentacion
peligros
corrosion
deriva
enarbolen
enteramente
nadie
copos
empleadas
conexas
contribuyen
eventos
189
helicopteros
microorganismo
sacos
benefician
pet
caducidad
enviaran
max
salmuera
suelen
470
abonar
autorizaran
cuidado
finalizar
invitacion
laterales
oceano
pedidos
simulacion
auto
pagador
171
aumentado
conceden
premezclas
reactivo
registrarse
gatt
rd
variar
bajas
consta
observar
ojos
resina
incorporados
nuts
cisterna
per
toxicos
at
patata
acreditado
brucelosis
colorante
generador
restringir
causados
obligadas
548
cosmeticos
enmienda
adjudicatario
eg
ra
recordar
tsp
cc
comunicada
contingentario
insignificante
grafito
ministros
precioso
presta
und
c1
dijo
fe
iraq
irregularidad
mencionan
aguda
indirecto
silvestre
aceptables
sistematica
generado
inclinacion
pura
reduce
##me
circulo
miles
operen
insertese
implicados
1306
191
elevacion
enlaces
presupuestos
tienes
159
acepta
ultraperifericas
colision
dano
sebc
1966
biocarburantes
consolidados
isomeros
deficiencia
pobreza
compensatorio
pdf
arenque
fuere
granja
hospitales
sostenibles
fundamento
publicados
supervisores
cohetes
comprender
creciente
primeras
dedicada
glp
restringida
tem
usted
cortas
mpa
sobrepasar
verificador
231
agrarias
an
emitira
incendio
plata
sinergias
##ing
cisternas
codificacion
confidenciales
nueces
pan
restablecimiento
giro
iiia
observancia
pertenecen
cobrar
compromete
rayos
volatilidad
zootecnicos
240
flexible
matraz
reflejan
solidas
viene
cristal
conferencias
envejecimiento
escasa
familiar
plasticos
plumas
estrategicas
insertan
maria
firmada
autorizo
conservara
espirituosas
excedente
imi
maritimas
ponderados
representar
1380
1979
delito
noche
queden
demostrarse
inteligente
investigado
navegables
practicamente
street
tambor
deja
regula
transbordar
defectos
informativo
juntas
parada
sustituirse
196
arabes
feaga
inorganicos
mostro
1182
citricos
seleccionadas
309
constituira
equivale
actuen
caracteristica
conectados
consultara
partidos
disminuyeron
minimizar
transferido
199
214
anadiran
barreras
mantuvo
siguio
subdivisiones
volumetrico
comparar
matriculacion
transportados
comercializarse
conserva
retribuciones
pertinencia
1968
armonizados
autorice
llega
incluia
aceitunas
impulso
metodologias
prestan
signo
238
3000
preven
revelar
dieron
entenderse
jarabes
retiradas
almacenados
consecutivos
impregnados
multiplicacion
dependencia
indole
largos
##in
disco
fuese
molecular
pellets
preverse
teheran
lados
cruda
debate
dejara
disolucion
historicos
olaf
ordinarios
acabados
precedentes
sorgo
283
national
opticas
salmonella
saudi
dedicadas
fao
vectores
188
justificativos
gatos
incentivo
hacienda
opcional
carboxilato
habituales
hormigon
pagadas
canamo
aplicandose
gravamenes
isofix
ofrecido
sp
vivas
mercantil
hembras
pase
democracia
mol
laminado
omg
gradual
hablar
milimetros
procedencia
subvencionable
parcela
tolerancias
accesibilidad
clinica
cualificado
extincion
aceptadas
ahmed
humanitaria
privilegios
232
reglamentario
subsidiariedad
fieltro
santa
donantes
287
estuvo
hecha
implicadas
indebida
preadhesion
siniestros
delantero
especializada
titulada
agregado
anillos
mapa
mt
parque
provincias
suero
1291
detergentes
seminarios
319
archivo
autobuses
proximos
institucionales
positivas
verdad
impide
influir
simplificado
tv2
vinagre
abarcar
camiones
consistentes
numeracion
363
eficientes
farmaceuticos
relieve
700
elaboradas
polimero
producciones
transmitidos
explicativas
maung
supuestamente
https
limitados
391
471
dd
desee
partiendo
provisto
236
europe
averia
elegibles
huesos
lucro
pacientes
significado
450
boletin
libano
personalidad
respaldar
225
ceras
deducir
guantes
justifiquen
polaco
preste
simplificar
340
emitio
esquema
honorarios
preferentes
261
ejercen
luminosas
machos
accionamiento
actualizados
cielo
led
antiniebla
puro
tributaria
203
amianto
anadidos
arabia
especifiquese
mandos
900
pudieron
atributos
id
proporcionan
soy
garantizarse
incorporar
interaccion
2h
comercializar
controlados
ampliado
exento
identicas
295
agraria
ninas
suele
elevadas
organizada
transportadas
urbano
194
actuara
adjudicadoras
andorra
informados
peras
221
284
implique
1924
desarrollado
requerir
conectado
ofrecidos
rotura
1307
calibrado
coque
fotografias
cuantitativa
existia
permanecido
pesaje
realizaron
aeroportuarias
clasificar
exponen
importar
pl
proseguir
235
acordadas
algas
azucarera
baltico
experiencias
marinas
protegido
registraran
406
bultos
estuviera
indemne
##les
357
ajustaran
ref
arquitectura
invalidez
justo
mundiales
negociado
pinturas
planchas
1b
comienza
marketing
silvicultura
zimbabue
enunciados
314
adr
palabra
reembolsar
deje
progresiva
cine
consultarse
interferencia
239
comprenden
desinfeccion
existian
explicaciones
inherentes
intermediacion
referido
fertilizantes
guiones
lupulo
elaboraran
reducidos
154
atractivo
contado
halle
mantenidas
var
consistir
demandante
ente
hijos
em
feoga
reservado
concedan
cubra
escenario
incineracion
madrid
pacto
peleteria
rechazar
311
dulces
manganeso
ecosistemas
islandesas
motocicletas
objetiva
pasos
##ne
act
ejerzan
eventual
sentencias
sostiene
##w
complejos
describir
estudiantes
lagos
soldados
281
883
explosion
filetes
funciona
niger
radiactivos
rectangular
temporada
1766
479
actualizaciones
denunciantes
identificables
macrofinanciera
preliminares
sexta
acorde
coordinador
cualificados
reacciones
diputados
tiempos
vid
excluirse
multilateral
portugues
remitio
berlin
daran
gibraltar
acumuladores
abonara
carril
cepas
comerciantes
incumplimientos
manzanas
852
determinen
logica
parlamentos
semestre
sustanciales
1984
asesor
descuentos
lodos
puedes
resultan
2081
informada
renuncia
subarticulos
312
salmon
catastrofes
ceramicos
preventivas
satisfactorio
apreciacion
astm
ejercida
nafo
situa
viscosidad
revisados
rotterdam
catarral
aportado
belga
escribir
conceptos
conocida
vaina
voluntarios
flor
acepto
congelada
efectuan
gerente
incorporen
logotipo
devengados
rs
acuerdan
cambiado
desarrollados
designe
excepcionalmente
socio
facilitacion
hectarea
##io
ft
incrementado
verificara
abanderamiento
construcciones
discriminatoria
medicina
50000
anadiendo
solicitara
cabezas
reembolsos
saneamiento
savivaldybe
transmisibles
valorizacion
acondicionado
coches
contenedor
distinguir
explicado
proporcionalmente
oie
348
beneficiarias
encontrarse
iba
avance
investigar
brutas
consideraron
diarios
irisl
justificantes
numerico
resistentes
301
335
balanza
desarrolladas
epidemiologica
oiea
parciales
techo
tomen
alcanza
aprueban
eslora
expedidas
piso
reconocen
empresario
org
retrasos
soluble
transportistas
aceptados
flavis
hong
275
tir
1095
352
950
compensatorios
luego
masiva
superan
corrector
antiguos
bacillus
cogeneracion
habiendo
liberalizacion
xxi
317
adultos
cuadrada
ia
ligera
recibira
recomendado
suministrada
ampliarse
fichas
pesada
1971
afines
anc
dice
drogas
aaaa
dadas
modifique
registrara
sustituiran
tratadas
100000
chile
periodicidad
caballos
cristales
destilados
formatos
innovadores
reactivos
satisfacen
introduce
obd
ratificacion
superado
bateria
cuantitativo
piston
senaladas
complejo
compradores
emiratos
lubricantes
215
biologica
hierbas
magnetico
acordados
aplazamiento
nombrados
subdivision
tablas
viables
1983
abogados
globalizacion
laminas
teniente
315
neerlandesa
net
newcastle
precauciones
representaban
abogado
toxico
##ar
garantizan
montar
mil
mujer
bt
distorsion
manos
rnb
cerrada
ingesta
sirve
solares
depuracion
desviaciones
fotografia
refinanciacion
##ico
217
854
sra
212
archivos
correctores
cumplimentar
hc
tuberia
consultado
fmm
metro
respeten
388
adn
encuestas
inflacion
proporcionen
vecinos
1774
aoc
automaticas
cubrira
manadas
trasladar
amoniaco
consejos
cultivadas
ponderadas
subtipo
aeroportuarios
aislados
atmosferica
privacidad
sucesivas
cargos
comprometen
flexibles
frontal
infecciosa
senalados
768
causal
designa
pertenezcan
sexto
diluido
fresas
nok
salvaguardias
simultanea
331
aporte
domesticas
trimestrales
westlb
293
forro
preferente
rurales
recubrimiento
armenia
378
cemento
liberia
plantacion
presiones
abonadas
cilindros
colombia
descanso
hicieron
integradas
llamados
metoxi
sobrepase
win
307
defensor
perforacion
voy
233
243
fronteriza
hielo
legislativos
otorgar
polvos
777
847
titulizaciones
trimestral
contratista
deudores
francfort
ventanas
1698
especifiquen
feag
inmunidades
khz
elaborada
eucap
explotar
figurara
gminy
perjudicar
solicitados
especializadas
plazas
preservar
transmita
corregido
justificarse
remitiran
2847
344
delanteras
derivan
permanentemente
ponen
322
corcho
extraer
##50
429
adherencia
barra
ciento
facultadas
habido
operacional
armador
incapacidad
mostaza
subraya
##al
flora
economias
funcionalidad
ligero
1083
comenzara
regulation
tocador
trayecto
1225
asignarse
pa
regulada
dependientes
has
ofrecera
suministrados
colocar
marina
obtuvo
celulares
hungaro
incorporadas
sustrato
vecindad
1981
282
539
destinan
llama
pasando
radiaciones
respectivo
autorizan
comprimido
life
salir
beneficiado
griega
identificadas
impliquen
impida
legible
oxi
porte
tomo
vaca
choque
pintura
subcontratacion
viento
##de
dirigido
documentales
expira
mis
utilidad
brutos
colchon
itinerancia
ponedoras
concedieron
divisa
dinamica
exenta
facilitando
tratara
jefes
multa
nl
263
436
alcoholicas
laseres
patogenos
reforzada
269
273
aridos
basaran
dependen
monetarias
nieve
absolutos
urea
cautivas
cd
explico
vitamina
ganchillo
dr
edf
encaminadas
fugas
mataderos
exploracion
is
1257
analizado
kong
mitigacion
proyeccion
electromagnetica
estimar
filtrado
524
constituia
creados
excelencia
obtenga
originaria
abonarse
estano
poseen
remitir
paga
continuada
entrado
european
lisboa
profundas
banca
optativo
sucedaneos
autonomia
identico
minsk
pastos
patogenicidad
peticiones
transnacional
derogarse
ordenante
convocatorias
escuelas
violaciones
ampliada
celula
expuesta
guisantes
supremo
detrimento
colocarse
401
cilindro
detras
fructosa
ocasionados
platos
205
aceptada
facultativo
meridional
292
abandono
actualizara
calculadas
experimental
fruto
424
coberturas
comenzar
primarios
suponen
transeuropeo
341
549
comercializado
estadounidense
fruta
readmision
respondieron
sencillo
sncm
urbana
votos
instalarse
transporten
directivos
especificaran
facilitaron
instalar
pescar
atm
mauricio
requerira
##j
adquirente
agregacion
balcanes
desembarques
destaca
ejecutadas
vinificacion
bb
cabello
detectores
grafico
observados
ovoalbumina
humedo
adaptado
cuerdas
eres
indemnes
movilizacion
perpendicular
valorem
anticuerpos
induccion
refrigeradas
turbinas
urgentes
3846
952
almacenar
apoyara
condado
deutsche
identifica
otorgada
peru
actas
bayas
frases
gobernador
semilla
sistematicamente
iones
justifican
progresivamente
reglamentarios
respondio
visibles
##ndo
1254
333
aromaticas
eximir
1049
compartida
consenso
conservaran
deducirse
evaluo
alfombras
aprovechar
autonomo
bg
consisten
ejecutado
enzimas
litio
vacaciones
viceministro
anclaje
cuartos
dominio
relojes
claras
detectados
impedira
qaida
197
244
aplico
aumentando
conservadas
destilado
ficheros
forme
hidraulicos
invertebrados
transcurridos
##das
386
aleado
humo
identica
internacionalmente
representado
ses
sucesos
supuesta
caribe
ecus
estimular
impulsar
siglas
silla
estables
reduciendo
estatus
expide
llamadas
metadatos
occidentales
policial
procesales
punta
sahel
222
hr
ing
prescripcion
dispuestos
susceptibles
celebro
cerrar
confirme
espuma
explicar
otorga
implementacion
incorrecta
variante
constatado
dificultad
emplear
indicativa
inmigracion
comprobo
consignar
paletas
remite
tejer
traslados
tuviera
varillas
vende
agotada
fse
multiple
recargo
rechaza
restauracion
1501
critica
cumplian
formulas
logistica
matrices
recabar
recibiran
cocidos
natura
tropicales
centroafricana
detectadas
extrabursatiles
respondan
subordinados
talla
analizador
autobus
biogeografica
kilometros
legislativa
ligeras
##co
angulos
empleada
fabricas
suponga
a2
conductos
contadores
ferroviarios
sernam
afirmacion
dados
intragrupo
od
##ian
267
fauna
seguirse
sv
insuficientes
nombrar
salados
262
615
coe
papeles
patrones
percibidos
pescados
prudencial
rodillos
2500
395
cutanea
ef
firmo
inteligentes
lente
prestatario
enviarse
goma
reexportacion
259
celda
combinar
coordinada
enriquecimiento
eupol
mediacion
tomada
2b
lavar
prestarse
aceptarse
cicap
cuantificacion
nexo
pena
quieres
referidos
tenencia
lgd
polipropileno
poseer
prepararse
notifique
permutas
sexual
star
with
198
habilitar
imprimir
lv
ma
296
aleacion
indispensable
establecieron
experimento
mediana
pedido
prorrogarse
sonda
sufragar
exactamente
ozono
patas
razas
sintetico
conservas
kva
revalorizacion
xvii
arbol
compruebe
garante
imputables
queria
404
alterna
avanzada
fiscalia
observatorio
yemen
##cion
consignado
disminuir
rehabilitacion
ruso
264
cortadas
nocional
plantea
propano
creara
danesa
danesas
millas
numerosas
parecen
roja
ciudades
definirse
judias
mezclar
afirmo
facturacion
antibioticos
informa
interino
llevada
obliga
organizados
picada
subvencionabilidad
agrario
ahorros
implicacion
pollitos
sedimento
tinta
estadounidenses
franja
manteca
verano
incorpora
lactosuero
lic
demuestran
galibo
metalica
publicamente
reunira
sumas
321
bordes
compartir
contribuyentes
escritas
inhalacion
separar
vitivinicolas
activado
altitud
blanqueado
condonacion
emprendidas
ifp
permitidos
singapur
subzona
suministrado
considerables
constara
lentes
see
sk
detalladamente
limitan
1785
316
estableciendo
fluorados
indicativos
causalidad
ilegalmente
steel
202
electrodos
exacto
mobiliario
cumplia
instancias
oidas
service
254
compensadores
convertirse
corporal
correran
ferreas
hueso
respeta
vuelta
dibujo
gravemente
lt
mide
revisarse
impositivo
residenciales
salmonela
trasero
voz
xilanasa
1043
443
audiovisuales
##dos
contador
demostro
legitima
trabajadas
aseguramiento
excluyen
instalada
plana
prestaran
recortes
alteracion
prioritarias
##20
caballa
disuasorias
huevo
iniciara
numericos
perdido
terminado
376
ejercido
melocotones
superficiales
aparece
areva
celebrada
contabilizacion
designaran
falsificacion
financiado
haces
municipal
recomendada
sierra
captacion
controla
yeso
alcanzarse
azerbaiyan
declare
310
actualizarse
bonificacion
caseina
lanzamiento
ministerial
electoral
hu
prescritos
usarse
almacenes
bin
compartido
critico
vagon
comprueba
naves
tesoro
transformado
comestible
dk
ejecutara
expirado
nutrientes
plasma
saturados
solas
achicoria
cuarenta
expida
franceses
otorgado
services
anhidrido
aumentos
estaria
palma
sellos
sueco
vacas
analitica
ataques
franquicia
indnr
transformador
capitalizacion
intangibles
medirse
245
345
contagiosa
diana
privilegiada
676
diferidos
encarga
esperadas
proporcionarse
dependera
recorrido
1965
botella
redactado
analogas
completarse
cristalino
representaba
responde
765
entregado
sulfonados
cobalto
criticos
titularidad
acordar
gaseosos
kandahar
lechones
londres
negociados
renania
satisface
antecedentes
catastrofe
contribuido
rectificacion
abuso
generada
homologados
pagada
sri
709
arena
corteza
distribuidor
iris
irregular
spa
tramites
329
apelacion
facilitadas
fichero
mallas
pesqueria
potable
preferencia
reactores
1005
550
asimilados
dependiente
estrategicos
eteres
farmacologicamente
historial
permitida
portal
terceras
tg
abarcara
adyacentes
diagrama
duradero
especificarse
extiende
justifique
probar
a4
aclaraciones
food
reparaciones
715
aromas
carburo
equipadas
filtracion
preciosos
selectividad
voluntad
anotacion
pagarse
trabajan
acreditados
brassica
excluyendo
gallus
observando
turismos
vacante
285
850
imputable
indiquense
1200
coche
dejaran
dispensa
examinados
naranjas
practicos
salvavidas
sulfurico
venden
aparecen
figuraran
impuesta
melilla
b2
ceuta
desembolso
enteras
muhammad
pagara
products
tue
discriminatorio
excedentes
genera
po
sintomas
##90
amplitud
cera
muerto
pensar
tercio
1969
229
armonizar
brevedad
asignaran
bueno
cctep
vitaminas
completas
dieta
trajes
662
continental
extremadamente
##ro
cei
conduce
hipotecas
introdujo
sexies
2s
diferenciacion
introducida
nitrosados
oportunos
prorrogara
vesicular
desequilibrios
monoxido
nitrados
obleas
##re
escenarios
examinarse
micras
crudos
angular
cortados
rajono
salvaguardar
toman
colas
conservarse
consideraba
nominales
restringidas
rodaje
sg
tuberculosis
apoya
reactor
aumentara
cinta
equilibrado
evento
fianza
marcados
266
embarcacion
emprender
hl
quinta
comunique
controladores
llave
locomotoras
molibdeno
veinticuatro
colectivos
efectuo
helenica
transitorios
vb
comerciante
interferencias
quedo
beneficien
invitar
optico
automatizado
cerdena
comida
muertos
recuento
verifico
726
834
actuan
ajustados
beneficia
enviaron
normalizada
suspendido
##res
constataciones
conveniencia
funcione
verdes
acontecimiento
confeccionados
entregados
implican
437
entregar
fuga
impactos
impresiones
reunen
aeronauticos
cm2
deduce
dietas
especializado
guata
n2
rebanos
fluctuaciones
habiendose
limpiar
manteniendo
sueca
torso
##01
concurso
fei
interpretarse
perro
s2
tarificacion
unicas
concepcion
definira
telecom
transmitirse
3s
alcanzados
artificialmente
revestir
ufc
cromatografia
enfoques
equitativa
escalon
incrementos
secretarios
apto
metanol
reconocera
tert
cz
enunciadas
estacional
nitratos
excedan
idea
jugo
objecion
tp
agujas
complementa
creer
dirigidos
estatica
tonelaje
acelerar
cigarrillos
gafas
kn
acordada
desacuerdo
gnl
motivacion
nulidad
oleaginosas
polaca
proponga
adjudicador
estireno
exclusivos
mejorando
ornamentales
ventilador
vio
##ka
boston
directores
legitimos
salario
249
cuentan
kilometro
ocupantes
plaza
requerimiento
reune
sustituida
trasladado
390
corresponder
cruzada
reloj
650
entraran
girasol
teorica
av
chocolate
cubren
entender
evaluada
eventualmente
incentivador
mayorista
af
analizo
claros
empresarios
preocupaciones
toxinas
icao
migrantes
ta
ahi
calculan
convertidores
csp
gradualmente
prestando
227
324
cfd
estuvieran
informadores
lactosa
nocivo
prensas
butilo
celebrara
escolar
geneticos
negra
parecia
revocar
contaminante
ejecuta
falseamientos
gestionado
imponerse
luxopco
traspaso
viticola
304
336
806
constitucional
depreciacion
juventud
trading
delegar
diodos
glucanasa
invierno
penetracion
reiterada
excedentaria
jrc
antisubvenciones
desaceleracion
legitimo
nucleo
numerosos
vin
680
conectar
cumplimentarse
kenia
aeronautica
compresores
dirigir
esperado
llegue
musculo
zumo
article
empleos
ie
llamado
mono
1069
1093
declararse
invita
nombran
252
289
barco
contaminados
cuadrado
largas
magneticos
peroxidos
bivalvos
permitiria
presidentes
reconociendo
remision
213
obtengan
ocupacion
oms
respetado
1963
modificaran
subcontratistas
cerradas
formulado
porcentual
poste
prudenciales
294
acumulada
alguien
benceno
cerezas
musicales
previsibles
referidas
seleccionada
1060
barrera
bielorrusia
carreras
definiran
remitirse
soportados
volatiles
actuando
cy
decimales
describa
gratuitamente
millon
cerveza
contendran
etilico
orientado
principe
retirados
use
actores
almacenado
bsca
coco
correas
forordning
##ca
330
financiarse
incluyo
lenguado
liquidar
transmitio
aceptara
ans
colectivo
compongan
paja
ponderaciones
setas
##il
1106
condensadores
dando
decimal
primavera
calle
gnc
inscribe
278
am
asumidos
circ
comenzo
comer
criados
lisa
mediados
recubierta
refleje
tereftalato
2030
272
ahumados
componen
encuadernacion
inflamables
inmersion
senalan
375
cortes
nutricionales
reflejen
thein
3h
contraprestacion
iec
index
nd
state
tr
tunel
automovil
demostrara
edulcorantes
rca
219
alimentados
dactilares
modulacion
acompana
adjuntos
conferir
eslovaco
intensidades
1961
cortos
deliberaciones
evaporacion
saint
aguja
azar
butadieno
luminoso
ms
alimenticio
fenol
padres
reduzca
congelado
241
adoptaron
aporta
aranceles
dni
entendimiento
institutos
tornillos
alternativamente
realizando
reglamentaria
regulen
respetarse
situarse
sodica
ven
2r
armadores
contratistas
enviada
pmi
pormenorizada
iter
multiplicado
propuso
subsectores
tasacion
ritmo
tembladera
analizara
confirmada
dab
desempenara
presuncion
refrigerante
atribuido
basaba
espejos
isotopos
anonima
carrera
evaluadas
hsy
posiblemente
rodamientos
semola
291
agregada
botones
importarse
rabanos
regira
suponiendo
vea
verificadas
##ban
cierres
intercambiables
modifiquen
monetarios
neerlandesas
ordinarias
transformada
ascendio
calibre
competidor
difieren
empleando
402
apal
bastidor
cubran
evolucionaron
sesenta
verticalmente
aerosoles
desglosadas
reviste
306
asesores
cortar
eures
promotor
checo
etcs
meteorologicas
aesa
disenada
coordinado
incurrido
prohibidas
suspendida
##ce
continuamente
distancias
surgir
360
cojinetes
complementariedad
desarrollando
test
percibir
permitio
sumaria
aumenta
construir
esperados
galileo
trataran
tun
utilizables
vacuna
271
274
enunciado
explotador
gel
harinas
montana
rumano
abarque
adversas
file
nombrara
obtienen
1006
alemanes
diarias
historica
rabia
ramas
refrigerada
sirio
303
c2
contemplan
jugos
organizativa
ulteriores
alegan
catalogo
corazon
sas
2771
duplicado
elegida
indio
lleguen
proximidad
##ble
342
407
acredite
participaran
preveia
recien
satisfagan
suspendera
estipula
explicita
opina
propondra
rapidez
supervisara
avanzados
clorhidrico
constituian
kilogramo
lunes
utilizaron
##ch
absoluta
coccion
cpc
dirigirse
dolares
htm
merluza
organica
linguisticas
manejo
municipales
reorganizacion
seiav
##sa
1244
aceros
atributo
bolas
insta
puentes
semirremolques
debates
detector
formada
impactador
imprenta
notifiquen
ofrecio
362
373
analizarse
asalariados
biologico
colocado
dkk
ganancia
pedira
buscar
mecanicamente
respectiva
909
fraccionamiento
inmunidad
kv
pantallas
participes
recubrir
wp
257
467
armados
ccrvma
coleccion
nu
optimizar
supeditado
baldosas
chasis
dejo
melaza
##ti
ampliamente
boca
carboxilico
despachado
empleador
implicaciones
irani
musica
prestamista
965
adquiridas
ecai
fluvial
lanka
proyectores
transformaciones
277
abarco
exigibles
exigirse
ligados
necesito
barnices
constituiran
criticas
emergentes
inmovilizado
mezclado
zoosanitarios
276
centre
ci
concursos
equitativo
especialistas
montado
pizarra
selectivo
trichoderma
288
armamento
boro
comprobaran
expresarse
fmi
propil
sulfuro
346
balisticos
comprenda
comuniquen
dejen
generan
inmovilizacion
santo
trabajen
transeuropea
##ni
concebido
discriminatorias
fijen
ib
publicarse
tips
altas
dividido
expectativas
integrar
preferentemente
tenemos
troncos
abonada
comparativa
constantes
decidan
donetsk
ginebra
innovadora
contratado
funcionan
pantografo
portuarias
curvas
experimentales
permuta
t5
tuneles
carcasa
comprobarse
diamantes
pasaportes
prorrogas
temprana
aa
development
hija
horario
intento
levante
moldes
tamiz
tecnologicas
turistico
1484
496
camino
desfavorecidas
indicadoras
abandonar
acuse
aprobarse
cerdas
descendente
identificada
improbable
jaulas
preparada
respete
tercios
c4
evaluados
evite
lesion
vendidas
botes
constancia
construidos
gelatina
intervenir
manifestaciones
ordenamiento
rescision
residan
aerodromos
ece
encendedores
insectos
irritacion
oxidacion
sai
validados
admitidas
botsuana
convienen
financiada
gdynia
gestionada
inscritos
aceptaran
apple
cesiones
cis
evitarse
finalizara
huecos
sol
ayer
clinicas
condensacion
constitutivos
lei
market
382
basilea
cal
prados
sabor
superficial
##30
279
convertidor
estructurada
exactos
identificadores
indias
introduzca
licuado
metano
negligencia
suprimido
vial
za
20000
confeccion
fotograficas
revisaran
sondeo
unanimidad
1305
celebraran
distribuidos
estancias
orientadas
pesado
raya
acondicionador
conyuge
desempenan
dirige
emplee
extraordinarias
mostrado
pertenezca
asumira
especificando
estimados
lecheras
nordica
pimientos
tratan
analizadores
ascensores
blancas
conectadas
costeras
das
dilacion
escasez
subordinada
cronica
delimitada
descartes
domestica
haberes
implicar
pescadores
relojeria
uf6
##0000
442
blancos
cebollas
centralizada
data
dg
enviadas
graficos
historico
organizativas
patentes
prescrita
shipping
telefonia
type
centrara
discriminatorios
ejecutarse
fragmentos
jabon
subida
vacunados
dispersion
estrictos
formalmente
fur
notificaron
tampon
tipica
794
from
optimizacion
265
anfitrion
cocer
conste
fallecimiento
llenado
obtendra
precursores
referida
analogia
comercialicen
donante
gnss
macroeconomicos
remitido
repetir
364
aporto
arqueo
bucles
habitacion
inter
realista
recinto
##um
acumuladas
bacterias
c3
deshuesada
empuje
fosiles
hormonas
memorando
sadc
1342
assessment
decomiso
demandas
objetivas
poliesteres
rapex
satisfactoriamente
signatarios
arcilla
arsenico
bebes
citrico
estipulado
ocurre
ordenada
variantes
airways
din
durabilidad
inducir
instrumental
inventarios
naftaleno
transmisiones
afirman
contribuyendo
desvio
equilibrada
hermano
inulina
sistematico
smbv
someten
sustratos
332
capturado
fisicamente
participara
tostado
alza
c6
deportivos
entregara
hallen
prefinanciacion
renovar
sabia
616
artikel
asume
eliminarse
especificidad
lituano
noventa
omision
tetrahidro
habas
incompleta
industries
muestren
nea
pormenores
pronunciarse
prospeccion
relleno
valorados
zinc
##ma
adsorcion
duplicacion
ecb
juntos
longitudes
muestre
representados
rtp
##11
devolver
ek
gravamen
causada
consultoria
eeg
emplea
emprestitos
impidan
invitara
nulo
pasiva
reciproco
reuna
robo
volante
acepte
benzoato
britanicas
evalua
gestiona
acompanar
ciruelas
hubieren
jabalies
rige
validado
cabra
circonio
labores
leal
lingotes
performance
posicionamiento
presunta
rectificativo
uv
arrendamientos
convertido
formales
madeira
rosa
siquiera
sucesivos
terroristas
cacahuetes
caracteriza
ciudadania
continuara
cualitativa
elegidos
filtrar
inversa
os
panaderia
tendrian
universidad
1r
emplazamientos
forrajes
geograficos
leer
mandatario
prohiben
rama
sace
679
basta
compensarse
concluirse
genetica
mortem
oem
pf
sueldos
##ida
415
fenomenos
indeleble
islamica
anada
cumplimentado
faenar
kazajstan
recubiertas
atribuirse
aye
ejecutivas
globalmente
proporciono
valle
##ada
cargado
constantemente
ladrillos
mauritania
ovoproductos
ralenti
reconversion
transport
traseras
verificados
examinadas
ferrocarriles
mayusculas
practico
referira
246
381
atraer
desean
deseo
orece
prevalencia
rellenar
responda
##ado
5°
bario
expire
manifiestamente
momentos
roma
senalarse
televisiva
terminar
1960
actualizadas
desempena
disolver
indios
perfeccionar
rebasamiento
tintes
vean
1606
caldera
casacion
contrariamente
elaborarse
figuras
potasico
ruanda
796
condicionalidad
demandado
inmueble
respetaran
subordinado
deformacion
eie
encargo
encontrado
nuestro
orientados
titulacion
transversales
verificarse
##el
gallina
normativo
recopilar
##va
355
385
440
alcanzo
destine
doc
eludir
leton
solidez
usa
anadida
cartuchos
correctas
discrecional
friccion
imparcialidad
kazajistan
land
manifestantes
pcga
861
compone
farmacovigilancia
patente
propileno
techos
contribuya
desfavorable
imposibilidad
introducira
patos
precisos
##ato
660
adjuntara
association
cautivo
dotados
empezar
eutm
examinaran
peninsula
satelites
1957
destilada
pd
salariales
sueldo
turbina
vertido
abertura
aportados
asumido
bi
ciudadano
gen
injustificada
legumbres
preventiva
716
arrendatario
citrus
mandatos
mobiliarios
portuguesas
titulado
vinculacion
cooperativa
efectividad
elisa
fluoruro
mencionar
system
aleados
llevaron
reputacion
telecomunicacion
trabajado
533
bits
colocada
maquinista
pavo
1154
2092
antena
conocidas
favoreciendo
identificarse
metrico
oriente
urbanas
vibraciones
1370
apruebe
prohibidos
toxicas
60°
asigna
bonificaciones
conmutacion
debio
documental
einecs
formados
icue
nombramientos
revelo
supervisora
vulcanizado
##berg
353
3a001
astilleros
atenerse
camboya
detenido
longitudinalmente
ron
rubricas
ventanilla
almacenada
atcc
bolsillo
cerciorarse
consagrado
emite
extraido
facilitan
fotovoltaicos
muelles
proporciones
registran
utilizandose
493
cmnucc
compuestas
controlador
convertir
delta
expresar
futbol
precisas
refinerias
4a
coercitivas
combatientes
confirmaron
cribado
dependa
eit
esqui
explicativa
fn
##et
1011
2377
379
552
767
inmobiliarios
mostrar
secundarias
409
comercializada
noruego
reproductoras
universidades
vencimientos
242
ascendia
certificar
chemical
conlleva
oficio
renunciar
1913
512
accidental
benzo
dem
impongan
laminadas
plaguicida
prevean
suprimira
μl
2022
agenda
antiguedad
sintetica
1954
absorber
cg
comparativos
contara
intercambiaran
preparara
taller
509
acrilico
adaptados
ajos
cercano
licenciatario
microempresas
pm
termicamente
transportado
reconstruccion
rica
a3
capacitacion
easa
equino
excesivos
faenen
preciosas
provoca
seleccionara
1882
contrarias
elegibilidad
esloveno
gris
hsh
inmobiliaria
kyaw
optima
potenciar
socorro
supongan
amenacen
aumente
beber
competir
cubrirse
desconocido
lactobacillus
usado
020
anhidro
catalitico
credit
gubernamental
iniciarse
orales
repeticion
acelerado
centrarse
dependencias
desarrollen
fdlr
fumar
impulsos
ricos
ventana
°f
##ed
alcancen
aromatizados
ofrecidas
recuperados
resistente
suazilandia
##ja
escocia
folletos
paciente
parques
ab
acuatico
adjudicados
dell
encabezamiento
factible
permitiendo
proyecciones
calentadores
casco
cod
ertms
etiquetados
fortalecimiento
intermedias
limones
preaviso
##ol
deteriorados
estimo
franca
identificara
incumben
movilizar
retirara
574
autenticacion
comparando
distintivo
ejecutada
estime
euromediterraneo
gato
inc
paralela
puramente
tenidos
1600
apio
cascos
claves
correctivas
derivarse
desventajas
banka
celebrarse
complementar
exclusiones
respetan
seychelles
subsiguientes
2111
asuncion
comience
estudiara
etoxi
guias
ida
notablemente
participada
rinon
suceso
tris
turba
comprometer
cualitativos
dbm
difiere
educativo
informaticas
mapas
pasteleria
verificado
##ica
admitir
asegurado
bicicleta
biologicas
centrado
distribuir
hidraulica
saturacion
334
adjudicadora
c8
dcb
discrecion
equipada
indicio
muelle
ordenar
seguras
1520
323
609
aptas
chapado
constituyentes
geometria
investigador
receptora
retractor
sistemico
supervisado
calcico
cuantas
estrecho
extraordinarios
postratamiento
report
traseros
661
cupon
deducido
insuficiencia
integra
moldova
parecer
representada
adelantado
revestido
semipreciosas
xxiv
estonio
sostienen
suspensiones
anillo
cautelares
colocaran
convenga
cs
disponerse
luxscs
meramente
oil
rcde
reducen
aprovechamiento
cotonu
denegara
tiendas
c5
carro
coles
escritura
forros
mantuvieron
memorandum
oportunamente
subsanar
subzonas
t2
428
849
alquileres
destetados
diol
recoleccion
spg
668
abusos
c7
cuadrados
ecuador
establecia
omar
palanca
planas
publicitarios
suscritos
alambron
basicamente
evitando
extendera
gratuito
melones
nosotros
parafina
remitida
acusticas
amro
ecall
generalizadas
societe
thunnus
yute
avenue
avisos
chatarra
energeticas
limiten
logistico
plantean
procurara
reconocio
reembolsado
conectada
convenido
fibrosos
laudo
peroxido
razonamiento
sic
suela
237
392
confieren
electronicamente
entera
formaldehido
haji
hap
intimidad
mangos
modelizacion
organizado
peinar
preparatorias
reduzcan
reflectante
reparar
sufrir
413
escaso
esencias
estamos
ligada
596
anotaciones
apagado
aportara
autonomas
calificados
colocados
conectores
delanteros
esperada
fft
recuperables
trade
vcprd
1273
1311
2343
452
abn
extra
ong
pigmentos
revestidas
transferirse
varia
286
aisladas
catalizadores
dictadas
fl
html
intervengan
ocupados
tanques
426
alteraciones
carece
completara
declarara
desarrollara
desglosados
enganche
unitaria
361
370
basar
contratados
contratar
historia
hungara
maltodextrina
penas
poliamidas
presuntamente
acidez
desaparicion
ibrahim
mediano
meta
one
692
croata
disodio
ga
indicaba
modificativo
descascarillado
diagonal
lignito
participo
pense
pulverizacion
simulador
tapas
comprometidos
ejercerse
falsa
inscrita
monofilamentos
recta
siderurgicos
volvera
339
afrontar
city
epizootias
espiritu
mandarinas
mitigar
reach
reflexion
apoyacabezas
ers
fcl
opere
pimienta
representatividad
supervisada
aritmetica
cf
emplean
facultado
interseccion
metacrilato
plantaciones
retroactivo
2799
514
acondicionar
dicloro
emergencias
extraidos
mayoristas
remesa
revistas
sustituidos
transnacionales
vertidos
ai
circulares
despiece
dieciocho
directriz
dual
hospital
linguistica
mantenida
peaje
639
acompanen
arabe
codificada
facilidades
inherente
manifesto
west
994
concluida
conozca
consecutivas
granones
olor
compiten
condicional
confiar
expiro
manualmente
poseedor
pulpa
septentrional
sulfonato
ae
coniferas
crema
cxl
lodo
review
swaps
tamanos
cce
chapa
cocinas
continuas
desarrollan
halla
sobrepasen
sustitutivos
1334
480
542
dolor
dureza
humanas
introducen
##je
amigos
comunicaron
d2
liderazgo
precinto
regenerado
zoonosis
601
app
capturados
clorofenil
humeda
incorporan
inicia
inmovilizados
liberado
comoras
dominicana
nv
oido
508
canadiense
certeza
cl
compararse
fuertes
licor
masico
pedal
517
abarcan
aoe
bromo
cumplimentara
expulsion
khin
lineales
mala
maniobra
mejorado
nm3
trabajados
32004
daria
dedicado
eglefino
extendido
pabedan
shwe
azo
delimitacion
funcionando
generalidades
gustaria
mezcladas
policiales
supervisadas
tolueno
##sen
793
antenas
camisas
colchones
desarme
firmados
gadus
intervienen
sistemica
aporten
catorce
contenia
desmantelamiento
lavavajillas
transmitan
1024
adjudicar
dedicados
delegarse
fabrican
frascos
observada
osp
retrovisores
rusos
concluya
dispuestas
emisora
enfriamiento
liquidas
mixtas
ng
nocion
orujo
pays
pcsd
percibe
separadamente
termicos
viena
caballo
gaza
ocular
reitero
sirven
trabaja
us
velas
##ria
absorbente
bus
eliminado
extender
extraidas
fluido
higados
insoluble
ordeno
recreo
remitente
##za
adeudados
demandantes
neutralizacion
powiat
##ng
ampliaciones
cat
comprenderan
comprometio
espumoso
imputacion
presa
siguieron
416
antemano
bencil
canarias
cautividad
confiteria
convenientemente
fenomeno
reciprocamente
retire
solicitan
tiro
triazol
zoosanitario
ajustada
bambu
bissau
chorro
contraincendios
copolimeros
derogadas
diluir
hidrolisis
inmobiliario
mediran
monte
obligar
reciproca
technology
на
515
ahmad
evalue
fluoro
lechugas
obligatoriamente
urbanos
admite
albaricoques
anular
avanzado
congestion
deportivas
dublin
encontraba
fenoles
indebido
indicaron
perder
rm
t1
399
bituminoso
elabore
falsos
hijra
informaron
porcion
prescritas
puras
tortuga
tt
advertencias
contribuiran
empleadores
estricto
gallo
manifiesta
situe
525
cuidadosamente
elementales
industry
recomendadas
registra
revelacion
transportarse
##ie
2023
821
brazo
ciencias
copernicus
determinante
dotado
esteriles
gov
listo
nlb
rusas
vuelva
az
bulgaro
cepillos
derogados
fosfatos
fraudes
habitat
horarios
levaduras
panama
producira
recuperado
subsiguiente
takfir
tripulados
atlantica
c0010
damasco
equipajes
fletes
hebilla
logrado
monaco
palestina
subcomites
326
abd
consciente
consista
cuantitativas
diona
encefalopatias
llevados
refinados
reservados
1000000
arbitros
biotecnologia
dinamicos
experimentacion
idiomas
importada
liberara
llegan
metabolismo
pg
puntas
ventiladores
viceversa
369
concebidas
consultivos
difundir
facultados
generadas
ilicita
leguminosas
permanezcan
provocado
vendedores
vendio
486
actuado
atmosfericas
hvdc
irlandesa
maderas
monitores
nhi
ondas
pisos
rojas
von
##tion
almacenarse
asignan
cuantificar
expresara
inmobiliarias
inscripciones
justa
372
474
carburos
certifique
espongiformes
extienda
presentaciones
proporcionales
york
1268
1300
15000
balances
colonias
disminuido
horticolas
notice
obstaculizar
reposicion
aea
deliberadamente
directivo
im
rampa
recogerse
acoge
athena
calorifica
conector
emprendimiento
enmalle
etano
expidan
inminente
metricas
opaq
revisadas
zanu
060
aportada
artefactos
creadas
desempene
deshuesar
formularan
peligroso
planteadas
productoras
tensiones
wolframio
c12
deberias
enganosa
hidroxietil
nailon
regresion
sillas
complejas
lagunas
maximizar
naranja
nave
pilotos
refractarios
resistencias
sombreros
25000
bar
carretillas
cobrados
coincide
desfavorables
disenarse
empezo
emplazado
intracomunitario
pocos
rector
shv
sif
club
incorrecto
inflamacion
nuestra
paralelamente
plaque
propan
recomendo
tocante
calorifico
celebren
cen
cirugia
invocada
palas
precintos
registrador
repercutir
retiro
aleatoria
azores
composites
entienden
ocupado
originadora
rebasar
reservada
1150
1451
1701
3b
continuos
contrapartidas
emita
fronterizas
inercia
monos
notoriamente
observadas
retira
suministra
unida
393
453
confusion
efectuaron
observarse
organizara
rectificado
comparten
interpretaciones
office
puestas
remedio
sudoriental
5a
611
amina
anejos
antibloqueo
birmania
estampado
filamentosos
isk
roedores
sometan
aeroportuario
apoyando
competitivas
cotizadas
cuerpos
espinacas
esquemas
exhaustivo
nectarinas
precipitado
prioritaria
pusieron
recomendados
refineria
tus
1251
balanzas
bv
consignadas
criadores
ejecute
exponer
gestionara
health
inicie
mancha
perseguido
continue
dosificacion
escaleras
foros
gasoductos
ilo
sogeaal
virgen
##q
agar
cambia
cedente
clasificaciones
expresaran
inhibicion
nacidos
piscifactoria
volvio
2131
cuenten
engranajes
fina
formulada
impuso
milan
necesiten
odontologia
permitidas
2535
basen
consignada
decimo
dolar
mate
moras
ordenado
parado
tratandose
351
cordeles
desventaja
hungaras
log
orientada
769
active
cuidados
elaboren
financia
fluidos
hidroelectrica
ligamento
monitor
redactada
relevancia
1235
725
disfrutar
entablar
fiyi
guarniciones
pcdd
pesos
verificaran
##bles
apoyado
bebida
envasados
exacciones
isin
maltes
o2
yemas
998
acordes
ayudara
cesionario
controversia
correr
denegado
estucado
facultativa
falseen
impresas
joven
recuadro
revocada
uzbekistan
controlarse
determinaciones
medicas
monopolio
particularidades
plastica
pronunciado
semanal
subcategoria
armado
conformacion
desconexion
estimadas
femp
genericos
namibia
protectores
silice
terminologia
traces
##tes
acuerden
anexa
asistido
cooperantes
cruz
membrana
meno
notificantes
retroactiva
risk
sandias
secret
acrilato
acustico
adiciones
devengadas
disuelto
enf
enrollar
fundido
habilitaciones
objetivamente
persistentes
preferiblemente
than
viajero
##ga
842
anima
biodegradabilidad
comentario
dispuesta
divididos
escudo
higos
informen
intensificar
oveja
pliegos
pollo
reevaluacion
referiran
sonoro
vegetacion
adherirse
descartar
envia
kgb
leucosis
levadura
procederse
tin
tintura
aislantes
cisjordania
comparo
destacar
equitativas
gaseoso
habitantes
hassan
inmateriales
n3
persigue
sc
vas
371
462
admitido
algoritmo
asesoria
brix
fortalecer
integrador
ipa
modalidad
mpga
procederan
reconciliacion
sabes
suprimiran
vacios
1947
32005
acordo
adaptada
alegado
aminoacidos
comercializadas
costillas
deberes
extintores
multiplicando
pasas
sostuvo
tutela
comunmente
cuente
enjuiciamiento
grosellas
hubiesen
indebidos
pregunto
provistas
regulations
roca
##ona
1159
adhesivo
comprensible
ejerceran
merlan
plantear
recarga
recopilarse
refuerza
respiratoria
revelara
subsector
torsion
voor
595
estimulo
fusiones
gusanos
hidraulicas
invitados
limitaran
propionato
puros
tartarico
891
acreditar
alambres
atribuibles
chaquetas
cp
devolvera
exporten
imponga
recomendar
aceptan
acondicionadas
capsulas
carburantes
consultaran
interruptor
liquidadas
rechazada
benzoico
coloracion
desgaste
estrechos
eta
excesivamente
fotometricas
ilimitada
imparcial
islandes
salido
senalaron
usan
vigilar
cita
declaran
export
genere
peritos
subcategorias
competitivos
dictada
documentados
escision
hf
john
leipzig
soe
xviii
ac
conexo
controlara
costera
federados
impugnada
ocupan
pcr
procesados
publique
356
785
almacenadas
exceptuando
instrumentales
pirotecnicos
poliamida
procedido
ratites
reembolsados
rumana
tensioactivos
bulgara
calzones
fluor
helicoptero
llevando
macao
remuneraciones
seguia
starbucks
surjan
tradicionalmente
1073
informativos
man
perdio
search
tapones
1702
aciclicos
acompanan
alitalia
autentica
capturarse
chicago
colector
homogenea
identificaran
interprofesionales
racional
recubierto
satisfaga
sugiere
adhesivos
bono
consular
consultor
fluviales
importadora
incorpore
peor
regiran
repetibilidad
someta
tematicos
1223
alumnos
contraccion
denuncias
enterprise
esencia
gabinete
globos
informatizado
pepinos
secar
south
tapiceria
tuvieran
zoosanitaria
##40
1s
desplazarse
habitaculo
informadas
vaso
##ri
32006
abrio
carboxamida
ideas
ignicion
septies
soberana
susceptible
30000
aclaracion
alegando
deber
deshuesados
dobles
herbicidas
humos
importa
tope
vejez
585
714
agrupadas
aislado
cuchillos
dividiendo
ghana
input
introduciran
og
usando
367
500000
675
administrar
conejos
estipuladas
juvenil
mcr
rendicion
solubilidad
traten
1408
2160
adverso
aglutinantes
aportadas
ascendente
casamiento
corona
cpaco
eslovena
hplc
incompletos
surtidos
vacantes
viticolas
##ii
aglomerados
chequia
conejo
consistan
d1
examinada
idioma
recorte
semiconductor
supondra
asegurada
catadioptricos
dejan
esquisto
fomentara
humanitario
liberar
palatinado
redondeado
zaw
abdullah
craqueo
duradera
galletas
informadora
magra
meteorologicos
reconoceran
rosas
trataba
victima
608
aumenten
cae
influyen
portatil
redactara
salmones
servidores
servira
simplificados
865
armada
celebraron
decidiran
disenar
gabon
gestionadas
reflejara
representara
retiraran
seafo
situara
teoricos
tunecino
viajar
1962
374
427
comenzado
constatacion
crin
finaliza
gdansk
gr
preparatorios
profesiones
rectangulo
reduciran
reembolsables
sirvan
cfp
contingencia
enzootica
fallecido
gsm
indispensables
insertado
portuaria
visuales
822
931
971
cesado
cgpm
contencion
experimentado
inaceptable
lot
migratorios
procesado
publiquen
seguidamente
transeuropeas
##mina
368
audio
blanqueados
celebra
colaborar
dinamometro
magnetica
mostraron
operarios
organizadas
paliar
paralelos
prolongado
recurriendo
solicitarse
yodo
482
anhidra
bic
business
desecados
desproporcionada
estricta
frigorifico
geometrica
ig
irregulares
mucha
profesor
propiamente
rechazarse
rpm
teorico
verdadero
##ion
1422
bioseguridad
chemicals
coli
completada
consignan
declararon
elegira
fluorescentes
navegable
parental
presidido
raras
200000
635
abarquen
electromagneticos
heces
lechera
mineria
moldeados
plaga
simplificada
trabajando
##12
ais
desmotar
hipotecarios
hongos
normalizadas
pato
provincial
viscosa
abonaran
estupefacientes
hallarse
mullah
reunidos
rodado
salvajes
tambores
797
810
884
almidones
calidades
codex
comiencen
enriquecido
epoca
foca
hotel
precise
reexamen
stcw
001
acristalamiento
beneficiaran
desarrollada
experimentos
ilicitos
impiden
necesite
percibido
recogera
sufrio
til
uit
889
aglomerado
armarios
caolin
capita
chalecos
deduciran
envien
generos
hardware
lamenta
microfono
pct
rigido
sellado
amsterdam
autopropulsadas
bioetanol
comidas
dirigentes
estandares
exportadora
flotantes
ganaderia
mozambique
op
opuesto
pareja
referia
rotor
soportado
standard
suministre
superavit
669
assad
esperaba
expedidora
extrapolacion
fragmentacion
metas
perito
permanecera
rcp
refinar
solubles
sospechas
tomate
die
finas
hidroxidos
jan
om
subordinadas
ultravioleta
audiencias
cabt
deducira
financiara
maneras
pronunciara
vara
##ur
1100
423
alterar
biogas
desafios
dirigente
erasmus
fatiga
incubacion
interpretar
metoxifenil
oponerse
rebano
saccharomyces
slb
359
acompane
caracteristico
carriles
comunica
continentes
desembolsado
estipulados
gallineta
jaula
maduracion
manifestado
mixtos
procuraran
sucede
tocino
tri
3r
61°
eurocontrol
iban
ido
inexistencia
laborable
lease
legibles
peligrosa
perfectamente
perseguidos
procesal
rae
responden
867
afirmaron
anadio
aspergillus
contraidas
copo
crucial
cualificadas
escorias
identificable
incrementarse
non
ssp
transferira
transportan
viven
1191
405
activistas
aislada
cancer
clasificara
concertadas
distribuira
dividir
empleen
ferias
integro
radioelectricos
6000
aes
agoten
aplazar
clasifica
competidoras
compraventa
comprobada
cortada
ducado
explosivo
girar
ligadas
mantas
obtuvieron
oir
rata
recogeran
reinstalacion
soldar
transferibles
val
2025
412
638
adeudado
bayernlb
compensados
concentrar
contorno
desactivacion
fob
juveniles
ofrecida
originalmente
prorrogado
puntuacion
puntual
rechazado
terciopelo
tomados
transfiere
trifluorometil
turisticos
32009
autos
bola
capturadas
comercialmente
dientes
dirigira
ferreos
ffhg
pagares
perlas
proponen
sencillos
suscribir
ungulados
##ya
capilar
continuado
crucero
cuencas
duferco
elemental
enajenacion
incidencias
instaladas
judia
lactea
neutralidad
restringidos
scomber
vatios
aprobaciones
depositado
probetas
realistas
tif
verdadera
aborda
afectaran
asimiladas
belice
cpane
deportivo
diferir
flete
frecuente
inscrito
instalara
kraft
montarse
ojo
protector
venderse
voluntarias
##80
##ge
##ki
422
abreviaturas
cbs
conocen
disoluciones
molar
nauticas
nutricion
sepa
alentar
ataque
austriacas
cardar
circulen
dl
educativos
examine
prolongacion
rf
coloreados
crediticio
distritos
elevadores
extenderse
forrajeras
impresa
limpia
listos
reconocimientos
reforzando
tocados
tributacion
adaptadas
apellido
aroma
comprados
lanzon
lrcalc
supervisados
acoplamientos
asuma
cataliticamente
celdas
cerco
contribuyente
endeudamiento
fomentando
ganaderos
glicerol
hierba
ingestion
monturas
pagan
przez
solla
solucionar
zanahorias
celebre
comprometerse
conseguido
cuadernos
respondera
rusticanos
adhesiva
administrados
comercializan
deceleracion
entrana
maternidad
mecanizado
mera
ppc
tortura
transferidas
trucha
vital
comprometa
ecologicas
estarian
fletan
hectolitro
inequivoca
infrarrojos
infringiendo
lacteo
manipulaciones
minoritarios
proporcionando
reactiva
resida
2571
abstenerse
analizados
diplomatico
epi
expondra
fabricarse
meridiano
nationale
octava
plc
rte
subsidios
vera
##21
5r
chapados
condeno
elaboro
gestionen
habla
intergubernamental
poliuretano
transmitidas
zone
##60
actuo
aee
causante
computo
della
expresan
firmas
herbaceos
jareta
juguete
llaves
nuevamente
otono
permitia
reductores
sale
superacion
yugoslavia
antigeno
aviation
b3
calefactores
cumplidos
diputado
documentada
hemorragica
incondicional
insecticidas
melamina
paraguas
platino
rue
sky
tacografo
trlis
vela
veracidad
vfr
##mida
1013
acepcion
atribuye
bastara
concienciacion
cruzar
distingue
explique
extradicion
feliz
haria
nitrico
seleccionaran
completados
concerniente
detecte
elaboraciones
esfera
femenino
financiaran
flotas
innecesaria
pasan
pb
prorrogados
salada
atenuacion
circunscripcion
enumerada
facto
gestionaran
iberica
socioeconomicos
uganda
300000
581
612
acusticos
agl
arbitro
cordones
existing
incrementales
integral
mostos
suizo
suspenderse
acordaran
ats
berenjenas
cavidad
comparativo
dimetilo
grd
habilitado
liber
operacionales
suministradores
suspende
charleroi
dividida
fc
interoperables
interponer
mero
poca
poniendo
##ly
dormir
droga
estaticos
gamma
osce
pistolas
plantones
recurra
rvr
##ko
32014
cerevisiae
deducidos
dma
formulara
gluten
hermeticamente
hilado
huevas
orificios
polimerizacion
regionalizacion
reglement
respetara
sgc
tenacidad
une
1950
almendras
combus
contraido
desastres
ejercidas
examinaron
exportarse
fundaciones
ifb
itinerario
mwh
simultaneo
skagerrak
surta
tapa
anr
cerqueros
infusiones
internamiento
psa
radionavegacion
reducidas
requeriran
satisfactorias
tiburones
4000
4s
936
aplicaron
catadioptrico
comprado
configuraciones
corredor
depilados
feie
incluian
irrelevante
oa
persistencia
refino
rios
tornos
32003
807
au
cabotaje
destinataria
formaciones
orificio
sana
satisfactorios
brea
cien
desproporcionado
explosivas
inorganicas
interconexiones
pr
terneros
vejigas
411
actualizaran
confirmara
corretaje
implicara
interacciones
telefonos
transpaletas
variabilidad
zea
##ts
389
avanzar
capsicum
convierte
delegada
etsi
indicativas
involucrado
llanta
ponentes
adjuntarse
ecuatorial
estructurados
expirar
frf
fundadas
homologada
isopropil
pirateria
sncb
377
adjuntar
angola
entrevista
especialidades
eviscerados
insertara
maestro
mus
pour
premezcla
regrt
sumamente
swap
vector
adaptara
ascienden
asegurados
desempenen
generen
kt
letona
limpio
040
accionar
aumentarse
carbonil
divulgar
ejecutados
enzima
frecuentes
pautas
perejil
probables
subregion
valencia
voluntariamente
admitiran
afgana
catalogos
ceder
conversaciones
electrones
fitosanitaria
interruptores
jers
llantas
manifestacion
marcadores
maruca
sajonia
secretos
ss
caoi
cartel
coordinara
desarrollarse
espumosos
investbx
operante
planteamientos
rectangulares
reside
tenis
that
v1
alumina
apenas
digito
endurecer
escolares
firmaron
incurridos
irlandesas
marginales
negras
piem
pilar
pnr
provista
vinedos
asistira
causadas
colectivas
depositar
dividendo
feculas
fermentado
infectadas
lejos
management
metabolito
navidad
nitritos
permanencia
posibilitar
puntuales
451
all
amplificadores
conservantes
contemplar
curvatura
hidroxifenil
identifique
individuos
pac
peto
rico
1198
britanico
calificarse
constatados
encontro
equivaldra
farmacopea
informarse
kivu
mica
parlamentaria
profunda
transcurra
ventajosa
1250
1946
3500
565
aparecer
bastones
cambie
cccme
cereal
comercialice
cortadoras
depositados
estirado
hilachas
jerarquia
microbiologicos
platano
precaucion
refundicion
subproducto
subtema
xix
activara
camisetas
construido
contraste
cov
defectuoso
dimetilamino
elimina
expidio
franjas
frigorificos
gallos
irak
latina
vive
atribuir
creen
curado
desactivado
entrantes
enumera
feed
hcl
microeconomicos
ofreciendo
pasara
precisara
radiadores
reconozca
verificada
##19
ascendera
cuantos
gestione
implicada
lu
madurez
marea
mesas
regreso
##at
alimentar
artemis
compararon
dificiles
dura
felpa
filpe
hallan
hectolitros
maltesa
propietaria
toxicologicos
tramitar
589
building
compensatoria
desarrolle
ende
especializacion
jornada
loro
organicas
pino
protegerse
retrovisor
tallos
testing
433
844
aleatorio
caseinatos
cocidas
consulares
coordinadores
cubriran
embajadores
fpe
incrementara
libera
lituana
sms
030
aie
aujeszky
basaron
buenos
desplumados
diamante
eviten
imprevistos
information
larvas
licitar
mays
pertenencia
rellenos
sucesivamente
untar
410
582
aportan
censo
destinarse
eno
korea
marine
pierna
regolamento
requerimientos
zhejiang
439
amparados
ciudadana
describiran
estudiando
gozan
hilatura
informan
jurel
mamparos
mensajeria
noveno
oculares
predominante
presidencial
sachsen
ubicadas
yerba
380
934
asegure
cociente
controvertida
cordajes
correspondia
crearan
if
manada
racionalizacion
rapidas
regulamento
resumenes
surco
tayikistan
uniformidad
virgenes
viva
##ron
1071
723
748
aproximada
avellanas
casinos
cloruros
conectividad
contestacion
conyuges
crearse
droge
envie
espada
espero
estructurado
euam
h5n1
hidraulico
intestinos
oman
ordinaria
pernos
plegar
abdallah
activar
epa
estatico
gastado
indol
ke
multiplicada
oo
permaneceran
pistas
practicados
reposo
verordnung
1126
1258
403
511
admitira
aespj
centralizado
charter
cinematograficas
condenado
conserven
entregarse
hamburgo
leona
m23
marcador
organizador
pcdf
sincrona
viernes
we
zapatos
##nos
a7
cigala
conservado
descendio
digestion
expresiones
finesa
frambuesas
oic
ordenanza
redujeron
revestida
vendida
zumos
1955
acondicionadores
asesorar
cincuenta
contados
csnu
denomina
eb
esc
eulex
gc
iniciacion
public
sips
sudeste
suministradas
1036
478
504
689
abrirse
activista
bulbos
c10
conscientes
coordinados
cupones
debiendo
east
frasco
gestionan
hidroximetil
impresoras
main
planteado
remolcado
sustituya
valoraciones
##go
757
actitud
adulto
controversias
hlaing
instantaneo
kuwait
multiplicador
tca
verificadores
adquirio
amigo
catodicos
despido
empleara
enfrentan
falsas
hahn
inerte
ja
mensualmente
proximas
sinonimo
subvencionados
vaticano
##eno
674
afectaban
aportarse
capsula
chipriotas
conjuncion
conmigo
envergadura
equidad
exoticas
ganadera
guatemala
indebidas
infectados
logicos
meteorologica
pas
rectificar
resistir
rigida
sospechosos
suministren
supondria
##91
##or
2037
absorbida
calefactor
cuarzo
denominador
descentralizada
eniac
entregadas
espadin
ifr
mira
ocupada
pagadero
percibidas
piernas
probeta
reforzado
877
camerun
contrarrestar
destacado
faculta
fria
krill
pocas
rectores
semidiesel
1210
calostro
casquillo
concursal
deseado
desequilibrio
drenaje
notable
polizas
viiia
32015
560
ajenas
autoricen
bordados
britanica
bruxelles
carbonero
deciden
decreciente
describira
detecta
explican
focal
golf
hipotetico
impregnadas
japones
linii
mce
montadas
reciprocidad
reproducibilidad
research
salientes
sirva
abs
acordaron
aforado
alcachofas
asigne
confeccionadas
ejecutaran
fertilidad
sufragados
transpondedor
2580
472
amplias
biblioteca
condena
defina
licenciante
micrometros
molienda
produjeron
prolongada
racionalidad
recauchutados
recopilados
restos
rusa
salgan
transferida
acusado
amortizaciones
arr
asegurador
diferenciado
discrepancias
document
espalda
evasion
exhaustividad
exportada
incumplido
proporcionaron
racionalizar
reembolsara
tardia
##miento
aeroportuaria
dejarse
despachadas
digitalizacion
electricamente
enrollados
fiesta
fluorofenil
manoplas
polo
separador
shanghai
vuelto
577
anomalias
bioliquidos
consumida
ecdis
fomentaran
gadafi
granadas
identifican
inglaterra
neumaticas
obran
recuperaciones
siderurgica
##mo
##ras
387
afiliacion
aprobaran
avanzadas
bandera
bandoola
citrato
contigo
elastomeros
encomienda
inaceptables
infecciones
quinquenal
tipico
ulteriormente
##00000
1c010
2342
asistidas
helmand
prolongar
roscados
forraje
manzana
masculino
mrad
objetividad
pe
prudencia
reproducir
soberano
suministran
tintas
trabaje
volframio
1800
adenda
amortizado
ampliara
ciniif
coma
compensador
compro
consulto
corrige
dental
dicloruro
endurecido
erronea
glifosato
lenguaje
mejore
permanecen
1001
1331
505
ama
cargar
inadecuada
optimo
organizativos
recabo
reitera
sl
tubulares
venezuela
##icos
1316
40000
4h
denunciar
disenos
dure
ml8
moles
normativos
protection
ruptura
suez
volatil
473
atenuar
calificada
capitanes
concertacion
deshuesado
extendida
moldeadas
nitro
otorgue
portador
recuperable
reflejarse
1760
458
combinarse
corredores
dependan
detallan
diplomaticas
dsb
duraderos
hinojo
implantar
incurra
inf
invocadas
rebase
reglaje
resultas
safa
senalada
subtilis
terapeuticos
1059
1271
461
4r
austriaco
avituallamiento
breves
centra
comercializandose
consejeros
dorsal
exigible
fermentadas
fgef
fisicoquimicas
gomas
instalaran
menoscaban
neuwoges
optado
repetidas
ubicados
1956
3072
459
alcanzan
amplios
benin
condujo
instauran
interpretes
plutonio
tapon
world
1949
32010
convertibles
cronologico
dotaciones
examina
h5
integrarse
marcada
ocasionar
octavo
oleicola
pendulo
precisiones
representaciones
selecciono
##°
acetona
amenazan
apdo
butoxicarbonil
corporales
erradicar
estabilizar
exaccion
financieramente
formaran
itinerantes
manipular
remediar
uniformemente
analiza
aptitudes
comprobados
efluentes
estuches
intracomunitarias
lanzaderas
nutricional
oxigenadas
plusvalias
preferible
semejante
subgrupo
venido
vivir
1008
1791
32011
4b
808
974
apoyan
compartidos
confinamiento
emulsiones
imponibles
izquierdo
molleja
respaldada
superaran
universales
ala
artropodos
clupea
cooperado
correra
creando
devengo
dubai
fabricada
germen
incoo
insercion
maha
promoviendo
rafah
seniunijos
ua
##ilo
32008
afluencia
atunes
calculen
ch
consistiran
cortinas
cuba
definan
fijaron
incluyeron
iniciados
intergubernamentales
moldear
negarse
pretenden
representaron
scheme
sedimentos
tostados
valorara
virtual
8528
aceleradores
adormidera
atomos
biodegradacion
bp
carcel
condicionada
consten
deseable
estuvieron
falsea
guardar
homogeneidad
localidades
mandioca
nervioso
preventivo
##70
465
851
ata
cubas
diferenciar
escalas
opcionales
vuelco
balsas
ejecuten
ganso
ilicitas
inducen
mental
mill
paralelas
positivamente
ward
558
abrigos
cdc
desarrollaran
ditc
epigrafes
evaluen
hueco
impositivos
imputabilidad
microondas
pudiendo
reciclaje
reforzados
replicas
uiqpa
##li
050
1725
alude
anonimas
apoyen
arrendador
automatizados
comprometan
contabilizaran
dhl
eesd
enumerado
estampados
halogenuros
infantiles
marpol
participaron
pesticide
reclamar
reclasificacion
toallas
vertebral
##ic
amarilla
conferirse
cortado
cumplimentaran
fep
formule
humanitarios
556
5b
antartico
centrifugas
climaticos
diferenciales
ejerciendo
grabaciones
intra
marineros
matrimonio
palangreros
permanecio
reasentamiento
refrigerado
seriamente
usadas
2446
460
792
actuaran
adeudo
ajenos
cruzado
descontaminacion
grabados
iupac
muestreos
ocupen
procesar
reconocerse
s1
salsas
serias
tribu
utc
729
abrasivos
abrira
cermet
ciclomotores
compara
denegada
estomatitis
inadecuado
inscribirse
intencional
lugansk
maniobras
matriculado
milicias
panuelos
prestatarios
re
renovarse
resumida
005
408
acumulativos
analogica
atenas
automatizada
ba
caq
conglomerado
demostrada
eau
financial
fitasa
hidratos
horquilla
identifiquen
infectada
modificaron
peinado
permanezca
radiocomunicaciones
recoja
resulto
rms
superestructura
supra
alicuota
anadidas
cerraduras
constitutiva
contrachapada
dram
fiador
grafica
institute
lubricante
observan
oit
personalmente
power
propulsante
protectora
sucesion
virica
wyznaczonej
##99
2024
420
633
adquiera
analizaran
caudales
deportes
desembolsos
desglosaran
entornos
escalera
exactas
minorias
north
pau
sesar
subgrupos
##nes
910
alifaticos
bobina
caracterizan
corcega
cucurbitaceas
empezara
favorece
frecuentemente
handling
implicita
listado
once
opacidad
patogeno
pecuniarias
recurrente
redactar
reproductor
resultaria
sobres
trioxido
##amina
1002
1951
antimonio
arandanos
articulacion
ascendieron
clausura
consiguientes
environment
granicy
innecesarias
lago
mayotte
neutro
nord
permanece
porcelana
radiologica
tanzania
top
438
488
606
730
adquiere
analizaron
clubes
generico
interrumpir
lacteas
manufacturados
mitones
ofreceran
oneroso
pinas
pulido
reasignacion
separadores
terapia
vacunadas
veintiun
1051
abx
calabacines
colectores
embutidos
hao
helices
hemoderivados
honor
informativas
piridina
priip
pvc
replica
suya
tributarias
##ir
435
713
apicultura
conectarse
confirmatoria
depender
egeo
er
euribor
hidrogenados
nabina
prestamistas
sacar
tabletas
trama
ure
vuelve
##tina
comparte
cruzadas
csa
destinara
ejecutan
emiten
extremas
imputarse
incompatibilidad
lider
pantografos
raja
regularizacion
semirremolque
serologicas
##02
agitar
alojamientos
auditados
capo
cementos
coordinaran
cubos
discrecionales
grava
iap
mn
otc
transbordos
625
9a004
coincidir
cuerno
desproporcionados
imf
inflado
interferir
marcadas
pagaderos
pertenecer
picos
podemos
segmentacion
sospechar
validar
1540
1953
485
555
580
dc
deniega
dictado
documentado
etva
extrusion
impartir
mail
precisando
presentando
radiactivas
sebastopol
tuercas
##idad
6a005
acuatica
admiten
ahumado
aseguren
bacaladilla
bahrein
colageno
decidieron
desecadas
desglosado
fardc
fotograficos
mutuas
otan
pedro
pv
pzl
radiodifusores
salarial
supuso
tachar
tieliikelaitos
tomaron
trimestralmente
verordening
##bach
##rse
1169
acoger
antiguas
consigna
controlan
detalla
embarco
envasar
macho
permitiera
pozos
rendelet
repetida
seguidos
vendra
westfalia
1602
2185
aceptabilidad
afiliados
auxilios
calentar
carter
correctos
devengado
formulo
guarda
hermana
informatizados
suministrarse
tienda
validada
1935
2283
45°
7a
809
aportaron
c0020
continuaran
convirtio
decisoria
diluidos
envoltura
eurodac
intradia
irrevocable
limitador
motivadas
nudos
oif
plant
point
prohibira
separarse
tanque
toxica
trenzas
wt
##di
17029095
1881
bebe
dietilo
economic
explotados
faldas
floor
imperiosas
impugnado
medula
musculos
ote
plasticas
presunto
satisfecho
so2
sospechosas
suizas
zur
##ados
##zo
0207
barrido
cim
cites
cojin
comprendan
devueltos
extensiva
finalizados
limas
mangueras
ncp
nucleos
ofrecerse
pretendia
promotores
rechazara
repetira
transcurrir
##th
9h
concordancia
demandada
desgloses
discrepancia
equilibrar
estabilizada
generaciones
invocar
lex
mesta
modernizar
pactos
peer
rayon
subapartado
vendan
##era
##ran
610
779
abrigo
acetil
bdb
cfr
envolvente
fiducia
gn
justificaciones
lactico
lamina
maleable
otorgados
scr
tripulaciones
voltaje
##lina
3600
398
492
753
756
berilio
clean
coincineracion
consorcios
descargar
descartarse
diligencias
dimision
emitan
ep
fosil
iniciadas
justificara
mediterraneos
oleoductos
pulverizar
registren
solos
torres
##ea
ampliadas
calabaza
canteras
colada
concediendo
concesionario
deuterio
dispensar
estomagos
forzosa
gmes
griegos
ilustra
imprevistas
incertidumbres
intercambiada
lcd
necrosis
orientar
oslo
petroliferos
reaccionar
repetirse
siento
tungsteno
vu
##amida
150000
1905
619
adorno
agha
arandelas
atentados
bnfl
certificador
cinetica
clementinas
debil
dejando
deteriorado
distinguirse
leeran
liberados
pedia
prohibiran
recaudar
sufrimiento
systems
transfiera
1094
607
camion
cartones
desempenado
hfsf
importen
informativa
planeadores
probabilidades
rojos
royal
##13
2135
acrilonitrilo
actualiza
alteren
antimicrobianos
blue
copps
council
denegaran
esterilizacion
externalizacion
regulable
retiren
secadoras
serotipos
united
vertebrados
viiib
32012
622
alquil
aplicaba
cotidiana
craqueada
disfrute
financian
huella
imprescindible
irlandes
kilovatios
prorrogo
sensiblemente
sindicatos
subconjunto
thura
trastornos
viid
3d
531
boton
cac
carbendazima
ciano
comportamientos
impermeable
iniciada
lubeck
origine
rce
remitieron
rinones
##ci
aberturas
autopista
circulante
commission
comp
comprometidas
conductas
cu
descomposicion
detener
domiciliado
donacion
empotramiento
evidencia
explicarse
finalizo
inmovilizador
inocuidad
intenciones
name
tematicas
whisky
за
1010
963
abarcaran
adoptando
aprender
caracteristicos
curtido
deducidas
despachados
ey
guiado
habilitada
instauracion
licuados
piensa
reglamentada
riego
triquinas
utilizable
xxviii
αριθ
##ke
arc
atribuible
cargados
danubio
escalones
hidrocloruro
iib
internamente
montante
pastillas
prensado
revelado
rigurosas
romper
zorro
abordan
aguardiente
asegura
bpn
calcule
confirmarse
conserve
desgrasada
desinfectantes
etica
evaluador
explicaron
farmaceuticas
incremental
intensificacion
ionizantes
light
mic
oleaginosos
precisarse
repoblacion
senalaba
silenciador
sustituibles
tltro
whtc
536
autores
celebradas
copenhague
deliberada
exceden
exime
formulan
lux
mejoren
pecuniaria
sulfito
trimetil
##ha
##ve
1098
501
696
978
alineacion
billete
dermatosis
emplearan
grand
incorporara
inmediatas
policy
purificacion
registre
restaurantes
rigidos
subrayo
##si
32007
656
analiticas
carbonatos
cedido
centrifugadoras
citar
congeladores
derive
elan
emisoras
estrellas
excesivas
ic
municion
puerros
scientific
tiazol
vaccinium
additives
comprometida
credibilidad
determinaron
examinando
exporto
frijoles
kabul
levantar
multinacionales
ncimb
qatar
recurrentes
sativa
solicitaran
suecas
titulizadas
venda
viral
anormalmente
antielusion
arion
atribuida
austrian
butano
comparaciones
dqo
ensilado
estiman
kj
marsella
metrologia
nodular
precisen
prefabricadas
prestada
ramos
resuelto
sedes
semiblanqueado
sumando
suspensivo
sustitutivo
tafetan
toberas
acuaticas
biocombustibles
cebos
corregirse
egnos
organolepticas
pericia
pollitas
prescribe
productora
pta
ramio
recurrirse
resume
sacrificado
saleh
termine
unilateral
adaptan
alertas
alfabetico
amparadas
conductividad
corresponderan
deg
dt
esforzaran
fundamentos
lechuga
llc
localmente
obtendran
ocurrido
ovag
precede
primordial
seleccionarse
vamos
1062
aspiracion
calendarios
cartografia
contabilizara
contaran
describirse
designen
edades
encargar
hurones
ras
renovado
repatriacion
resultara
649
686
770
adjudicado
agrios
agroambientales
airbag
aval
consignacion
consumidos
delegadas
elevar
galleteria
gruas
legitimas
miden
recargables
salazon
sentado
servidor
solanacearum
tensoactivo
textura
vapores
1737
394
430
477
adentro
alfalfa
antecede
aparezca
arma
aromatizante
bencilo
circulan
congelar
factoria
hurtigruten
ice
incapaz
met
planteen
politburo
precisamente
quorum
tratos
##31
##ita
475
agriculture
alcaloides
bolivia
claveles
ed
idt
iiib
indeseables
kattegat
parentesis
registradores
substance
termina
transbordadores
transistores
utilizaciones
acabadas
arenas
colegios
controle
detonadores
divergencia
enrasar
fermentar
fluctuacion
impondra
incoado
manguitos
mina
ministerios
ngv
paleta
preparatorio
transmite
##15
605
acrediten
aeronauticas
atfm
c18
centrifugacion
debatir
dp
especifiquense
evaluation
extractivas
fagorbrandt
firmara
impondran
jurisdicciones
limpios
organic
oxirano
sobrenadante
subterranea
suspenda
xxii
1927
aeronautico
aerosol
ah
apta
crean
cuadradas
decisivo
dedican
divergencias
dplp
entregada
especificidades
iluminante
pasivas
procurar
retener
sospeche
termicas
tributario
vizcaya
xml
##adas
1221
795
algoritmos
cuartel
delle
fiduciario
gestora
ij
martes
ocs
pague
piridin
recauchutado
recubrimientos
satisfaran
soberanos
surtido
violenta
##dina
541
975
abandonado
aisladamente
alubias
ccipb
coloca
comercializa
cordero
desbastada
despedidos
disparidades
dolomita
higienicos
limpiaparabrisas
logros
metionina
nubes
obren
permeabilidad
pirazol
redactados
side
sprfmo
vulnerabilidad
1830
aparentemente
apatridas
apuestas
asignen
bogyoke
candidaturas
carrocerias
circunferencia
convocara
cooperara
detecten
documentar
donaciones
esparragos
granjas
menta
pretenda
residencial
riad
sospechoso
sureste
tokio
vulnerable
##heim
##nte
##ski
##ste
551
59122
abrasion
accionado
apreciar
aserrada
bas
belfius
conciencia
disminuyendo
estres
indefinido
inevitable
islamic
joint
notificador
registraron
triazin
##man
1490
1959
acumulativa
afirmar
alfanumerico
arreglos
b5
canadienses
cebolletas
conllevan
cosechas
dvb
ejecutivos
enzimatico
etiopia
exportan
matanza
microscopios
mojada
pijamas
psicotropicas
redondo
selectivas
septima
trece
venir
1467
1718
3002
adria
alquilo
are
beneficie
cepol
cgd
ciiu
crm
exchange
gb
generalizada
humanitarias
impediran
indeno
latas
mencionara
monitorizacion
mora
nula
offset
oponen
profundo
secuencias
suministrara
terminara
trampas
viejo
383
8000
adyacente
atalanta
british
centrandose
demostraron
dibujar
dimetoato
elabora
enfriar
gobernadores
ipca
kinshasa
otorgo
revolucionaria
telematicas
temprano
tenedores
tropical
1623
913
adjudicara
ateniendose
boeing
consistia
constituiria
ecosistema
eliminaran
haberlo
intercambiadores
jugar
martin
maulavi
programada
recojan
rin
saco
swe
viiic
##ido
##ns
513
597
665
aceptaron
analizadas
autopistas
baremos
calientes
contravencion
controlaran
cruces
diagramas
ganchos
goza
influye
limito
pastoreo
persistente
referian
rmg
sanos
situan
som
vidrios
##ten
2026
469
aproximaciones
arbitraria
atribuidos
axens
buscando
cornea
electromagneticas
epidemiologicos
kiwis
linguistico
pantalon
preservacion
sgar
trazador
trinidad
ustedes
10°
aguardientes
batas
compensadas
compilacion
cuantias
diafragma
diferenciada
disenaran
encontraban
gustan
hynix
integran
nacida
nec
pasen
procesadores
remitidos
tdt
templado
yogur
59°
aldehidos
altavoces
cetonas
consecuentemente
estadisticamente
formando
fungicidas
hembra
htay
interprofesional
limitadora
miedo
mosaico
nigeria
octies
pasillo
planteo
reembolsable
seguiria
semanales
sistematicos
32016
417
alcoa
blusas
cancelar
completandolo
convocar
destacamento
dictar
divide
excluira
granulometria
impedimento
informal
lactato
och
pistachos
promovera
reess
reubicacion
reverso
saremar
semolas
srl
suministrador
sustituto
telefonicas
tendentes
##st
acoplado
afectaria
agregadas
aislante
calado
colectivamente
concluira
cuaternario
enil
fosforico
ftalato
hla
japonesa
jardin
marcar
merluccius
metomilo
muscular
ns
prerrogativas
programado
purificado
raee
reforzadas
retroactivamente
roble
roscar
secuencial
sjb
telex
ucraniano
593
becas
celf
cercana
citadele
crees
cualidades
diferenciadas
eliminados
encefalomielitis
enfrenta
gotas
importan
poliestireno
portuarios
rayas
simplificaciones
sufren
##gen
1929
573
613
908
9a104
adjuntan
bangladesh
camarones
colaboraran
coliflores
czk
dbb
expiraran
gracia
hexano
incumbe
not
pcc
reciclados
rotores
seguidas
set
sierras
tropas
viie
##51
##wa
1400
2777
520
604
774
acabar
acidificacion
anulado
aumentan
bajada
bodega
cientificamente
cofinanciados
difieran
estratificada
gaseosas
gradiente
kbc
meranti
nru
number
pastizales
rana
sepd
sinterizados
subsidiaria
suscribe
togo
tostar
##22
##ine
abreviatura
aflatoxinas
analoga
citan
consiguio
coordinadas
dinamicas
farmaceutica
formulados
inundaciones
ocupadas
perseguir
reintroduccion
uniones
##dorf
##rio
444
620
8a
a8
aerodinamica
anemia
barcelona
cad
cebo
compre
estabilizador
fd
funcionalidades
huf
investigarse
nimes
omitirse
persiguen
teclado
transferiran
v2
603
agency
castanas
cazadoras
comando
cometer
consigue
cosme
disuasion
extraerse
forzoso
holdings
intermitente
interrupciones
limon
ou
retrasar
acelerador
aect
bombeo
casado
cesped
coloidal
complete
electrogenos
entraron
goods
horarias
imputadas
minera
postura
potestad
predominantemente
premios
propilo
radiofrecuencia
ramo
recorrida
sek
tirantes
triplicado
530
b4
bosque
cn
concurran
conducen
e1
extraordinaria
fermentados
fertilizacion
genetico
ilimitado
inoculo
intercambiador
ko
morcajo
precedido
productiva
recesion
reconsideraciones
reintegro
respaldados
tranquillon
ts
white
descendientes
despidos
dignidad
entranan
erroneamente
estadio
existiendo
explicara
h2o
insignificantes
legislador
mejorara
particula
pescarse
planificar
plantadas
reflejaran
rigidas
so
##14
##cia
1952
570
670
826
agitacion
artesanal
ast
baviera
beneficiaron
chaquetones
controlen
cv
desconocida
dividirse
empieza
etg
finance
flotante
gansos
hidricos
iaap
instantanea
obstruccion
obtenciones
poscomercializacion
preocupantes
quedaron
vanadio
alcanzara
causen
cheques
constatada
examinador
gei
guarden
ioduro
nmp
ocio
part
pilares
preparativos
propulsantes
quepa
subcontratista
township
wfa
630
732
alcalinos
ciat
concluidos
consultora
cotes
destruidos
expedidores
incompleto
kem
niobio
paqueteria
presuntas
priori
procedimentales
profesores
repollos
seminario
slv
sueros
tj
topes
tridimensional
uca
464
466
asistente
cariforum
coinciden
consulte
desvia
easyjet
escamillas
explotan
genotipo
margarina
nuez
oleaginosa
pasion
plantearse
publicitario
rebasen
residue
rijan
subprograma
transfieren
wafers
##id
##rina
##tas
2447
6a
9000
anulada
bajar
chicharrones
cilantro
conseguirse
cyprus
f1
francas
fundada
intentar
nina
otorgara
poliza
rapidos
reunirse
tasados
torio
viveros
1592
57°
804
amonico
comunican
declaren
diferida
estampar
flote
generica
globo
hiciera
instructor
ip
noroeste
perimetro
plaquitas
precoz
procedio
quirurgico
ratios
sosa
tobago
ultimacion
1239
2042
544
684
albahaca
caliza
cobrado
contabilizarse
deteriorarse
erosion
esperarse
footwear
gestoras
guayana
instituido
investment
lme
localizar
longitudinales
mechas
mediterranea
mj
muelas
murio
nepal
periodistas
persecucion
qc
salvaje
siemens
sulfuroso
##micina
1948
alas
beef
bibliotecas
czesc
desglosada
desplazados
encomendadas
gt
hemos
hipoteca
justificativa
luna
metalurgia
pireno
presidenciales
sellados
sga
ultravioletas
1178
15°
32013
acuoso
administrado
alcalde
anormal
arrendadas
cableados
cifrado
clorofluorocarburos
convertira
decima
desecacion
documentadas
faltaba
fui
intencionadamente
molidos
negrita
nodriza
ocurrir
pano
pixeles
respondido
sanco
sesamo
siliceas
tallas
tio
tipicas
##so
1309
421
activarse
aseguradores
codos
contabilizados
democraticos
diplomatica
especialidad
habilitados
informatizada
lombardia
macroeconomico
proximidades
recurrido
rotativas
sanguineos
vieron
##ment
##ny
##zina
788
904
aas
accesorio
aturdimiento
auriculares
bgb
contravalor
diurna
encomendado
ensamblar
espectrometria
favorablemente
financiaciones
frambuesa
honduras
introdujeron
lavabos
line
lufthansa
mejoro
peajes
prelacion
provocada
recopilada
redunda
sapard
size
species
travesia
vendieron
##ung
2309
3448
894
aclararse
asumio
carriage
coincidencia
commercial
corre
destacan
dieteticos
dotadas
e4
inscritas
instaurar
leon
parex
ps
under
1c
20°
activada
americana
carecen
confiera
dihidroxi
fajas
hidrogenado
hoteles
hv
incompletas
ladin
mencionarse
monsanto
napa
pida
pocillos
productivo
prunus
quedando
r2
sufridas
##lla
1528
652
abusiva
andenes
articulados
cesar
cncm
disfruten
estudiante
extrudidos
inflamable
irritantes
lavadoras
lleno
mida
motopropulsor
mpue
ocupante
otorgarse
pueblos
salmo
sustantivas
##que
1187
alcanzaron
aparcamiento
br
bref
comienzos
delimitadas
desplegado
helice
kirguistan
mongolia
nadar
necesitar
palangres
pantano
permitieron
powiecie
quitar
range
rechazaron
recordo
rejilla
remolachas
reto
rotativos
salvedad
1025
561
805
885
adornos
adquieran
cayo
cept
condensador
designan
evoluciono
fenoxi
maximum
nacion
oecd
percibira
protesis
rahman
redistribucion
reptiles
subrayar
sufridos
suponia
070
2400
431
631
alternador
angulares
clientela
confirmados
consigo
constitutivas
contingencias
desfavorecidos
disulfonato
eufor
fpap
ide
inspeccionar
lacas
lluvia
malo
quemadores
rampas
rellenarse
remunerado
tex
2226
afs
cabinas
ceramics
certificaciones
comprometieron
copa
democraticas
duras
estocolmo
generara
graficas
inaplicacion
investigados
khan
morhua
ne
nieves
omisiones
oscuro
plumon
połozona
productivos
provoque
saarbrucken
semejantes
socioeconomicas
sustituidas
toxicologica
##ad
0401
855
acs
complementarse
condados
consumen
consumido
contribuyo
cosmetico
department
desagregacion
enorme
firmemente
infancia
intestinal
motivados
observen
redactaran
reservadas
sencilla
sip
trigliceridos
##71
1077
1313
707
aclarado
carnico
cfc
concluyeron
constituyo
descubierto
dioxo
distribuida
eticos
hesse
hussein
jerseys
magnesita
manifestaron
menoscabo
negocian
prohiba
prohibirse
queroseno
resumido
retenidos
senegal
vertederos
##ck
080
1507
972
aid
albornoces
aplicaria
argel
aserrado
calzada
ciclicos
coccidiostaticos
comisario
eolica
extraida
fraudulentas
hice
implantado
inmaterial
metalizados
mijo
nodo
np
paralizacion
reforzara
remita
teatro
veria
562
614
6a002
afirmaciones
airbaltic
bufalo
capullos
cargamento
debes
evitara
formadores
grua
hidroclorofluorocarburos
homogeneizadas
inalambricos
ireland
multimedia
nocivas
penalizacion
programados
recintos
serlo
smn
socioeconomico
stock
tm
μs
1431
5h
acrilamida
afiliada
aireacion
beneficiar
comparado
conferidas
dactiloscopicos
excluiran
firmadas
guardan
incentivar
incidir
pudiese
ratas
renueva
retorcidos
silicato
vicepresidentes
vih
##idina
##nt
1050
62°
absorciones
afecto
convierta
cote
darfur
dong
efluente
mm2
ratificado
regaliz
reiteraron
remoto
2100
691
743
abou
bioacumulacion
biodegradables
cause
contractualmente
eori
hallar
heridas
horticultura
introduciendo
lbbw
lvl
marchas
medidor
pelados
petroleros
respalda
sistemicos
telefonica
transportadores
turborreactores
veneto
viiid
0404
973
abordara
afiliadas
aguacates
anteojos
asistentes
biometricos
cadera
cambian
curtientes
destinar
distribuido
distribuye
dividira
entrevistas
epoxi
esferas
estabilizado
ipcc
islamico
logisticas
loire
monocarboxilicos
pasillos
pinzas
polen
reembolsarse
represento
revela
transportada
utilizarlos
1839
aletas
anilina
anticipadamente
argumenta
beneficiara
board
camisones
cargadoras
cde
electrodomesticos
extensiones
impregnado
juzgar
marron
moderado
nedc
odio
selenio
sncf
sti
tallo
##nia
##σ
1296
1627
250000
abra
aleatorios
alimentadas
atc
atmosfericos
aumentaran
bam
camisa
completandola
crimenes
decidirse
describase
emprendido
escudos
insumo
interlaboratorios
listados
ocasional
preacondicionamiento
reviso
sulfonico
sustituyo
target
transportable
3821
actuariales
anti
clorpirifos
conmutador
convendria
dei
deposicion
enologicas
eqt
estrechas
frutales
fundamenta
fundas
homologos
horizontalmente
incorrectos
innecesarios
invernaderos
ligado
ocupar
panales
remitidas
sebo
εκ
##ter
anormales
cableado
contabilizar
dudaba
ensamblados
gramo
innovaciones
intentos
litoral
notifica
observe
oscuridad
parachoques
practicado
prepara
propongan
reclutamiento
redondeada
restrictiva
revise
serviran
tangibles
triturado
tv
1488
445
590
737
acuosos
aportaran
asterisco
baden
boniatos
brevemente
brindo
crias
cuerda
demoras
destaco
estratificadas
flotacion
fotovoltaica
ganglios
gaseosa
gasoleos
germinacion
helados
hidrografica
incrementa
insto
linealidad
lucrativas
mascaras
no2
recae
sopas
surinam
triangulo
##dor
##weg
811
capturar
dije
directora
flecha
fotometrico
funcionara
gps
haiti
incurrir
ionico
metilico
myanma
prejuzga
reciprocas
refugiado
resonancia
revalidacion
reza
seguian
teoria
transporta
urdimbre
vibracion
videojuegos
##nio
1014
1925
491
a6
agotan
anoche
argumentacion
bidones
c16
catalogadas
clavos
concentradas
conozcan
demolicion
doi
empezando
eujust
evaluaron
falso
fish
pow
rrf
rumanas
saliente
tematico
velando
780
admitirse
anhidridos
anoraks
cabezal
colecciones
constituirse
desleales
dextrina
distribuiran
eurl
finalizada
floricultura
inercial
luxemburguesas
niega
politereftalato
rcf
reesei
shabaab
tostada
transfieran
transportables
1722
asa
asfalto
ceniza
comino
corren
decisiva
distintivos
elegible
formara
interesante
intraempresarial
logrados
materna
reanudacion
sustitutos
tripulantes
trust
usamah
yellow
1304
397
abundancia
alienta
antigenos
bifenil
camaron
cmr
cru
deloitte
devuelto
dtue
emitiera
enarbole
explota
extrae
hosteleria
irgc
lecturas
naing
pagaran
policiclicos
recirculacion
rt
seniunija
tenidas
transmisible
trasladarse
visitantes
1046
532
637
7000
791
alegaba
aparezcan
bloqueada
cacahuete
chad
deudora
dimetoxi
eller
evaluadora
favorecida
fih
ford
llegaron
numerador
poseedores
predeterminado
quercus
rabano
traducciones
transformarse
valorado
vuelvan
2073
527
734
814
agrupados
causan
cocos
cometidas
desleal
enrollado
espectral
exhibicion
granadero
interposicion
latha
malas
merced
oblast
octanol
premio
presentaban
quedaba
regulara
representaran
shah
sostener
vulgaris
1601
65°
adi
analogico
apoyaran
aseo
bfp
discrecionalidad
distribuyen
ecoinnovacion
enfasis
espejo
estimen
expiden
fenilendiamina
glutamato
hilar
ilva
intenso
lcr
licenciatarios
linguisticos
pasados
pasamaneria
polska
reflector
revele
serologica
sidra
tortugas
triturar
usen
zweibrucken
##25
##cina
1012
1282
761
916
agri
ajusto
application
cautelar
cumarina
depuradora
desfase
disenara
ebs
electromecanicos
entregaran
espanoles
feto
grueso
higienico
horquillas
impugnar
imputaran
kfbg
lechas
losetas
mondados
mostrara
pintada
radios
recabado
romero
safety
sd
sensibilizar
sia
sicilia
tengase
torta
valorarse
##rs
502
945
cipermetrina
cocinar
cruzados
describan
distribuciones
environmental
firmes
laos
levels
liquidados
lombrices
nyunt
preexistente
propiciar
redundaria
regularse
ricino
senalara
serotipo
sexos
simuladores
society
suscripciones
xileno
##03
adjuntaran
agvo
almacenen
alturas
animar
antisubvencion
averias
casino
compensada
contaba
cooperen
corchetes
cultivados
detectada
dotada
esteril
fotocopiadoras
fracaso
hermanos
homologo
otorgante
p4
profundidades
separa
unen
vulneracion
wam
487
820
987
anglo
anonimato
anotara
canalizaciones
cap
cercanos
cobros
contaminado
cualitativas
decididas
disponibilidades
domiciliados
entranar
estucar
evaluando
fer
gluconato
het
incumple
interoperable
nabos
noticias
pintadas
remunerados
teledeteccion
ul
vtan
0201
1509
2204
abren
acompanara
adaptaran
afeitar
anguila
binarias
convertiran
cremas
guidelines
hgaa
house
impermeables
indeterminado
inodoros
insolubles
landesbank
llegaba
losas
magneticas
oxera
reproductivos
situo
subsidio
tenedor
tpce
002
1266
495
694
acumulativas
apreciable
asbesto
autorregulacion
bio
bomberos
carbamato
cotizados
descargas
entorchados
eritrea
fid
germenes
institut
licopeno
proyectados
simulaciones
suministraran
triazina
triturados
##ceae
##den
##izacion
1031
1591
abordarse
agitador
authority
caer
carbofurano
caudalimetro
cerrarse
clarificar
cobra
depositarios
dotar
encuadramiento
fsih
genealogico
intensa
matraces
peponides
perturbar
produciendo
ranuras
reports
siderurgico
suplementos
surgido
troceados
vienen
yoduro
##®
1901
acumulativo
adversa
alfanumericos
aminas
anunciado
basaban
camping
carbonico
cuchillas
danado
demersales
depositantes
desaparecido
detectan
determinando
distinguen
ecuaciones
epizootica
eubam
fueloleo
funcionalmente
gozara
insurance
iranies
mrls
notificarlo
novillas
oxidantes
perforar
progresivo
purines
recuperara
resiliencia
tramite
verificables
vicente
657
960
acelerometros
analizada
atiene
bisuteria
carencias
casas
deficiente
exim
exportaron
gales
inspeccionados
licores
lixiviacion
port
quiera
reprogramacion
resolverse
ssr
sulfanilico
##ho
0202
1238
2075
2903
admitida
alcalino
apoyadas
ascendian
boquillas
castilla
catodo
culpa
delgadas
foco
inalambricas
instalador
interpolacion
khalil
lb
moldeado
muslos
ocupe
planchar
pre
supuestas
surtir
tripas
##ros
2286
584
abrieron
accidentales
cassa
categorizacion
coordinarse
deficits
deseada
desnaturalizar
finlandesas
formico
foto
geologico
gw
mkr
narizeni
necesitadas
nivelacion
ocurrio
pacificos
pasaron
permanecieron
pozo
preambulo
ri
sfs
sistematicas
sostenido
sueno
trimestres
vaciado
vasos
viiie
от
##33
##41
##81
911
altramuces
argumentaron
ascenso
brecoles
calada
calificado
cedidos
constan
diferenciados
eliminan
entretenimiento
especulacion
estatuillas
faciles
homogeneo
import
ingenieros
metabolica
muslo
privacion
procesador
pwc
religion
remesas
reservar
retenido
sb
tc
tripoli
##land
5s
828
adapte
afin
aportando
atuneros
bares
boreal
combate
comprimidos
contradiccion
cortantes
danar
diera
duros
electorales
fotografico
implicito
inundacion
limitaba
oferente
pasada
pepinillos
regolament
science
situar
stardust
##acion
##ry
##ska
0402
463
accesoria
afiliado
baremo
betun
bibliografia
coloreado
decidida
delictivas
determinantes
dominantes
educativas
empezado
expliquese
fbn
jurado
llegara
metodologicas
mit
montreal
necesitaba
probado
reproducidos
satsumas
securities
smith
subrayan
trainose
1673
677
760
aberraciones
adujo
banque
cabras
consultores
depurar
derivacion
encargarse
fiat
harengus
historicas
impresionar
imprevisibles
malation
maleico
matas
migratorias
nocturno
ocasionado
paisaje
pobres
potasa
rape
reformado
residir
respiratorias
torre
turkmenistan
vale
##16
1177
2320
447
acojan
ausente
autenticas
confirmen
constaran
debito
destruir
dgca
district
ei
encerrado
espongiforme
estacionales
eunavfor
gozar
impropios
impugnacion
isomero
manejar
metileno
pavimento
pdp
precipitacion
prediccion
recatt
reference
reflejo
taladrar
trofeos
##61
21a
576
735
923
acogido
airport
antraceno
armazon
basculas
benelux
concebida
contrachapado
corregidos
cupo
demarcadas
editores
elaboran
encaminada
excelente
fundados
hh
inorganico
itinerante
jamon
jihad
lisina
organizaran
protege
quisiera
rechazadas
recreativas
recuerdan
siguieran
sincronizacion
tara
transmisores
400000
administra
anticiclico
aprovisionamiento
benciloxi
bridas
colli
comm
conducido
continentales
dediquen
desorcion
dirija
disciplinarias
discretos
distribuidas
evaluan
facilitese
fijaciones
informante
irmm
london
p2o5
redondeadas
revista
salen
sobrepasa
socialista
transfirio
trazado
1080
1186
abordado
bucle
capturada
compresor
conceptual
construidas
dinamometrico
dudoso
encefalopatia
espere
firmantes
heterociclicos
impregnar
infringido
lapso
multiplicara
navegantes
neumatica
nisperos
off
originadoras
orina
pulgadas
radiactividad
salvador
semielaborados
separatistas
strasse
subir
vinil
yacimientos
##mi
1452
adquieren
anteproyecto
baby
climatica
contemple
desplegar
estudiada
eviscerado
existiera
herbicida
incumplan
loi
ocurra
p1
parasitos
preexistentes
provocados
recordando
recurrira
##vo
578
872
acc3
anfibios
batatas
bc
cie
cinematograficos
concediera
costura
declararan
escalonamiento
estilo
federativa
fideicomiso
flegt
green
hibrida
hidrofluorocarburos
intercambiarse
isopropilo
jean
miligramos
operando
perdidos
practicar
propaganda
ratidas
reductoras
retardo
solea
supervisaran
tmp
transmisor
unitarias
ventanillas
yibuti
##ec
1423
1900
2533
448
655
abarcado
accionados
adapten
aleta
armario
asiatico
chapar
compensado
cooperante
descubiertos
desecado
extraordinario
gm
gocen
grabar
inmediaciones
interpretara
llevaria
memorias
mercantiles
noec
northlink
oxalico
pomelos
protestas
rangos
regule
reproductora
rid
somos
090
1035
980
agrupar
alargamiento
continente
craneal
decidiera
disulfuro
envc
ferroceno
fiduciarios
fluida
fomentarse
identificativa
inhibidores
magnitudes
motriz
naviera
paration
peritaje
promuevan
quemador
rodilla
salonica
transfirieron
videos
##05
##ando
##au
##ice
2710
aarhus
aca
briquetas
cajones
cardado
coincida
confirmadas
constatar
deniegue
diplomaticos
dirigio
electroliticos
fresar
herbivoros
idoneos
klasse
lomos
mangas
mino
miquelon
pabellones
paradas
plantee
prorrogada
recreativa
reembolsaran
siderurgia
toxina
ubicado
##ana
1385
519
747
alcanzada
americano
autoadhesivas
condenas
coteaux
cvs
describanse
diccionario
dirigibles
divergentes
elegidas
entendido
escherichia
estabilizadores
estanco
extintor
figuraban
intervenga
lentejas
materials
mayoritario
milicia
mwth
pobre
poderse
previsibilidad
receptoras
sobrepesca
tejidas
titulizados
tortas
trebol
ubicada
viia
2076
766
aborden
acreditadas
butan
calcinada
composiciones
contribuyeron
criadas
cumbre
enoato
estanqueidad
etilenglicol
evita
f2
forjadas
imidazol
inmunologicos
jengibre
lactancia
nurburgring
representadas
sustitutivas
szczecin
tetra
typhimurium
uif
vencidos
volantes
του
academico
american
armazones
baghdad
centraran
clarificacion
consistencia
cook
creosota
desmontaje
explicito
explotadas
extrema
fechada
fenilazo
homologar
interregional
itrio
moldeo
papayas
pata
pinus
portaobjetos
radial
reapertura
reflejado
replantacion
retrocesion
sigla
tala
zambia
##ano
1287
778
896
adaptarlo
alstom
cabana
chalotes
chenilla
conservan
degradantes
desembarcadas
designaciones
devoluciones
difiera
disciplinario
empobrecido
fme
fosfuro
graduacion
granulacion
implementar
inertes
infecciosas
ininterrumpido
insulina
interpipe
intervenido
jiangsu
levantamiento
manga
microfonos
originados
reasoned
respaldado
sowaer
subconjuntos
telares
##59
##88
##pa
##ue
##ul
1141
2050
683
akhund
almacenaran
anticipadas
apariencia
arcillas
basmati
biometano
bov
conozco
cristobal
diclorofenil
dieran
envian
fuertemente
hafnio
indizacion
jamaica
o3
penalizaciones
presumira
provocan
qasem
reduciria
remiten
salado
sinonimos
sonoras
##72
anticontaminante
aro
brinda
brindar
cuernos
debiles
equ
flughafen
formadas
habilitadas
homogeneos
inevitables
infringir
inhumanos
insiste
lbb
manifestar
nordeste
ovejas
perjudicado
peroxiacidos
precedida
suprimidos
suspendidos
##92
##ei
1216
640
aisladores
alpina
avalista
but
cofinanciadas
constate
dedica
dto
ecuanime
etnico
figuraba
implantables
mango
nga
pidieron
reimportacion
rinotraqueitis
subsidiario
subsp
sujeciones
trentino
ubicaciones
valer
##fenil
10059000
2106
9a
aclara
altera
apartarse
aprendices
arsenales
artistas
c20
chimenea
clasificadores
completaran
contrataciones
desechables
detectarse
huellas
implicaba
intercambien
itinerarios
libanesa
moderada
nabo
peculiaridades
peinadas
pif
regalo
sardina
sirios
sulfatos
tartrato
tetracloruro
transductores
transmiten
trenzados
votaciones
##69
56°
alimentado
antillas
apatrida
autocares
campione
catalitica
conexa
dangerous
descentralizadas
destinatarias
diplomas
ge
generadoras
guisante
identifico
invitado
irritante
jamas
kcal
lance
limpiado
marmol
miercoles
n2o
palissandre
patrocinio
peralte
pk
poseia
prontitud
redondeados
rellenas
salga
salvado
sinergia
suspendidas
visillos
##04
##tica
1085
641
817
anacardo
auditadas
barriles
borrador
checas
dentales
dieciseis
equipment
extendidas
factica
holland
ima
incrementaron
instaladores
islandsbanki
japoneses
oea
pivote
procedia
rasgos
reajuste
residen
spe
supeditar
supervisa
surja
tb
valorada
1165
2250
710
733
969
996
afgano
ame
anchoa
anis
cansado
ch4
cigarros
colonia
concluia
deduciendo
documentara
eec
efectuando
envolturas
fomenten
formularse
innovador
itl
macroeconomicas
metilfenil
pagasti
quieren
rocas
rodada
semestral
senalando
sexuales
sinosure
suizos
tiburon
vertedero
##ino
1110
1454
1518
acogidos
afcc
aglomeraciones
alivio
altitudes
ampolla
antiestatico
asigno
atco
borrar
curcuma
dat
dca
dec
democratico
desigualdades
disfrutan
dispositiva
ferries
hipotecario
implicaria
lambda
libras
mayoritaria
mejorados
muertas
naturalmente
pasteurizacion
pictograma
porciones
ptfe
salvia
servido
shandong
trazas
##52
##un
1202
1628
analizan
arenques
aumentaria
blanda
caledonia
clemencia
contaminadas
depbs
desembolsados
documentarse
eslabones
farmaceutico
formaba
fundiciones
fusionada
modal
nororiental
pelagicas
pesas
piscifactorias
repositorio
sucinta
this
tipicos
toronjas
##23
##ista
446
958
adeudos
adf
adm
anotar
apropiacion
auditada
bonamia
cartagena
cascaras
concluidas
cumplimentada
dagon
dedos
emulsion
encargaran
encontraron
enterococcus
guayabas
impugnadas
impureza
maquinistas
menciono
sillones
suspenso
##bilidad
546
866
afirmaba
aliviar
apionabos
aqsa
aristas
busca
calcularon
chp
conlleven
considerase
date
desplazan
echa
estipulada
faisan
fch
granadinas
higienicas
inspection
licence
mejorarse
motocicleta
parecian
patrimoniales
pnb
pulir
puntualidad
reestructurar
respiratorio
reuniran
salomon
square
supeditadas
tablillas
tn
trasladados
##ov
015
1104
2031
acaba
adhieran
alba
anden
apreciables
auspicios
autopsia
bragas
cabia
cervidos
cilindrico
colorear
consultiva
cumpliera
desmotado
fa
federales
frutal
integrantes
khalid
lazos
mamparo
moler
organice
perceptiblemente
perceptores
porcinas
prenda
suave
suciedad
suspenderan
tamarindos
utilizarlo
virtuales
zt
##am
##ura
2220
ava
carencia
conlleve
consideraban
correspondian
cualitativo
decada
diagnosticos
embragues
engloba
eslovacas
estudiarse
examinadores
limitando
lp
nchz
oligoelementos
ovis
paro
pasto
recaudados
revisten
subrayado
superarse
tejados
torneado
transfusion
unit
young
1°
664
analizando
brazos
causando
chuleteros
conos
coronas
crecio
cuesta
desalentar
emprendida
fesi
formulaciones
granada
grifos
hablando
hidrofonos
impregnada
inseguridad
ion
lectores
luxembourg
oleico
paraguay
salim
septicemia
sf
tampones
toxicologico
trituracion
920
acepten
adeudadas
angulema
cesio
cesteria
clavo
convertidos
cumplieran
desastre
destinaran
diferenciarse
dua
escarolas
faecium
farmacia
habidos
hsw
indicadora
luminosos
manies
mepc
muertes
okoume
puntera
recuperada
romana
subsistencia
transmitieron
usual
vacia
##35
##tus
2988
abona
absolutamente
acc
aclaro
ajustandose
ampollas
antirreflectante
anulo
cierra
comprometeran
costado
criminal
cubria
danados
dedo
devolveran
embajada
emprestito
especialista
esperando
impagos
inadmisible
inciden
invasoras
lector
maciza
melitensis
metilamino
names
oi
pauta
semestrales
shahid
trayectos
trocear
vie
volar
voltios
11o
1874
526
adherido
almendra
amoniacal
compran
descubre
desempenadas
embalados
embarcar
ensaladas
exhaustivos
expondran
fomenta
formalizacion
informales
injustificados
liquidador
mencione
parezca
pbb
plantarum
pool
pretensiones
remuneradas
rescindir
rigurosamente
sindrome
soldaduras
spla
subinstalacion
sufre
utilizaba
vegetativo
votar
1314
1445
572
745
802
990
acetamiprid
amplificacion
arido
atraviesa
azafran
back
balasto
cercioraran
devanado
discapacitados
encolado
escobillas
flg
formaban
fuesen
fungibles
insecticida
intencionada
invertidos
joyeria
liberaran
loxodromica
molido
pesimista
ponderaran
presentaba
psi
recabada
reclamante
tar
tech
tejas
transformadora
volveran
##burg
499
628
accesos
accionadas
analistas
beneficioso
caracterizado
circula
consulado
cppoc
curia
dans
ebitda
estimarse
fraport
geograficamente
guardias
impedido
indelebles
insulares
investigadas
ml7
neutra
operario
orugas
pelagicos
pigment
plastificantes
promoveran
proton
simetria
solapamiento
suspenden
tritil
turnos
universitario
vencido
zarzamoras
##75
##bo
2080
634
871
abone
acarrear
acid
acumularse
apoyarse
bavaria
cumplimentacion
denegarse
deportiva
deseadas
dvd
elija
encenderse
equinodermos
fstd
glucitol
hre
intensivo
limanda
membranas
oscila
park
r1
remunerada
sastre
tocar
tomillo
visitar
##idae
592
5a002
6s
8705
acabo
amenazar
calentador
celulosicas
clavijas
creible
destacados
divulgarse
entrante
estudiado
expresaron
infestacion
lines
livigno
lm
manguera
ofrecia
opticamente
organolepticos
patrocinadora
propapier
recibos
reconstituidas
recto
rollo
tangerinas
televisores
usara
varianza
##tos
1942
3166
720
aleatoriamente
alimentarius
anodo
anticipados
aserradas
atmosferico
blindados
calibrador
carretes
construida
continuen
corporativo
cuasi
dds
disciplinas
disfruta
disminuye
drasticamente
encontrara
entregue
enumeracion
est
finlandesa
hidrolizados
idoneo
incrementando
inestabilidad
info
intercalibracion
kpmg
limpias
methods
podrias
pronosticos
pure
recurre
refrigeradores
satisfecha
solia
traduce
transportadoras
1906
651
9b
acuosas
alegar
congeneres
consignatario
consumidas
contrarios
direct
dmso
drc
existido
feds
h7
hb
huecas
iasb
instrumentacion
interesa
involucrados
italianos
jose
latex
lideres
llevaba
mac
manipulados
membrillos
nederland
nicaragua
pardo
predecir
propionico
reconozcan
taxon
thaung
tijeras
triple
vajilla
velos
και
##55
##metil
##tan
419
481
568
673
afectaba
austriaca
cfl
confieran
consultados
desayuno
dorada
dow
empezaron
entranen
espectrometros
evidentes
flotado
forrajera
galio
inexactos
iniciaran
interrumpido
lan
master
mezclarse
mortales
ocasionalmente
patudo
reaseguradores
reflejaba
schonefeld
sobrepresion
tematica
usda
vinilico
vitis
##43
1040
60000
718
abanico
almadrabas
automotores
bureau
cuestiono
debiera
delictiva
empiece
encaminados
fotografica
gancho
gasteropodos
graso
guidance
indemnizar
intemperie
madres
mecanizacion
mmd
moral
pacifica
pintar
prospecto
proyectadas
ratp
salvar
shoes
supeditarse
suprimida
tomadores
turno
venecia
verdaderamente
##caina
##ou
##zol
1516
8521
amenazadas
ascensor
biologia
bolsitas
chico
compite
denominara
did
eci
fitd
fotovoltaico
gamba
inodoro
jsc
modular
opacimetro
opone
ordena
patrimonial
phaseolus
pormenorizado
repertorio
resuelva
sardinas
tacitamente
traviesas
xxx
±0
##39
##63
1338
1453
1944
537
758
880
acrilicos
alpes
asumidas
baya
bonn
calzas
contenian
cosechadas
cst
descendieron
desplace
dirigen
eliminen
endocrina
equipamientos
esteroles
estratificados
facturado
ilegalidad
llamar
metiltio
midiendo
noa
paradero
plus
press
proponia
ratones
siminn
siniestralidad
sub
time
unilateralmente
##ero
##jo
418
617
adaptador
alarmas
alsace
arrastreros
aspiradoras
coalicion
cobradas
conduzca
contamina
cumplimentados
dicto
escoria
faenan
fbc
finlandes
fleje
fletamento
geodesicas
geometricas
lwin
oh
patines
permitirles
personalidades
peter
precintado
product
radiocomunicacion
rlg
toxicologicas
viajen
##1000
##amino
2°
494
aislar
ajustaba
alanina
alforfon
alpha
amortiguadores
analysis
avr
biodegradable
caducado
carpas
cedidas
cometida
conferidos
contagiosas
denominan
desionizada
dh
dicalcico
discusion
ecu
emoliente
fraguable
graneles
horaria
incoherencias
km2
micotoxinas
moderadamente
novedades
oei
originado
papua
parejas
portavoz
publicitarias
respiratorios
terminados
virutas
##hi
##ut
10051090
554
5700
aib
ayude
bashar
bdz
caracoles
cartamo
ccsc
compartimiento
cumplio
customs
decoracion
desencadenante
discriminaciones
disociados
domiciliada
e2
electromagnetico
encajes
eo
estonian
euthynnus
ftc
fundadores
ilmetil
instalen
laboratory
lecho
leerse
metamidofos
method
pavimentos
presos
prorrata
redondeo
respiracion
revoluciones
rss
ru
sao
sparkasse
vladimir
zootecnico
##emos
##ud
1017
1945
557
717
862
863
anfitriona
anverso
ap
asegurando
balastos
calificadas
constructor
coral
desestimo
desinfectado
estudiaran
favorecen
gigante
griferia
ind
instaura
interzonal
itc
k2
linfaticos
muermo
pirimidin
presto
raton
retractores
sar
sau
sorbitol
##95
##ling
1183
484
artisticas
auditado
azabiciclo
bawag
centrifuga
cilindricos
detecto
diploma
domingo
enzimatica
grapas
hipoclorito
leidos
logre
nuestros
portadores
productivas
respaldadas
sensibilizadas
suscritas
transcripcion
vigna
##eo
10011000
10019091
571
5a001
abadejo
albuminas
apoyados
aprovechando
ascorbico
bisagras
bituminosos
cepillada
clorados
contemplarse
cubeta
demarcada
diferido
distribuirse
electrolisis
extranos
golden
gusto
incorrectamente
injustificadas
mercadotecnia
mezclador
multimodal
negociadas
ningbo
obligan
perforadas
perjudica
policarbonato
quiza
reanudar
renueve
reversion
senor
sostuvieron
tactil
timon
urgentemente
usada
vom
##83
##son
1299
2270
700000
812
abonen
benomilo
carcinogenos
come
cuestiona
darle
declive
demostraran
deshidratados
desnaturalizados
elegirse
entubacion
etanodiilo
gozaran
insaturados
insertar
intentado
intradiario
lunas
mato
mobilcom
multipiloto
piperazina
profilacticos
proponente
remaches
sirajuddin
tha
zoonoticos
1122
2040
454
824
acida
arrancar
autopropulsados
burundi
cesta
ciervo
comparativas
comporta
construction
desproporcionadas
eliminara
ensayar
ex10019099
fdp
fotometricos
gamas
hidroxipropil
incorporaran
intersectorial
introductorias
laurent
liberadas
nego
octano
parlamentarias
pecuniario
percibiran
pormenorizados
precipitados
propiconazol
quirurgicos
rebasado
remitan
tetrametil
tocoferol
university
##17
##ek
0°
1868
490
721
a5
adjudicarse
ajustable
alcaravea
anualidades
calentado
caquis
conocerse
deberse
debo
desnaturalizacion
doctor
firmeza
fregar
inalambrica
inspeccionado
irish
lima
macroeconomica
mcs
monomero
necesitas
oralmente
organizo
orop
portadoras
radiofrecuencias
renegociacion
salio
tratando
tuve
veran
wilkings
##nd
##rd
1259
1589
860
907
955
abstendran
acetamida
activados
actuarial
adpic
bulto
caladeros
coloreadas
committee
conllevar
convierten
cromosomicas
cuantificables
datiles
defectuosa
desempleados
detergente
diametros
explotada
facturados
fragil
glandulas
hfc
hipotetica
homogeneas
hpc
informando
l2
marroqui
other
preparan
presentarla
produciran
produjera
prop
provoco
pulsera
siglo
suidos
tangente
tinte
ultraperiferica
zakład
##it
##nas
2800
alcalina
argelina
arteritis
botas
cartilla
compartimientos
compensables
conferido
convocada
cuscus
defender
desprenda
esimo
ganaderas
h5n8
impregnacion
innecesario
intercultural
kim
marc
molestias
montada
o4
organigrama
paktia
parlamentarios
pensaba
perceptible
restaurar
s2r
tiametoxam
trienal
verificando
vestidos
1236
aglomeradas
aprobaron
atribuya
biegnaca
bioconcentracion
brussels
calcinacion
caracterizar
clises
comparan
completen
contratada
cumplieron
deseados
dibenzo
disminuira
disminuya
encuestados
enlazan
estancos
etico
etilhexilo
federation
fijando
finos
licenciada
luminancia
melazas
mostraban
orientativo
originar
palestinos
parlamentario
pelos
reafirman
recopilaran
rodenticidas
simular
slbtr
sud
tablero
verifica
##che
##tico
##zi
1138
1918
2759
brochas
cells
centrada
coincidio
deducibles
descubrio
desglosarse
empalmes
equinos
estiba
estufa
expensas
imitaciones
imputados
inservibles
liquidado
manutencion
mares
originador
pacificas
pollachius
psk
reproducibles
sable
sheikh
subcotizaron
subperiodos
tax
terni
utilicese
##sis
##vi
1553
545
599
acidas
apagar
ascender
aspx
bci
calibri
coexistencia
concluyentes
consumos
detenidos
ess
formulen
ganar
ids
instructores
lenosas
logisticos
manchas
moscada
nmf
odontologico
pinones
planteados
rallado
recordatorio
restaurante
rodajas
##cio
1099
2494
790
abcp
adige
berd
centimetros
ciclohexano
condensados
confiado
contribuiria
corrosivos
desactivar
dieno
elasticidad
especimen
eurostars
forrajeros
indexacion
inexacta
lipidos
mp2
opuso
panos
precisaran
prolongarse
subordinacion
sul
tallar
tuviese
##36
##icas
##ton
1067
1321
626
874
aneja
budapest
cajuil
calzoncillos
certificara
citotoxicidad
colinabos
confidentiel
cruciales
crueles
desinfectados
deutschland
dispersiones
entredicho
entretanto
erlenmeyer
escamas
expuso
filtrante
formetanato
formularon
fungicida
gestionarse
gota
herencia
ilamino
incumpla
iniciaron
intracomunitaria
letreros
mortal
naftil
pinceles
populares
praga
provenientes
proyectiles
rastreo
remanente
scombrus
sigc
signatario
situaba
sufra
uipe
voluntariado
##09
##bi
1081
476
563
acusados
aplicaban
bananas
bicarbonato
bituminosas
brasileno
ciclamato
comandantes
compartan
electroforesis
extrajudicial
homogeneizar
ilustraciones
lin
medicinales
numerica
parto
pobladas
pseudomonas
quebrantados
rechazados
reciclar
reforzarse
rejillas
repelentes
sorteo
supervivientes
sustantivos
transitar
usuales
venturi
##be
##ning
455
658
7r
almacenan
amalgamas
amarre
anadan
aromatizadas
atribuira
canalizacion
candidatura
cargadores
casada
caucion
caviar
cilindricas
colina
comprometera
cpas
cpp
depositara
distribuyan
enfermo
estanca
estuviese
exploten
flexion
funda
gi
insein
internalizador
interpretaran
mont
mya
observables
ordenamientos
parar
quetta
religiosas
renovada
tempranas
tienden
trabajara
trifloxistrobina
vacias
veinticinco
veo
vueltas
wai
##18
##der
2e
483
abasto
academia
aparecera
arrendados
borraja
caldos
casetes
circulos
concesionarios
condimentos
contabilizado
dissostichus
eumm
falten
finamente
gruesa
gruesas
gul
idoneas
kas
levas
mca
network
otpce
percibida
polares
progresion
recordarse
refrigerador
saladas
saltos
senda
solipedos
surcos
taxi
transformadoras
utensilios
verificable
##cos
##fa
666
adjunte
anaranjado
automocion
beneficiandose
calcica
carteles
choques
cilindrica
colesterol
conicos
contradice
corporacion
corporativa
desconoce
disciplinaria
don
eco
ensamblaje
excluya
fluorescente
fosfito
galicia
glutamico
indicaban
individuo
infractor
mandriles
maranon
microesferas
modification
monomeros
negocien
organizadores
pm2
salina
superconductores
varsovia
velocipedos
vietnamitas
##ler
##zona
0406
1222
acelgas
amyloliquefaciens
antiguedades
b6
busquedas
butirato
caju
calabazas
captar
entreguen
envejecido
estaticas
extrano
faltan
hambre
hematopoyetica
incautacion
komid
limpiador
merey
midlands
morbilidad
muestreados
munich
nitrogenados
palangre
piamonte
radiactivo
recibiendo
restrictivos
revelen
sancionada
sarre
sonora
suerte
tributarios
umts
vainilla
##ze
521
782
abandone
aero
alcanzando
alghero
anexion
asuman
bloquear
cabria
caro
centradas
cerciorara
concluyente
ditiocarbamatos
duma
facilitense
fisionables
genealogicos
helaba
hipotecaria
intensiva
intrinseca
juicios
kiribati
landsbankinn
lijada
makhlouf
mayuscula
microfinanciacion
navieras
participativos
pirolisis
publican
reciclada
retroceso
soda
sondas
sugerencias
teracom
uruzgan
veintiocho
yi
##26
##value
2094
3149
abreviado
adecuarse
cerro
comercializaran
compulsada
derogaciones
documentalmente
escoger
estearico
estrato
fibrosas
frenar
fs
fuegos
heno
mio
multifuncionales
niebla
obre
ostreae
referendum
ssci
talegas
trazada
ugm
wien
1240
2074
3030
667
acreditada
adjuntas
amarillas
arrete
azucareras
ceta
compensa
congelador
contraer
convenciones
designarse
desinfectante
ensayarse
exporte
gigantes
h1
homologarse
honorabilidad
k2o
lapl
levantara
limpiarse
modafl
nombro
obsoleta
ovi
permitirle
pirotecnico
polietilenglicol
protectoras
punzonar
purin
recupere
reorientacion
repartir
subregionales
sulfonil
tornillo
vendia
vib
vice
##sdorf
##tal
1227
2027
according
adiestramiento
afirmado
aglomerada
aromatizado
artesanales
aterrizajes
bisfenol
bonus
cucharas
dispersos
embarazo
embudo
enmendada
gasoducto
ilustrar
inyector
jaleas
kirguisa
moleculares
ood
pujas
rectos
reina
restringe
rieles
salubridad
secadores
serio
special
subterraneos
ten
tibia
trenzable
universalizacion
usb
регламент
##65
1503
17025
858
agamuzados
almacenista
bahamas
bcsv
brillante
burgenland
canton
centroamerica
comext
destete
elegiran
entrane
erroneo
evaluadores
inexactitudes
justas
leotardos
meritos
metiocarb
micronucleos
mutacion
nad
nitrofenil
obligara
programadas
promesa
pronostico
ribereno
sch
usti
zoologicos
##ias
1152
1857
749
aromatico
baneras
cao
combinan
conservada
dcp
denominaran
df
dudosas
ejecuciones
elh
encomendar
endosulfan
enmarcadas
evo
expliquen
hasan
ininterrumpida
isotopica
localizado
multiplicar
napas
ocratoxina
operado
perpendicularmente
plegado
pol
pretratamiento
proteja
prudentes
silicona
sorbico
subcontingente
syn
terminada
toros
trayectorias
tripuladas
vfab
voivodato
##ara
1203
489
751
917
acuerda
afirmativa
articulado
berza
caldeo
chapada
chip
cianuro
cincados
deliberacion
desplazado
dielectrico
equus
escobas
eurofer
existira
exprese
formiato
giti
glutamil
granito
hitos
inicien
irc
jamones
lenta
lentamente
llamas
molecula
monoalquilicos
multiplo
obice
opte
papa
percentil
perforados
podlaski
practicada
prefinanciaciones
president
produits
recambios
remotas
revocara
terminen
toxicomanias
unece
veda
##77
albergar
avales
avisadores
axial
azoxistrobina
brujulas
carcinogeno
cff
comprueben
cuna
depb
disponian
dnc
electric
enebro
esperan
exponga
francaise
gametos
gdi
geometrico
ikb
mutualistas
peatones
perjudicados
pluralismo
psm
pudiere
racion
refringens
rigidez
rociadores
rwa
sarga
silenciadores
sjova
sobrecompensacion
sucesor
sujetar
surten
vanguardia
which
##48
##49
1082
1215
516
740
academicos
acordara
arginina
asistan
calculando
cancelara
caucaso
caustica
compartimentado
compostaje
comprobadas
conseguidos
emilia
escanda
genes
glosario
implicitos
intenta
intrinsecamente
justifico
kits
legibilidad
li
maltosa
mezcladores
mgo
microscopio
nautica
nif
nt
organizarse
pepita
pila
playa
pma
pos
prohiban
religiosos
resolvera
rubus
selectivos
silicatos
solicitando
transforma
tritio
vides
##pina
2032
529
736
acelerada
adeudada
anzuelos
argo
asimilacion
ausentes
calcetines
canela
comercios
consultese
contorneado
daba
defuncion
demarcacion
diclorhidrato
difluorofenil
documentaran
duplicados
eliminando
embrague
ernst
estratificacion
estroncio
europass
finalidades
free
haute
imanes
imitacion
instale
ionizacion
jersey
lias
liquidadores
marcarse
medicamentosos
metacrilico
obliguen
organization
perciba
perpendiculares
pesa
probatorios
recargos
remanentes
restrinjan
rigurosos
sarajevo
sugieren
sulfonamida
sustituirlo
sustituyan
tomador
toscana
tunecina
verte
øø6ø3
##06
##ies
967
amparada
asequibles
bandejas
blanqueada
canonigos
ceramicas
cientos
combina
confeccionar
corporate
derivar
detonacion
dibromo
dien
empaquetado
ferrosos
fluidez
forestacion
fundidos
generalizado
guarnicioneria
helsinki
hucho
ilmetoxi
impusieron
interrogador
irradiacion
lento
lipidico
metodologico
moverse
movilizara
northern
radiotelefonia
reunido
revocado
satisfechas
sox
timbre
valeriana
vendiendo
vestido
washington
water
##45
##53
025
1217
1288
2208
2368
702
801
944
aconsejable
amilasa
asalariado
asetuksen
atribuyen
averiguar
cautela
conducciones
desmontables
desviarse
difusas
dil
diseccion
esforzara
explotara
exponerse
fiel
finrep
heptano
historiales
hombro
invierte
l1
logra
matrimonial
mezcladoras
monosodico
p2
pierde
pipeta
piritas
ppp
prescribir
provienen
salsifies
sativum
selecciona
sensibilizantes
sirvase
sumo
tiacloprid
tolerable
torax
tpiy
verduras
731
9e003
acuicola
atraviesen
berna
cambien
dietil
dividen
ecs
engineering
eps
expediciones
expongan
helio
hidrolizadas
interpuesto
laminadores
miejscowosci
munecas
obligue
olefinas
pagadera
participando
pfc
propositos
radares
receta
rechazan
revisen
rosca
seg
sumideros
supervisoras
tereftalico
termometro
turco
##98
##llo
##xi
672
adhirieron
alquitranes
aromatizada
asimetrica
bodegas
cancion
caparazon
complementan
conducidas
contrabando
darya
excederan
furanos
grietas
gwh
heredadas
impulsado
invierten
irreversible
justificante
manufacturing
metalaxilo
multirresiduo
mutaciones
pasadores
perfumeria
pocillo
prospectiva
quality
ratificar
reacondicionamiento
redonda
reexpedicion
repartidos
restreint
retenida
riga
schleswig
subsuelo
toalla
##89
##he
1939
2232
647
654
711
836
886
acuerde
ajustadas
anades
aparentes
aplastamiento
automatizacion
bulgaras
camas
center
colmenas
contraviniendo
documents
emblema
evitaran
foreign
ganas
holstein
inadecuadas
incremente
inobservancia
internalizada
liberada
linn
member
mencionaran
myo
pagoda
porto
prejudicial
psp
remolcados
rom
sindicato
suyo
t2l
tetrazol
toldos
veterinary
##47
##79
##и
32000
7004
aconseja
aguaturmas
alterado
anticuerpo
aplicarlo
apoyada
argon
cadiz
centrifugado
cercanias
colocan
county
cultivada
depreciaciones
diamina
diluciones
disodico
ema
embarcados
esclusa
esternon
exporta
faneca
fly
fuel
hidrotratamiento
incubadora
influido
insuficiencias
legislar
llena
maritime
multinacional
noruegos
nutritivas
pazundaung
rigor
salar
sellar
sprattus
sublote
supero
sustituciones
tantalio
telefonicos
##acetato
##em
2166
abstendra
asimilaran
asumen
avanzando
bote
buscado
cea
cotizan
devolverse
disueltos
enc
encendidas
espirituosa
estopas
ferroaleaciones
ferroso
galapago
habidite
ici
manuscrita
mc
mvm
nanomateriales
paridad
refuercen
retenidas
sida
sofia
subvencionado
unesco
##24
##ux
1312
2229
506
703
771
absorbancia
ahorrar
ajustando
altenburg
aprestos
ayuden
between
caravanas
carpa
cms
comparecer
cured
decisorio
deducen
descentralizados
edp
embarazadas
embotellado
estabulacion
extensivo
extrajudiciales
franz
fundamentado
gratuitos
hacerlos
hibridas
imputar
inconvenientes
intercambiados
inverso
inviertan
inyecciones
its
microbiologica
nilo
ocean
ontario
paguen
paracaidas
pediococcus
plegables
quitasoles
radionucleidos
renuevan
resultaba
securite
suscriptores
terapeutica
terapeutico
twh
ventajosas
verdolaga
visualmente
vulcanizar
zus
##58
##ak
##ee
##ite
1139
901
barbecho
blindaje
bolsos
cabezales
certification
chandales
chips
clotianidina
detectaron
dilatacion
divorcio
enaguas
hunedoara
inerciales
langur
leyenda
libio
magnesia
masica
mpgm
ocupara
odoriferas
officinalis
olivos
papas
parrillas
pericial
pezunas
prioritariamente
ra3
recabados
retirarlo
rija
salicilato
sayed
sementsverksmiðjan
suprimiendo
vacunado
vrn
ye
##34
##bis
4500
8471
administrada
agrupada
alcalinidad
ara
c11
cds
combinen
convertible
cpv
creta
crl
digestivos
dirijan
disipacion
duty
esforzarse
fresa
hercegovina
ini
intrusion
ionicos
ita
ixa
liquidarse
manifiestos
mareas
monensina
monografia
multiplicadores
nobles
operados
publicaron
reasegurador
redactarse
rendira
republic
robots
s3
secuestro
sentinel
sombrereria
sun
tantalo
technical
tiram
travesias
turingia
volumetrica
1315
6a203
agaricus
amidas
berros
bismuto
cascada
cb
cedentes
cedida
cerradura
completadas
compradas
compresas
crecientes
cuantificados
defensores
desgravacion
disuasorio
enilo
equipar
festivos
fusibles
golpe
incurre
kosakowo
mutuos
nestor
nucleico
oponga
perifericos
potencias
promueve
pyongyang
ratan
rectificada
reestructuradas
reproduce
shorts
similitud
sumarias
termostato
##29
##32
693
academica
adjudicatarios
aeoi
alilo
apoye
basura
bessel
carboxilicos
carezca
ceramico
clinker
colocadas
contrapresion
diurnas
dmitri
dtc
epic
fabriquen
falsean
femur
ferrico
flandes
giroscopios
gl
granulado
head
her
iberpotash
iguala
inadmisibilidad
liso
mariposa
marque
miesto
modificando
monohidratado
moscu
ndla
obligatoriedad
osea
panorama
payment
perciban
perdera
previsiblemente
prosperidad
reciprocos
reconocibles
reemplazar
reflejaban
sein
sincronas
solanum
submodulo
sulfuros
triticum
ultrasonidos
valona
wielkopolska
wrocław
##9000
##ah
##ner
1030
602
61162
adhirio
adjudicada
administrarse
alcantarillado
apuntan
atenga
cargador
case
confituras
corse
cultivado
desplaza
devengaran
disfrutado
eneldo
estipular
estipulara
geo
habitaciones
imprentas
instar
juzgue
knic
malos
maniquies
mining
mudanza
nazionale
nordlb
nube
ocurridos
oder
olimpicos
palmitos
peligrar
pondria
profundizacion
queremos
ranura
rodaballo
solicitaba
spray
transforman
valora
##28
##ss
0210
1604
497
755
848
actualizando
ajustables
ato
bison
comenzaran
conciliar
concluyan
contaminada
crisol
diil
enfermos
erroneas
expresen
express
fraccionada
h2
infringe
jueves
kony
liquidativo
malik
nrtc
ojala
organicen
organizativo
parafinicos
plato
prototipo
proyectado
rate
rmn
roten
siniestro
sobrepasan
subordinara
testimonio
tincion
tiofeno
topadoras
transbordador
ucranianas
venga
volvieron
abarcaba
abusivas
acompanantes
aglutinante
akhtar
brussel
cardos
comenzaron
competicion
correctora
cresta
descubrir
desulfuracion
disparo
disuadir
ecx
enteritidis
escasos
estructuralmente
examinen
extractora
first
hablo
implicitamente
inbs
intervention
intrinseco
involucradas
limpiados
llna
mineras
ocupo
ofrecieron
papelera
pelagico
perjudicada
programable
pronunciada
racores
refugio
regirse
superaba
trituradas
turistica
up
##ik
##ty
1c450
32002
abordaran
aecg
alki
anadieron
aproximadas
asalariada
asesora
atrasos
bastar
cadeneta
cargadas
condensar
contabilizadas
cooperando
cursar
dificultar
emulsificante
estancas
favorezcan
ftp
government
gravados
incorporo
interviene
irreversibles
lactoalbumina
lactona
laurel
legitimamente
liquidada
llenar
lsh
lubina
marteilia
microbiana
muamar
paktika
pintados
promocionales
pulverizados
pusiera
rbs
rebasa
reposar
republicas
ruega
smc
sustituyendo
tecnologicamente
trisodio
turistas
ucranianos
universalidad
vidas
yacija
##ds
##ito
##ot
1074
1292
aduce
advertir
alil
amir
auf
barbados
c0060
cagliari
carcinogenicidad
clar
compensan
concedia
dietilamino
dsgp
entendiendose
falsee
fiduciarias
fotovoltaicas
foundation
goce
hexahidro
inadecuados
inmovilizaciones
integraran
kimberley
luxemburguesa
necesitara
neodimio
nitrito
nnbg
ochenta
pictogramas
propusieron
provinciales
regulamentul
rellenara
revisaron
roto
sobrepasara
states
tejida
venezolana
verifique
verne
viib
##tor
##tt
100630
30°
789
912
961
977
accionamientos
aerodinamicos
almacena
aproximar
armonizarse
arrastrar
bidireccional
bubalus
ciberseguridad
circule
compararan
conmutadores
consecutivo
consiga
consiguientemente
convenidas
denego
descortezada
desguace
desistimiento
diamino
disyuntores
dorado
efrag
emitirse
epidemiologico
exponiendo
extraen
fianzas
fision
ideal
inyectar
lastre
llamo
medible
milano
negociable
nicotina
ofimaticos
pecho
pev
pluma
practicadas
probados
proviene
purga
reflectantes
refrendo
repercute
revalorizaciones
rozporzadzenie
sacu
subregional
tiofanato
tipologia
trachurus
tradicion
trasladadas
tripulante
udi
venza
wltp
zn
##iva
##ji
##lia
##ll
##ow
598
799
acetamido
ajo
amortiguadora
ananas
antioxidantes
antiproyeccion
asocia
bahia
bankco
cedefop
cloroformo
codificado
comedores
condicionado
conservante
corderos
deberiamos
demostraciones
desplegados
empalme
encargue
especular
fenogreco
flejes
fzg
gmina
grinones
guarde
hidrograficas
homologadas
impidio
impropias
interpersonales
iwvta
klu
lucia
observaron
otorgaran
pasarela
patronal
pepino
proyectar
pvt
redactadas
reintegracion
responderan
sueltas
sulfurosa
temporis
ticr
toluidina
wp29
##ai
##ben
##cilina
##ire
0b001
1565
1893
2087
2202
2568
2b001
841
876
abriran
autocar
boletines
chinensis
constatadas
cuajo
dce
diluyente
discutir
elaborando
espectaculos
explosiva
expropiacion
financio
fueren
hidrato
hisopos
humedos
industrie
inmigrantes
intermodal
leucil
milk
museos
mykiss
obvio
olores
permisible
petroquimica
pierda
proa
proseguira
resortes
rovings
rozamiento
setenta
sonar
soportan
subtipos
sufran
usaran
valoraran
wet
##des
0054
1c350
441
742
831
abdominal
acer
ampliando
anchos
capilares
ciclopropil
comunista
convexo
desenrollada
destacada
eel
elimine
encanta
epue
exclusivas
experimentaron
fabrique
forzada
franquicias
hacian
inequivocamente
influyan
injerto
inscribir
iria
jalaluddin
leader
meteorologico
metilicos
monohidrato
neurotoxicidad
ofex
pao
persigan
pina
pulverizadas
recuerdo
regenerada
roe
rotatorio
rotatorios
shetland
tebuconazol
terremoto
topografia
##62
##87
##97
##ers
##ms
##tte
##а
2470
5o
840
9a005
accionarse
alcanzadas
alternadores
amilaceos
aplazado
autostrada
calificar
cic
computacion
considerandose
delimitado
directorio
editoriales
ejecuto
epcgs
firmaran
generale
ghazni
guar
hds
indigenas
intensificadores
interconectados
kit
latigos
mediador
nay
obsoletas
pasadas
pbs
pentru
quebec
radiologicos
recaera
reforzaran
relatif
richtung
rotativo
sapr
sauco
seguirian
solvente
suceder
tasaciones
trampa
vincular
##07
##57
##93
##zione
1418
1788
681
algarrobas
aseguradora
cadaveres
carpetas
chales
cisa
comparecencia
convocado
crecer
esperanza
eticas
facial
ferrosilicio
francos
hidroxinaftaleno
high
identificativos
importo
japonicus
karjaportti
llam
ln
mai
micro
minimizacion
mostrando
neutrones
nuo
obviamente
ocultar
participativo
policlorados
preimpregnados
primates
produciria
proteaginosas
pruebe
revolucionario
riberenos
sobrecarga
sovello
subsecciones
surgen
sustraccion
tendente
teneduria
tenida
tormenta
uber
uz
##94
##rt
##ure
0304
1384
17024090
434
618
932
actualizo
alelo
amortiguador
brosmio
bufandas
cabal
cerebro
cerrara
confia
convenientes
costo
cumpleanos
cumplida
dicte
ducroire
dusseldorf
elevador
erucico
esponjas
eurofound
genotoxicidad
gravar
hex
ht
lanzar
macis
malev
marquese
molva
multisectoriales
perlados
presumir
programables
recogio
renunciado
sombra
tolil
turisticas
##42
##ales
1265
833
870
924
acogidas
agregar
agruparse
anguilas
aspirantes
bolonia
brillo
cambiara
canos
chica
cmp
conectara
dcl
denominarse
desplazar
divididas
esparteria
estatutaria
explorar
fallidas
fbs
festuca
gs
importaron
investigadora
kaupthing
kh
liberarse
minero
ministry
nhto
obstaculicen
osha
out
percusion
piperidin
production
quirurgicas
rac
rigurosa
senale
subinstalaciones
super
texturados
tricalcico
tunicados
varilla
vecino
viruela
##73
##cao
##ted
1185
503
6a003
acrilicas
acristalamientos
actualizan
alojar
anulados
aprueben
arriva
artistica
asideros
atractivos
balanceo
beneficiosos
c9
calabria
campylobacter
carboximetil
cetaceos
cisteina
dejame
desembarcarse
detenidamente
devueltas
dietilenglicol
dl50
duplicaciones
edta
encefalitis
escuchar
estimara
extensificacion
hiciste
inquietud
intoxicacion
legitimidad
letrado
lumbar
manipulado
molinos
moody
necesitamos
olvido
optimista
pediatrica
piraclostrobina
politetrafluoroetileno
reconstituida
relacionan
salmonidos
silo
sinterizacion
termometros
tower
traje
triangular
vsl
##27
##etil
##ger
##pe
##tis
13000
1535
621
acumular
articulaciones
atendidas
atentamente
bencimidazol
bordar
bpp
centran
chuletero
circundante
competition
complicidad
consagrados
consume
contestaron
convincente
corregira
cristalizacion
cuentakilometros
divulgada
doha
encubierta
fet
fm
gerentes
habitos
hamza
hankook
inflorescencias
juramento
ka
kyi
laminada
lavadora
lechero
manitol
menoscabar
modernas
nacieron
nbb
nonies
opuestos
ordenara
originacion
pentaclorofenol
perjudique
pilseta
pronta
prospectos
redondeara
reincorporarse
silencio
since
sisal
solicitare
str
talabarteria
vecinas
##37
##46
##fenol
##filina
##ku
##tar
##tivo
##ula
1003
1754
523
646
aaa
administration
amistosa
amor
anotaran
apunta
bgbl
bombonas
coadyuvante
continuan
cosechados
curvar
david
descriptiva
desplazada
evidentemente
faltas
gasa
gravan
incumbira
intentando
intercambiable
invocado
khairullah
llamamiento
mansour
mec
monomotor
mutuel
navajas
noroccidental
operaba
orejas
permitian
polinesia
portapiezas
protegen
pude
pullovers
reformada
reproductivo
riqueza
said
satisfacerse
sensibilizante
shed
socioeconomica
sumaran
sumergibles
suspendio
ultra
uri
variado
vitales
vos
vuelven
##ere
2119
623
adicionalmente
aldea
ayuntamientos
borico
caiman
cccmc
chirivias
colofonia
compete
copiadoras
cuantificado
dioxidos
drs
ela
estipule
etiquetarse
experimentar
fertilizante
focos
fra
gabonesa
gasas
grabador
herrajes
hpa
inscriben
lapices
libor
matar
mayoritariamente
metodologicos
obstaculice
pagaderas
pesadas
pesan
protejan
quejas
queres
reflejados
refrigerantes
retenciones
retiran
robados
saludable
sanguinea
section
segregacion
sobrealimentacion
solanaceas
utilizarla
vendian
whsc
##66
##im
##ini
##izado
##ntes
12000
1700
2107
2375
32001
653
869
915
abastecer
actualice
acuicolas
add
adriatico
bad
carassius
ciertamente
construirse
cuantitativamente
cuestionaron
culturas
curtidos
dejaron
destruidas
disfrutaran
disminuciones
estabas
exigentes
explicaba
f3
invocados
lecitinas
leera
mantillas
montajes
multicapa
opta
peluqueria
pensando
pyay
racismo
rebasan
recurrio
reles
repartirse
resinicos
reversibles
saccharata
sendas
subvencionada
suponerse
tensoactivos
truchas
umicore
vincularse
volumetricos
##78
##ese
##ide
##ides
##osa
1763
2402
3922
5000000
6r
787
8701
970
adaptarlos
albergaba
alma
atengan
besugo
cab
cep
cimos
colmar
coloreada
complementara
complementen
confirmese
creces
cycle
delimitar
descodificadores
eeuu
eritrocitos
estrucioniformes
etanolaminas
evolucionado
farm
fischler
fitogeneticos
histopatologico
incumpliendo
indisponibilidad
intentara
interceptacion
iron
jabegas
melon
msr
nangarhar
navarra
osu
paloma
pedagogico
peores
preveran
puntualmente
rumanos
sancionar
semi
simplificadas
sos
sspe
subacuaticos
th
tiodicarb
turbopropulsores
valdeal
##sheim
##tida
1072
1101
1262
1382
2529
2700
921
aeroports
articas
asetus
atravesar
bratislava
calibrados
casing
cdsp
cometio
convincentes
corp
cromosomas
cuadricula
cubicos
destilador
dragas
emergente
equivocado
estanques
exigia
exploratorias
facultativas
germanio
hallara
herlitz
ignifugos
integren
intermodales
isb
lukashenko
materialmente
mirtilos
morteros
nuestras
opongan
orientales
pagaria
pomelo
preferido
pretensado
proyector
reconstituido
reconvencion
recreativos
reivindicacion
supeditados
trabajada
tradujo
transponer
uredba
waziristan
wp29wgs
##2000
10a
1638
507
alegados
alineamiento
antirrabicas
apa
asista
basf
bbb
burkina
butileno
cereza
chicle
ciclohexil
completan
confie
corran
darles
enfrentarse
evoluciones
faso
fotocopia
fraudulenta
hch
impulsados
investigando
kyoto
leves
lucrativos
martinica
matematicas
metanosulfonato
mfg
multiplicaran
oceanos
ondulado
peim
percibirse
pizarras
polifasicos
porotos
preguntaba
probarse
pronuncie
quinolina
recurran
simulado
skrzyzowania
tranvia
trasplante
universitarios
wp29gen
1350
1383
706
8703
953
ajustaron
alejado
alrededores
apergaminados
asesorara
atp
barniz
carpinteria
cascaron
cld
cloroetil
cobrara
contabilizan
contemplaba
contesto
contramedidas
cwp
diluyentes
dmg
encendida
escarola
espinosas
exigiria
femenina
ganadero
letal
liberalizado
mascara
noorzai
otorguen
palo
parma
pn
quedaria
reanudara
recabara
recibirse
refirio
revelan
rotaciones
senas
sentidos
succion
suprimidas
sør
tjue
trozo
usuarias
vecprd
##44
##ensis
1206
1405
1934
3004
498
591
636
adicionada
adjudicaran
amc
articolo
bayer
caisse
cargada
cebolla
cianuros
compartidas
conducira
contradictorias
corresponderia
decoloracion
defectuosos
definio
distorsionar
dit
domesticus
electrocentrale
esbozos
examinan
femeninos
fms
frejoles
guadalupe
huerfanos
iav
inspire
jugadores
kahla
lijadas
longibrachiatum
mencionen
mikkeli
ohn
pasaran
polisacaridos
prepararan
profundamente
redacta
refraccion
reiteradas
reproducciones
requeson
rizomas
satisfara
serpiente
significacion
sinterizado
soc
subvencionar
through
transavia
vigilada
ø15ø7
##84
##ier
07d
1143
agrupamiento
alcoholicos
almacenara
almacene
any
aruba
asumida
autorizaba
bandeja
bastidores
c14
cabos
comprada
custodios
descubrimiento
desplacen
estuario
falda
fang
fluoren
fotos
fukushima
glicina
gna
ile
invocarse
kk
lomo
marcara
matriculaciones
methyl
ministra
mod
monocelulares
navales
nobitz
optimas
plenaria
posventa
presupone
prolina
pu
respaldan
resuelve
utilizaban
varien
verbal
vlcprd
wine
##86
##dores
1108
1406
2206
624
629
752
935
acordarse
admitio
alcaparras
amplie
apareamiento
brecha
cambiarse
camelina
certificat
cil
colirrabanos
decantacion
deducible
destruido
electronic
estufas
fda
fgaz
financien
hare
imputado
indisponibilidades
inflamabilidad
laminacion
limitrofes
lograra
maharashtra
metilen
multicapas
ocuparse
olympic
ostra
planeador
prefijo
quelato
radiante
recapitalizaciones
relief
residido
sgd
subcontratadas
traducirse
tube
usurpacion
viaria
##100
##5000
##56
##han
1517
892
918
9a012
adelantados
adolescentes
agresiva
anestesia
ayudarlos
banano
boyas
cabida
conocia
consumibles
cop
correctiva
ct
desplegadas
diputacion
duodecimo
ebb
eliminadas
encontre
entrego
escasas
estatutario
exoneracion
fabricaran
factory
fragancias
gtt
guyana
harpa
impulsada
jet
microbiologicas
moleculas
montantes
mr
naoh
ofertados
organiza
otorgamiento
paper
pc
peinada
perceptor
phoenix
presuntos
reglamentas
restablezca
terrorista
vencidas
ventajoso
ео
##85
##idos
##rona
10064000
1332
535
588
690
759
7o
acreditara
africano
anadirlas
anguilla
aparcamientos
aseguradoras
atpl
atractiva
bolzano
bujias
carbunco
cortezas
decies
descender
desearia
dpf
elige
estacionario
etan
eusec
fechado
fisuras
fundamentar
human
islandeses
isopropanol
marie
medicamentosas
mejoradas
mineros
motogenerador
nationala
navegar
obtentor
order
osb
pretendan
probada
recolectados
represivas
rose
sebastes
sombrillas
sostenimiento
suprima
tolilfluanida
valorador
vehicle
verter
videoconferencia
wgs84
1371
3a002
643
741
764
8525
acnur
acogio
adjuntese
afecciones
aleatorias
asimilables
auditar
belgium
caballar
campamento
certifiquen
cigalas
companies
comprobando
consolas
contragarantia
convertida
cotif
country
cunas
dame
destellos
diclazuril
dm
emitiran
espiral
exhorto
frias
genericas
hicieran
hidrosolubilidad
inflables
justificaran
kan
leve
licita
meteorologia
moderna
olbia
petrolero
piscinas
pormenorizadamente
ppa
pse
reactivacion
recaudarse
repetidamente
respondiendo
revolucion
saben
semilabrado
servizi
soporta
station
suelta
supervisando
surge
tacos
thc
turcas
uem
vidrieras
##ata
003
2052
2247
6b
746
aal
anotado
arquitectos
ayudado
betel
caballas
caminar
causaron
cgi
coincidira
conecta
confirmando
conicidad
cosmetica
cubrian
derogo
descendentes
designo
duchas
electrotermicos
fenileno
fenolicas
fundamentadas
grabado
grifo
interrumpira
isobutilo
jindal
lantano
mcc
multimotor
nlmk
originen
procediendo
reclasificaciones
reembolse
rellene
repostaje
secador
sentados
sirvio
sugirio
sulfitos
tarros
terciaria
tobillo
transfer
vicia
virginia
voi
##74
##eta
1267
2305
627
868
8c
alcoholica
astillas
astra
bastan
c50
caracterizada
ciclanicos
clasifiquen
contando
copiar
corra
creativa
criptografia
desembarcado
dialogos
esclusas
extendidos
gbagbo
guardamalletas
ifop
iman
imidacloprid
indonesio
infundada
isotopo
kurdistan
localizados
mamifero
manometro
marshall
masculinos
minoria
mula
necesitaran
negocia
negros
pelagica
pnt
portalamparas
protegeran
provoquen
prs
quema
racial
resultaron
spo
supeditara
taza
tendido
tiol
torturas
transportaran
valoradas
vanuatu
##gesetz
##tio
021
1172
1904
2115
457
7h
acumulador
agence
armoracia
black
brigadas
catodico
cizallar
comporten
conduzcan
dependeran
ea
eds
ejercio
empeoramiento
fregaderos
fso
iee
ils
imino
infra
iniciador
irrecuperables
lateralmente
liberaciones
luxemburgues
miasta
monoliticos
msf
oidos
ola
orfebreria
ostente
perforaciones
pirrolidin
prevalecera
provocaria
psicologica
pures
radiador
refinanciadas
reprocesamiento
sabido
semen
sig
subastar
supranacionales
trampillas
trifluoro
universitaria
usuaria
wire
##96
##lle
2117
6a001
6a008
968
acaso
adultas
afectaron
amargo
appcc
aspartamo
bucarest
calandrias
car
cargan
cercanas
ces
cl50
comercializable
concluyen
contemplen
convocadas
corner
creatividad
cresol
criado
cuchilleria
descubra
desinversion
difenil
dis
disconformidad
durara
estructuradas
excluyan
expresando
faizullah
fundador
generadora
geneticas
ibidem
introductorio
investigara
karim
kofinos
list
lonja
mielga
mustafa
mutagenos
neutralizar
obtendria
obturacion
oshv
otif
pagaron
parafinas
pechuga
peshawar
pin
pirotecnia
poor
precipitaciones
primo
pulverizadores
repartira
reproducirse
revelarse
seafrance
solidariamente
sts
syngenta
tarifarias
trasladen
##67
##68
##ex
##ui
2223
35000
712
887
abertis
acusara
adujeron
afr
aland
bo
bpf
cebra
cec
cepilladas
coaxiales
consideraria
craqueados
cuarentenarias
delegan
digestivo
digno
dortmund
dudar
eliminada
emprendidos
ensayado
estearina
extensa
fema
gemelos
grosso
halones
hidrolizado
hostilidades
incorrectas
intangible
inviable
izar
kow
lacticas
laminar
latino
law
lng
milenio
motrices
nitrosaminas
nocturnos
novena
observaran
optativa
orange
paneuropea
pierre
piperidina
plusvalia
predominantly
prodotti
propulsados
provocadas
pte
quieras
reconsiderar
reentrada
repuestos
respetuosos
restringirse
rfid
rugosidad
satcen
security
seesac
setos
subcapitulo
transformen
tunidos
ur
western
1745
456
704
813
941
apreciarse
asisten
asistiran
asumiran
atmosferas
barbuda
brunei
caidas
capra
capricorn
cef
cet
colectividad
comparados
congreso
corindon
cotejo
deformaciones
deposite
desbastes
descontados
desdenable
ducha
ductil
encontrados
entiendo
esparrago
estipulan
excedencia
exp
explicando
glucano
hagas
impartida
incide
ineficacia
inscribira
kilometraje
liquenes
liquidaciones
maaruse
manufacturera
maquillaje
may
metiletil
monocytogenes
morris
nocturnas
nombraran
obedece
origina
paletilla
penetrar
practican
procedian
quizas
ralentizacion
relaciona
subsanacion
tai
talon
taxones
valiosos
volvo
zimbabwe
##08
##ens
##mas
##om
##po
10o
1211
1230
954
accionador
acreditativos
adherentes
angelica
asimilarse
aus
avisador
baa
batallon
cangrejos
chipriota
coopere
corbatas
cuasisociedades
cultivadores
curtidas
debieron
derogaran
desembocadura
eeag
emprenderse
equity
erga
extranas
flash
garantes
harare
hidratado
homs
hubei
hydral
imperativos
inalambrico
incentivacion
incrementada
inseminacion
intensos
jv
kelio
malaui
mastiques
memorandos
minoritarias
osciladores
parafinico
pari
patogenas
pirelli
pirimidina
predicciones
preventivos
profundizar
recorridos
repositorios
resumirse
retsina
rey
salpicadero
surtiran
termoelectrica
tonga
tronco
visualizar
##76
##benceno
##ig
##ls
1747
3400
3901
701
754
933
absorbentes
adjudicadas
agudo
alabeo
antidisturbios
anunciar
banos
can
carboximetilcelulosa
cartucho
cesara
cetona
cinematografica
cinematografico
cogollos
combinando
concha
contarse
corriendo
cotizado
cpl
cumplidas
cumpliendose
declarantes
desecada
desempenaran
dinitro
disparar
display
expiren
explotado
flugplatz
gambia
haut
iluminar
injustificado
insolvente
interconectadas
itrace
ministero
mk
mostraran
ocasionadas
paneuromediterraneas
parientes
perclorato
reestructuraciones
secadora
sometiendo
sufrieron
surgidos
trementina
tubing
ui
volumetricas
xenofobia
##cas
##verina
##yl
1622
1786
3719
948
admitan
agonistas
agujeros
amarillento
anexas
asumiendo
aziz
beneficiosas
betunes
bil
blazers
bloqueado
blr
calmac
carambolas
cin
court
cruceros
distribuya
durar
ejercia
enologicos
ensenanzas
espiras
estare
etiquetar
extenderan
fraccional
garganta
generaria
granulados
ilustracion
improvisados
lanmadaw
lloyd
malvinas
motivar
mundus
musical
nitrogenadas
nova
nutrition
pera
poroso
produtos
prototipos
realizaba
restrinja
reunio
riguroso
sacrificadas
saida
socavar
sufragado
suman
tiende
verian
##prida
##sta
##tado
17023099
2122
3820
518
762
90°
992
account
aducidas
api
asimetria
aspira
bielsk
bocas
bos
bursatil
bw
cajon
ciclenicos
coincidan
comenzando
conectan
corrosivas
daesh
debemos
dependia
desplazadas
deva
diurno
dueno
eficiencias
eftasurv
elevadoras
emprendan
emprendera
enredo
escasamente
exhaustivamente
extremidades
falte
fb
fielmente
fluoresceina
fonogramas
formalizado
frontex
gee
intrinsecas
lichis
negociarse
novia
ornamental
pajaros
parentales
predomine
probatorio
puntuaciones
rabil
rayado
reenvio
reformador
reformar
regulables
saw
sion
skk
snp
soya
standards
stato
suficiencia
traducira
trufas
yemeni
##ich
##lico
##nen
##profeno
0204
600000
763
823
964
abies
adam
aldehido
almadraba
ambar
amparado
antonio
autoconsumo
balticos
cajeros
cayeron
cena
cintura
cizallas
comparara
confeccionado
confirio
contact
coreanos
cot
criptografica
descargado
desconectado
desprenderse
desvios
detectable
diversificar
edctp
encaminamiento
enseres
escolaridad
expectativa
extrudidas
fil
fisheries
fomente
forjados
gano
germanwings
ginseng
gliceridos
hebillas
hp
iiic
ineos
isobutirato
licuefaccion
maakond
matriculadas
money
napoles
nda
nutritivo
permitirian
pisum
precisado
protioconazol
pyrus
rebasara
recomiendan
renovaciones
simplificarse
sometio
sulfona
superiora
tantas
terrenales
terror
tfno
tl
tripa
violeta
visceras
vitrea
##able
##eh
120000
1346
16a
2d
3006
708
890
aducidos
adulta
alinear
arquitecto
arroja
artesania
autenticada
cam
deslizamiento
discapacidades
dms
espumas
explicaran
facticia
framework
hept
horizontes
incorporaron
ingeniero
intravehicular
liquidara
lonchas
modernos
mortero
naveguen
nca
norsk
paneuropeos
persisten
picea
piperidil
prepare
resorte
salto
seaf
separan
shall
slips
smart
subdeclaracion
tensioactivo
tia
tranvias
viajan
yuzana
##1010
##lan
1435
2099
2321
3212
586
685
aceleraciones
aclaran
alojados
balsa
biria
cargamentos
condujeron
copas
costosa
difluoro
diisocianato
distinguiendo
elasticos
encaminado
endibias
enova
enumerar
espinal
esporas
fintecna
fischer
fracturas
glitnir
good
hidrogenacion
homogeneizacion
incoloros
inscribiran
interinstitucionales
jardines
jerarquico
level
liberan
marrakech
multifuncional
nhc
palmitato
pionyang
preocupante
producia
renuncie
residencias
rocio
shwebontha
simultaneas
smac
sospechosa
status
subacuatico
substancias
suprimio
televisions
tinto
toca
vigas
vosotros
vrr
κανονισμοσ
1164
1er
632
744
acredita
altoparlantes
amilaceas
arcelormittal
arnes
asesinato
autoadhesivos
bengala
cocodrilo
coicop
conico
convencida
corales
corporaciones
destileria
dirigiran
dispuso
ecrin
enunciada
estambul
evaporador
exigiendo
federaciones
fustas
helgoland
imputan
incrementaran
laboratoire
mecheros
mejoran
metoxicarbonil
nariadenie
ondd
open
operaban
panceta
pandalus
planteada
pomerania
postes
prorrogue
provitaminas
recomendable
refuerzan
rellenese
revelada
tetrakis
tricloroetano
zadran
##ene
##ingen
##iza
##ong
##zar
2408
3°
538
7b
9403
acetonitrilo
afirmando
alginato
amplificador
andalucia
aseos
atomizacion
bifentrina
brucella
california
cangrejo
cfv
cihalotrina
cobran
comienzan
desconectar
enajenar
escalonada
escogido
esp
estabilizantes
exceptuados
gfw
inclusiones
irrevocables
langostinos
listeria
monofilamento
petroleum
pipeline
porosa
propilenglicol
provecho
recomendaba
reconstitucion
reembolsadas
refinada
requeriria
reservarse
roles
sanas
sociale
societa
supriman
tesis
vilnius
zum
агенция
##200
9a119
abrillantadores
abstraccion
acopladas
africanos
annex
aocs
apicolas
aplastados
bafa
charles
clostridium
clp
coadyuvantes
cometa
comprensibles
contribuidores
coordinan
creadores
cuellos
dad
depresion
difundira
dijiste
duodecies
efp
energeticamente
ensamblado
feef
fortis
forum
gasificacion
generando
gimnasia
granizo
hall
hebei
hippocampus
incumban
involuntaria
mantenia
musgos
nocionales
people
piano
precitados
prodcom
pva
reflejada
refundida
resources
revaluacion
sepi
sesgo
subcontratar
submarinos
sucesora
sueteres
swd
table
tf
timor
tradiciones
utilizarlas
vocal
που
##ac
##lida
14001
2058
522
553
abandonen
acampar
agricultural
amberes
anodos
atraviesan
basic
carcasas
cicloterpenicos
clavel
contextos
cruza
cuanta
cuestionar
deduzcan
descienda
deseaba
ec50
embalado
equivalencias
eurochem
euromediterranea
fipronil
fitosanidad
folpet
formarse
gaseada
glass
guarderia
hexaclorociclohexano
icos
incorporando
lacio
letonas
marchandises
mechon
melli
observese
omitido
ped
peptidos
plantearon
preparo
prosernat
prueben
r0010
reagrupacion
restrictivo
reutilizables
rift
rioja
rucula
satisfacia
silc
sufriendo
supervise
teoricamente
till
toxicity
undecimo
usr
velen
verbund
##lato
##ting
1016
1058
5405
644
adquisitivo
afectacion
afm
agrosciences
alcanzaran
anomalia
anoplophora
aplanar
aplicarlas
artigo
aseguradas
assurance
bangui
bielorruso
bioensayo
carintia
centralizados
concentrarse
copra
craqueado
cuchillo
cutaneo
dragado
elena
estuviere
exigibilidad
explicativos
explote
gradas
hidrostatica
hippoglossus
incitar
inmunodifusion
invirtiendo
karkkila
lasalocid
lov
lustrar
maduras
maldivas
manifieste
manivelas
mann
metropolitana
mrn
muestral
niza
pipas
planeta
plantada
portadora
profenofos
promueva
province
sbs
servilletas
share
shore
sinensis
situaran
sobretension
sorbitan
tollo
transcurran
vaselina
ved
##38
##gas
##ky
##sina
##tada
##tu
1212
1327
1407
80000
803
815
abastecerse
absolutas
agreement
anac
anulara
atentado
aurantifolia
barro
caramelos
ceea
cianamida
cndp
colaboraciones
compensen
concertada
concursales
confundirse
congresos
convenir
crangon
cromeno
ddt
degradadas
desempleado
dielectricas
ehf
eludiendo
encuentro
estacas
euphorbia
evitacion
externalidades
fidedigna
floracion
forzado
frontales
garantizaba
giant
inactividad
incoloro
isd
istituto
jp
linoleo
machinery
macrocephalus
madurada
manteles
martillo
mermeladas
nariz
observara
obstaculizan
origino
pages
palmitico
papeleria
personalizados
pireo
pistola
pomez
recuperarlo
refuerzos
remolcadores
repetiran
sabado
sequia
serpientes
situen
soil
solvit
subespecie
tira
trasmallos
trazo
unidireccional
vocabulario
vocales
wurttemberg
xxiii
yahya
zeolita
##ios
##ium
##izada
##min
##mp
1938
2000000
3918
5404
727
829
926
aceptaciones
acreedora
adonde
aglomeracion
allium
anudadas
aragon
arcos
atractivas
autoctonas
belleza
biungulados
boquilla
cantar
caramelizados
clarin
combine
competiciones
compost
convenidos
corporativos
crediticios
decoraciones
democratizacion
desecho
deshielo
desoxi
docs
dudosos
ecoinnovaciones
envueltas
eqb
escapar
facultativos
fundidas
gratuitas
hallado
home
incumplen
induzca
interdependientes
libra
lindano
magro
masisi
mencionaba
micromol
monton
mostraba
motocultores
multimodo
nanoformas
obturadores
oct
octeto
oplan
palos
perfumes
piden
piensas
pizza
portautiles
provenza
psap
quedarse
rail
rebajas
retail
retransmision
revisa
studies
support
t0
tercas
tisu
upc
vendimia
##3000
##500
##ev
##feld
##ren
##α
##на
1555
1806
1936
698
administrara
afssa
argumentan
armadura
bahan
bermudas
bidon
brandt
carcinogena
cementacion
consultadas
conto
cremallera
depositaran
destello
didehidrocefam
elucion
estuviesen
exclusividad
experimentan
expiran
falla
fluorescencia
fusarium
granular
halogenos
iej
inexistente
ituri
klm
luka
maletines
manta
nutriente
ofertante
ojsc
paneuropeo
pasdaran
pekin
philip
planificadas
polarizacion
popa
propagarse
retitulizaciones
samoa
secreta
severas
supedita
thiha
triciclos
vajillas
vinilicos
vmax
within
±1
##54
##82
##gia
##len
1549
190219
1941
2358
9o
acoja
afilar
altere
anhalt
asociarse
bleu
bpi
bull
calais
cesacion
ciflutrina
ciguenales
compense
confidential
confluencia
consultada
culpable
danadas
decorados
dedicar
degradado
dha
electroliticamente
eou
epidemiologicas
escritorio
espinaca
estacionaria
exhaustivas
explotaba
fluoruros
fotosensibles
fplp
hellenic
hospitalarios
hza
impresores
indefinida
indistintamente
infecciosidad
insertarse
invitaba
ire
lesoto
levistico
manipulen
manitoba
marido
neutral
nutritional
obligacionistas
oleorresinas
pagasts
pec
pelar
planificado
pmax
policarbonatos
praderas
precedidos
predeterminados
preocupado
procloraz
prosciutto
radioelectricas
rectificaciones
recupero
regulas
respetuosa
restando
restringen
rusticana
sandwich
sir
subdelegacion
suscita
tire
validadas
validara
valiosa
varie
vitroceramica
vulgare
wh
wschod
##64
##bank
1007
663
819
859
873
930
abc
agder
anualidad
asegurandose
atendera
calienta
carcinogenesis
casquillos
cisne
cocido
colado
consumir
crianza
d20
descendencia
desove
despegues
diamonio
diclorometano
diecisiete
diligente
disociacion
durch
e10
eea
eligio
encontradas
enfermero
equivalen
esferoidal
financie
finnfjord
firmarse
hansol
hawala
inquietudes
integrara
interbancarios
kfw
llenos
long
maarus
mejillones
microprocesador
ministeriales
npi
oy
passu
persiste
petrogal
pki
propicio
prosiga
qari
rara
rating
reiteradamente
reservan
retroactivos
rizada
sardegna
satisfechos
t3
tejado
tipificacion
tuviere
vinas
yar
##by
##lin
##one
1285
1367
1379
567
827
940
ahumadas
aleksandr
amenace
arbustos
ass
barato
calientaplatos
camiseras
cash
celeridad
concesionalidad
crien
dangereuses
decirse
desbastados
desempenando
detenimiento
dictamino
eood
espiga
estrias
evitado
fisiologico
ftd
gestiones
guinada
hcfc
hepatitis
humedales
icc
imperativo
incubadoras
indonesios
inoperativo
ismail
itp
joseph
kamel
lena
montes
morfologia
motors
mp
mtc
nettbuss
omitir
parafiscales
pediatrico
pelotas
petri
podar
preparando
prismas
producian
progress
prp
recopilara
rectificadores
rejas
repartiran
requeria
robenidina
ruidos
sagu
salem
sencillas
serologico
soltera
soplado
stichting
stm
tenir
triadimenol
unirse
vicuna
warfarina
wik
zapata
##izar
##ker
##tiva
##ys
##zado
1207
1450
1692
1st
594
8704
8b
abaca
afirmarse
ale
ancas
autorizando
avicultura
cdp
chaqueta
choi
concierto
correlaciones
crian
cromato
cumplimentadas
decorativos
descubiertas
dihidrobenzo
docente
domiciliadas
domicilios
drogi
electrolitico
eleva
escaneres
escribio
escucha
esquina
hallo
iata
impartira
incitacion
inexactitud
interpuestos
interreg
io
ionica
island
ivb
jabones
justos
leches
levantarse
litorales
movilizados
oponente
ose
parecido
pasteles
patrocinadoras
pedales
pesd
ppl
propague
recaudado
reconocible
rectificativos
refuerce
regularan
repercuta
seleccionables
septentrionales
sidecar
split
sumarse
taninos
tapadera
unilaterales
##ae
##propano
##sk
##та
00b
0102
1293
2o
449
564
60061
abusivo
alejadas
amend
andrei
ballenas
bcam
belgique
ca1
cabecera
clasifique
colorimetrico
common
concurren
conservadora
content
corregidas
crearon
cumpliesen
deficitaria
desgrasado
desinfectar
despacharse
domingos
eireann
estais
extrapolar
fitoesteroles
heridos
hlb
hop
impresora
indoxacarbo
investigo
loec
logaritmo
medianos
mejorada
mel
muescas
nariadenia
normalidad
nucleicos
pat
pco
pde
pendimetalina
persista
pine
preformas
publications
requerirse
restara
simulante
suceda
suicidas
tall
trabas
transductor
variadores
vennootschap
##gi
##oxi
##е
1120
11a
4064
acampada
acron
adaptarlas
al2o3
ambientalmente
anunciadas
ascorbato
aseguran
aspiradora
aterrizar
autoevaluacion
berliner
bonito
calceteria
chaozhou
codorniz
commerce
compondra
conciernan
creativo
credenciales
egr
encomendada
end
epidermis
estragon
estratos
files
fludioxonil
homeopaticos
indivisible
instala
kad
katsuwonus
lietuvos
maletas
mangostanes
mede
medi
merito
mf
multifasica
notese
ocasionales
offshore
operara
opten
orientativa
originadas
perfluorooctano
planeamiento
plastificante
proveer
rami
regresar
reposteria
retitulizacion
revisan
senalaran
solidaria
tantos
tribales
utillaje
xanthomonas
##via
1269
1433
728
903
aceituna
adoquines
alcalinas
analista
anillas
apagada
basir
bursatiles
ca5
canadian
canas
coercitiva
contratadas
corresponsal
costilla
cox
cumulation
desembarcados
disodica
dotarse
eei
eia
empaquetados
enganosas
escaneado
esmaltados
espectadores
estudie
expidieron
extienden
fhb
flotabilidad
fomentan
galactopiranosil
htoo
humedas
imad
ineficaz
integrando
intercambiara
jiv
latente
lavaparabrisas
liebre
mantenerlo
matematica
mecha
mensurables
ministere
nh3
niegue
notables
nulos
oryzae
oxigenados
perciben
pimetrozina
posta
predefinidos
presidira
prestadas
prolonga
propineb
revolveres
ruqueta
salvaguarda
siguiera
study
sudoeste
t4
taipei
tele
terapeuticas
testliner
trapos
umbria
xxix
##ivo
##men
##yi
10b
1109
1118
1162
1263
1896
583
800000
895
976
activan
actualicen
administradas
adyuvantes
airbus
alimentarse
ancianos
anses
anticontaminantes
asesinatos
asturias
biodisponibilidad
caco3
captan
clasificables
conferida
delgados
descontado
desestimacion
desglosar
desvainadas
difenoconazol
ecaf
ect
enano
esquis
feria
fundado
guardabarros
hidrazina
iu
loza
marcaran
mer
micronutrientes
midan
negado
organisation
oso
periferica
pfe
pm10
prefecturas
primordialmente
proyectada
realizaciones
recaiga
recolectadas
relieves
renibacteriosis
resueltas
rpd
rr
salinidad
semiacabados
sucedio
suscitan
tachonet
tailandes
vasco
##000000
##lon
##rin
1205
2792
4°
5303
719
786
830
acefato
adhiera
alabes
argentino
aries
aromatizar
bacteriana
beneficiosa
caa
cardada
causo
cautiva
cmn
coloque
complicado
conduciria
consola
constituyendo
danisco
decimotercer
denuncio
etiquetadas
extraibles
fluorobencil
fundamentada
fundida
garantizaria
hormonal
humanidad
hydrocarbons
incurran
internacionalizacion
interrumpidas
ipm
jugando
khaled
kwkg
lienzos
linoleico
liquide
logistics
maxlength
mucilagos
mutagenicidad
nbg
nodos
pacanas
peligrosidad
penta
pirimetanil
pmr
prepago
preparen
presume
procedures
propamocarb
rebaja
reintegrar
roscadas
secarse
senado
seta
simet
simetrico
sindicales
situandose
situaron
solventar
tacografos
terciario
timbres
trietanolamina
turcos
videocamaras
volcanicas
zee
##ey
12°
1359
1719
687
875
abdomen
acreditaciones
acreditarse
administrativamente
agave
agcs
alteran
arce
asiste
asnos
atracciones
atraviese
ayudarles
bldg
bloqueadas
boiling
bombachas
borealis
cantera
capturen
cargarse
coagulacion
concentra
conviertan
cromen
crucen
depositarse
dimetiletil
distintivas
eclosion
ejercitar
espinas
estirados
excrecion
finalicen
frisos
gladius
hornillos
influyeron
innecesariamente
invitarse
jecfa
justificativo
kierunku
languedoc
liga
liquidaran
manzanilla
mucl
p3
parezcan
pelamis
perdieron
pestanas
precintados
prime
pulmones
pulverizado
razonada
rectangulos
rellenado
repercutan
respalden
respetuoso
rules
sman
solvent
srtt
subrayaron
tartu
tnp
trento
tributilestano
vincula
vodka
vpc
vulcanizacion
κανονισμου
##amiento
##hausen
##н
004
1c011
1d
7638
773
abamectina
adipico
autentificacion
ayudan
basuras
benzotiazol
bij
buscada
ccc
certificate
cigarritos
copresidentes
deficitarias
descriptivo
desembragado
dificilmente
dpi
electrotecnica
emprendedores
existieran
ff
fmea
frenada
frondas
gil
glicol
hipicos
implicitas
invitaciones
juan
lambert
landsvirkjun
lavarse
llegadas
md
mezclan
modacrilicas
mueble
news
nulas
ometoato
overoles
pacific
pak
parafiscal
propondran
purificada
pvd
r3
ray
recogieron
recomiende
remolcable
remota
repetido
rutina
simetrica
skin
sostenes
sumario
tabiques
talio
triadimefon
variara
verbales
vinico
vinilideno
xiphias
xxvii
##ego
##iana
##mento
##ps
1015
1387
1524
3b001
70°
absorbido
adif
agendas
alegadas
angustia
asignaron
ayudo
bacalaos
benzoil
bgn
bioanaliticos
brochar
calamar
cancelado
candidata
centrados
cerv
cofinanciado
cofinanciar
colectividades
colisiones
complice
comprueban
contrasena
coss
csirt
cuajadas
cubo
destiladas
dialquil
diisopropil
disipar
dormido
dragon
endospermo
escalonado
estacionalmente
estigma
estimaba
favorezca
fehacientes
fragmento
generaran
glufosinato
gta
guitarra
għall
icd
impugno
incluyera
incoherencia
instaurado
interiormente
interpretado
laminadoras
lejania
luminarias
marinero
metalurgica
metilfosfonato
monomodo
morir
norway
olvidar
penaeus
perifericas
pertenecia
polimerasa
potajes
pressure
proveedora
reiterado
revolucionarias
sae
significaria
sillines
sistemicas
sobrepasado
sombrero
televisor
two
uic
vulneraciones
##ismo
##ju
1103
1612
17029099
750000
838
937
acumulativamente
afectos
afganas
alianza
archipielago
atpg
brandeburgo
carcinogenas
cardadas
caseinas
cenelec
centrifugos
cobraran
contestar
corrosivo
craiova
cuprico
danmark
deficientes
desfases
enderezar
estes
extensivas
fosforos
fp
fund
gambas
garajes
gemass
gesetz
gmo
gramineas
habilidades
hexaclorobenceno
hofstadgroep
homogeneizados
impediria
incrementen
induce
inesperadas
irrigacion
lances
licens
lne
manejan
metilsulfato
mosaicos
nematodo
nivelado
notifican
o1
omnes
operadora
pagellus
panty
pediran
pianos
platija
practiquen
prefabricados
rchap
route
salih
sapid
sedimentacion
selladas
sio2
subterraneo
suponian
tco
vai
warrants
##type
10062098
1166
1741
1931
559
accedan
aconsejo
adaptando
aducen
agitando
allah
ambicioso
ansar
aproximativas
barandillas
break
bromoclorometano
bts
certificarse
champinones
compartiran
compensara
confiadas
consiglio
conteniendo
convencer
cortocircuito
dentex
descentralizacion
determination
difenilamina
dimetilformamida
diodo
diseminacion
emprenda
escandio
escarcha
espesativos
esquinas
estatutarias
facturadas
fenamidona
friuli
fsbesitzg
haberla
halibut
hexanoato
hg
identification
impositiva
influencias
intercambian
jong
karachi
latiguillo
laton
leyendo
llorar
manan
mare
monocrotofos
muros
nco
opusieron
ordenadas
pantone
parido
pentaeritritol
perforado
polacos
portuario
prevera
prospectivo
reactancia
reborde
register
rendir
robert
rp
servidas
siderurgicas
sobrevivir
tarifaria
tarifario
tiamina
veia
vodafone
°k
##400
##cida
##del
##net
##rida
##strasse
1168
1184
14000
1676
1920
722
825
839
abran
accederse
acerias
acudir
adecuar
adns
agudos
ako
alimentan
aplazarse
approximately
ascenderia
azoicos
bogie
borras
c0050
calcinado
calibrar
carbonitrilo
cascarilla
centrar
cojines
comprobables
concisa
cumplimente
decapado
denunciado
desprendimiento
detenerse
dfe
dificultan
enfermeros
foshan
gira
guindas
haloxifop
iev
imprimira
impulsion
incurren
instalan
insularidad
intente
interdependencia
invierta
isopreno
issued
khost
ki
maneb
masivo
menu
modelar
mohos
persianas
piezoelectricos
polisorbato
polivalentes
pres
proactiva
refrendado
regia
renovados
resinoides
reutilizar
sacrificaron
sano
seleccione
sonidos
statistics
substances
sujetarse
suroeste
suspendan
tailandeses
tangencial
termos
thynnus
toyota
tvo
unir
uti
valina
viceprimer
viif
zapote
ракия
##4000
##ena
##ima
1092
1447
2078
2150
2825
724
772
7a001
abuelo
anticipar
aplicase
atenuada
aux
avicolas
beisbol
beneficiaba
bifenazato
bisulfito
bs
buonotourist
candelas
carbonilo
causantes
cebollinos
colaborador
complex
corredera
cosechadoras
d3
dairy
derrames
desglosan
diluida
doue
eaa
ecsel
entregan
enviando
festivo
fsa
fungible
giratorios
guangzhou
impedancia
inducidos
injertos
insistio
invalidacion
iprodiona
irradiado
lavada
llegarse
mb
means
metoxifenozida
movement
nancy
nep
nivelar
nodrizas
oiag
parentesco
pepitas
perdi
pesarse
pimenta
polos
posponer
postnegociacion
privilegiado
rastreabilidad
remolcador
renovara
rw
salamandras
saneadas
secuestros
siliconas
soldado
sufragara
superaron
survey
tabacos
tallinn
transmitente
upov
valoren
vientre
wschodniej
##ante
##ces
##rado
##vich
##zada
##zida
1639
1750
2328
2366
3g
4127
682
aborde
acronimo
adquiriendo
aglomerar
agrupado
agrupan
aguila
agujero
analito
anule
aspersion
atraccion
aumentada
bay
blanquear
boligrafos
calma
camada
cambiantes
carecia
carezcan
centinela
consignen
consistian
contabilicen
contramarcos
convencido
cordon
corresponsalia
decrecientes
decretos
denim
deshidratacion
eludan
encaje
etoxilados
evitan
fsc
fumigacion
guarnecidos
incision
invitadas
jornadas
laceracion
lecciones
liar
llover
loco
lubricacion
lustres
miliequivalentes
mingalardon
musa
nacio
naim
nivelada
nmc
npa
pegado
prolongados
provocaron
puma
rayada
reflectores
robos
rodillo
s4
senior
sento
sindicado
sirias
small
subelementos
suelas
temporarias
thuringiensis
transbordadas
tratare
viarias
vienne
##010
##cho
##ira
##ssa
##zan
0001
1381
1668
2028
2601
64742
906
amortiguacion
amortizar
anaerobia
aplicarian
apoyaron
armar
armoniosa
asecna
bac
bazo
bentonita
biocarburante
bioquimica
cardamomo
cdo
colaboradores
comio
corrigendum
corsica
costoso
cubrio
dac
decenas
desacidificacion
difenacum
dihidrato
dilatada
epidemiologia
explosiones
fitosteroles
garaje
hileras
hinojos
homogeneizado
ignalina
intercambiabilidad
je
larco
lisil
litchis
localizaciones
logaritmica
mia
mirando
ml1
mutual
nocturna
olp
oxazol
peace
perada
perseguira
picado
pitahayas
plateado
precalentamiento
proponentes
recuperadas
recurrida
regadio
regulaciones
sacarina
sacrificios
saneamientos
sarl
semental
subastador
subclase
subespecies
suministrando
tiabendazol
tnt
toracica
trutta
validador
viih
##900
##dia
##floxacino
##nina
##sky
1832
2497
3003
4803
534
688
995
abonan
akzo
alcanos
als
aluminium
anotados
apd
arandano
asparaginil
aust
ayudando
ayudaran
ayudarte
bobinado
bonitos
boratos
bufala
bufete
caudalimetros
cermets
cftc
cian
clorotalonil
coinversion
comercializables
coreanas
corrido
crisoles
curados
demostrando
departement
detiene
diatomeas
disparidad
dividiran
ds
ensambladas
envasadas
erroneos
eslovenas
espantapajaros
establishment
estampas
etilamino
externalizadas
formalidad
fresadoras
heptacloro
hidroxilamina
inducido
inspeccionadas
jallaloudine
lates
ll
llevanza
logotipos
lujo
macroprudencial
mama
mantenerlos
[...]
